{
  "version": "1.0",
  "truncation": null,
  "padding": null,
  "added_tokens": [
    {
      "id": 0,
      "content": "<pad>",
      "single_word": false,
      "lstrip": false,
      "rstrip": false,
      "normalized": false,
      "special": true
    },
    {
      "id": 1,
      "content": "<s>",
      "single_word": false,
      "lstrip": false,
      "rstrip": false,
      "normalized": false,
      "special": true
    },
    {
      "id": 2,
      "content": "</s>",
      "single_word": false,
      "lstrip": false,
      "rstrip": false,
      "normalized": false,
      "special": true
    },
    {
      "id": 3,
      "content": "<unk>",
      "single_word": false,
      "lstrip": false,
      "rstrip": false,
      "normalized": false,
      "special": true
    },
    {
      "id": 4,
      "content": "<mask>",
      "single_word": false,
      "lstrip": false,
      "rstrip": false,
      "normalized": false,
      "special": true
    }
  ],
  "normalizer": null,
  "pre_tokenizer": {
    "type": "Whitespace"
  },
  "post_processor": null,
  "decoder": null,
  "model": {
    "type": "BPE",
    "dropout": null,
    "unk_token": null,
    "continuing_subword_prefix": null,
    "end_of_word_suffix": null,
    "fuse_unk": false,
    "byte_fallback": false,
    "ignore_merges": false,
    "vocab": {
      "<pad>": 0,
      "<s>": 1,
      "</s>": 2,
      "<unk>": 3,
      "<mask>": 4,
      "!": 5,
      "\"": 6,
      "#": 7,
      "$": 8,
      "%": 9,
      "&": 10,
      "'": 11,
      "(": 12,
      ")": 13,
      "*": 14,
      "+": 15,
      ",": 16,
      "-": 17,
      ".": 18,
      "/": 19,
      "0": 20,
      "1": 21,
      "2": 22,
      "3": 23,
      "4": 24,
      "5": 25,
      "6": 26,
      "7": 27,
      "8": 28,
      "9": 29,
      ":": 30,
      ";": 31,
      "<": 32,
      "=": 33,
      ">": 34,
      "?": 35,
      "@": 36,
      "A": 37,
      "B": 38,
      "C": 39,
      "D": 40,
      "E": 41,
      "F": 42,
      "G": 43,
      "H": 44,
      "I": 45,
      "J": 46,
      "K": 47,
      "L": 48,
      "M": 49,
      "N": 50,
      "O": 51,
      "P": 52,
      "Q": 53,
      "R": 54,
      "S": 55,
      "T": 56,
      "U": 57,
      "V": 58,
      "W": 59,
      "X": 60,
      "Y": 61,
      "Z": 62,
      "[": 63,
      "\\": 64,
      "]": 65,
      "^": 66,
      "_": 67,
      "`": 68,
      "a": 69,
      "b": 70,
      "c": 71,
      "d": 72,
      "e": 73,
      "f": 74,
      "g": 75,
      "h": 76,
      "i": 77,
      "j": 78,
      "k": 79,
      "l": 80,
      "m": 81,
      "n": 82,
      "o": 83,
      "p": 84,
      "q": 85,
      "r": 86,
      "s": 87,
      "t": 88,
      "u": 89,
      "v": 90,
      "w": 91,
      "x": 92,
      "y": 93,
      "z": 94,
      "{": 95,
      "|": 96,
      "}": 97,
      "~": 98,
      "¡": 99,
      "¢": 100,
      "£": 101,
      "¨": 102,
      "°": 103,
      "±": 104,
      "²": 105,
      "´": 106,
      "·": 107,
      "×": 108,
      "á": 109,
      "ö": 110,
      "÷": 111,
      "ø": 112,
      "π": 113,
      "‑": 114,
      "‘": 115,
      "’": 116,
      "“": 117,
      "”": 118,
      "…": 119,
      "ℤ": 120,
      "≤": 121,
      "─": 122,
      "│": 123,
      "♀": 124,
      "♂": 125,
      "in": 126,
      "en": 127,
      "te": 128,
      "end": 129,
      "re": 130,
      "if": 131,
      "er": 132,
      "th": 133,
      "::": 134,
      "do": 135,
      "on": 136,
      "al": 137,
      "ri": 138,
      "int": 139,
      "inte": 140,
      "ra": 141,
      "ro": 142,
      "ger": 143,
      "00": 144,
      "integer": 145,
      ");": 146,
      "st": 147,
      "se": 148,
      "an": 149,
      "ad": 150,
      "or": 151,
      "le": 152,
      "),": 153,
      "then": 154,
      "rite": 155,
      "ar": 156,
      "write": 157,
      "*,": 158,
      ":=": 159,
      "))": 160,
      "read": 161,
      "od": 162,
      "it": 163,
      "pro": 164,
      "92": 165,
      "mp": 166,
      "ln": 167,
      "ic": 168,
      "ram": 169,
      "all": 170,
      "jk": 171,
      "**": 172,
      "is": 173,
      "un": 174,
      "gram": 175,
      "program": 176,
      "91": 177,
      "su": 178,
      "(*,": 179,
      "be": 180,
      "hi": 181,
      "ent": 182,
      "to": 183,
      "ma": 184,
      "ut": 185,
      "el": 186,
      "DD": 187,
      "gin": 188,
      "ans": 189,
      "==": 190,
      "begin": 191,
      "99": 192,
      "ti": 193,
      "mod": 194,
      "*)": 195,
      "writeln": 196,
      "IN": 197,
      "oc": 198,
      "else": 199,
      "01": 200,
      "ate": 201,
      "lm": 202,
      "84": 203,
      "ta": 204,
      "85": 205,
      "ch": 206,
      "lic": 207,
      "--": 208,
      "for": 209,
      "intent": 210,
      "('": 211,
      "83": 212,
      "imp": 213,
      "one": 214,
      "pe": 215,
      "86": 216,
      "(*,*)": 217,
      "tion": 218,
      "EN": 219,
      "ty": 220,
      "82": 221,
      "licit": 222,
      "si": 223,
      "de": 224,
      "alloc": 225,
      "ON": 226,
      "um": 227,
      "implicit": 228,
      "this": 229,
      "co": 230,
      "87": 231,
      "none": 232,
      "IC": 233,
      "93": 234,
      "ce": 235,
      "10": 236,
      "(:": 237,
      "type": 238,
      "res": 239,
      "64": 240,
      "ction": 241,
      "');": 242,
      "')": 243,
      "81": 244,
      "ter": 245,
      "la": 246,
      "ine": 247,
      "ION": 248,
      "di": 249,
      "ur": 250,
      "t_": 251,
      "pr": 252,
      "no": 253,
      "fun": 254,
      "TO": 255,
      "jkl": 256,
      "function": 257,
      "****": 258,
      "PIC": 259,
      "ijk": 260,
      "ret": 261,
      "100": 262,
      "call": 263,
      "num": 264,
      "ER": 265,
      "ge": 266,
      "sub": 267,
      "op": 268,
      "ing": 269,
      "and": 270,
      "ong": 271,
      "print": 272,
      "32": 273,
      "val": 274,
      "len": 275,
      "var": 276,
      "ble": 277,
      "ex": 278,
      "ue": 279,
      "88": 280,
      "'(": 281,
      ").": 282,
      "ss": 283,
      "=>": 284,
      "ongint": 285,
      "DI": 286,
      "po": 287,
      "lt": 288,
      "utine": 289,
      "routine": 290,
      "subroutine": 291,
      "TE": 292,
      "li": 293,
      "ode": 294,
      "gh": 295,
      "allocate": 296,
      "of": 297,
      "m7": 298,
      "16": 299,
      "ve": 300,
      "l7": 301,
      "main": 302,
      "OR": 303,
      "ap": 304,
      "(:)": 305,
      "RO": 306,
      "max": 307,
      "DC": 308,
      "hij": 309,
      "',": 310,
      "ze": 311,
      "END": 312,
      "out": 313,
      "lo": 314,
      "tmp": 315,
      "18": 316,
      "----": 317,
      "klm": 318,
      "m6": 319,
      "ata": 320,
      ")::": 321,
      "12": 322,
      "UN": 323,
      "IF": 324,
      "RA": 325,
      "at": 326,
      "he": 327,
      "ord": 328,
      "ray": 329,
      "ck": 330,
      "longint": 331,
      "con": 332,
      "rac": 333,
      "15": 334,
      "n7": 335,
      "str": 336,
      "sult": 337,
      "ke": 338,
      "node": 339,
      "id": 340,
      "ghi": 341,
      "readln": 342,
      "i0": 343,
      "IS": 344,
      "result": 345,
      "me": 346,
      "size": 347,
      "array": 348,
      "89": 349,
      "whi": 350,
      "cha": 351,
      "ins": 352,
      "racter": 353,
      "nt": 354,
      "the": 355,
      "modu": 356,
      "while": 357,
      "character": 358,
      "ne": 359,
      "<=": 360,
      "ure": 361,
      "\",": 362,
      "TION": 363,
      "14": 364,
      "17": 365,
      "ort": 366,
      "CE": 367,
      "use": 368,
      "20": 369,
      "ind": 370,
      "RE": 371,
      "sum": 372,
      "coun": 373,
      "9999": 374,
      "13": 375,
      "fi": 376,
      "inter": 377,
      "SE": 378,
      "0000": 379,
      "DIV": 380,
      "AL": 381,
      "ul": 382,
      "div": 383,
      "atable": 384,
      "min": 385,
      "ING": 386,
      "allocatable": 387,
      "urn": 388,
      "pa": 389,
      "77": 390,
      "es": 391,
      "05": 392,
      ")')": 393,
      "stop": 394,
      "ISION": 395,
      "dp": 396,
      "cnt": 397,
      "********": 398,
      "DIVISION": 399,
      "03": 400,
      "('+": 401,
      "key": 402,
      "PRO": 403,
      "FOR": 404,
      "MO": 405,
      "ab": 406,
      "return": 407,
      "55": 408,
      "]:=": 409,
      "sh": 410,
      "66": 411,
      "ced": 412,
      "FORM": 413,
      "..": 414,
      "mo": 415,
      "44": 416,
      "inc": 417,
      "tr": 418,
      "22": 419,
      ")=": 420,
      "VE": 421,
      "DE": 422,
      "lmn": 423,
      "cedure": 424,
      "list": 425,
      "(*,'(": 426,
      "word": 427,
      "int64": 428,
      "procedure": 429,
      "exit": 430,
      "sort": 431,
      "19": 432,
      "CO": 433,
      "PER": 434,
      "26": 435,
      "ght": 436,
      "count": 437,
      "23": 438,
      "MOVE": 439,
      "PERFORM": 440,
      "SP": 441,
      "inout": 442,
      "il": 443,
      "73": 444,
      "module": 445,
      "fa": 446,
      "75": 447,
      "_in": 448,
      "74": 449,
      "24": 450,
      "CTION": 451,
      "25": 452,
      "endif": 453,
      "conta": 454,
      "ijkijk": 455,
      "MP": 456,
      "jkljkl": 457,
      "\")": 458,
      "dex": 459,
      "md": 460,
      ")',": 461,
      "qu": 462,
      "AR": 463,
      "cla": 464,
      "65": 465,
      "11": 466,
      "_8": 467,
      "]);": 468,
      "AB": 469,
      ")+": 470,
      "_t": 471,
      "lst": 472,
      "95": 473,
      "ot": 474,
      ">=": 475,
      "ID": 476,
      "put": 477,
      "contains": 478,
      "ft": 479,
      "gth": 480,
      "ran": 481,
      "63": 482,
      "heap": 483,
      "ct": 484,
      "];": 485,
      "not": 486,
      "04": 487,
      "new": 488,
      "RAM": 489,
      "AT": 490,
      "CDD": 491,
      "No": 492,
      "94": 493,
      "pointer": 494,
      "length": 495,
      "us": 496,
      "ed": 497,
      "--------": 498,
      "ST": 499,
      "string": 500,
      "STO": 501,
      "cur": 502,
      "class": 503,
      "UT": 504,
      ")/": 505,
      "bo": 506,
      "LA": 507,
      "((": 508,
      "ber": 509,
      "kind": 510,
      "set": 511,
      "rim": 512,
      ")==": 513,
      "27": 514,
      "='": 515,
      "PROG": 516,
      "hijhij": 517,
      "mm": 518,
      "PROGRAM": 519,
      "Yes": 520,
      "DJ": 521,
      "000": 522,
      ")*": 523,
      "as": 524,
      "right": 525,
      "ABC": 526,
      "ase": 527,
      "fst": 528,
      "uf": 529,
      "per": 530,
      "ree": 531,
      "COMP": 532,
      "(:),": 533,
      "ion": 534,
      "35": 535,
      "bit": 536,
      "INP": 537,
      "ated": 538,
      "sk": 539,
      ")%": 540,
      "TH": 541,
      ")-": 542,
      "IL": 543,
      "AN": 544,
      "number": 545,
      "\"(": 546,
      "ENT": 547,
      "ass": 548,
      "klmklm": 549,
      "ol": 550,
      "left": 551,
      "34": 552,
      "67": 553,
      "AC": 554,
      "real": 555,
      "sa": 556,
      "BY": 557,
      "mer": 558,
      "pri": 559,
      "80": 560,
      "ment": 561,
      "ph": 562,
      "move": 563,
      ":)": 564,
      "fm": 565,
      "enddo": 566,
      "LAY": 567,
      "modint": 568,
      "root": 569,
      "pq": 570,
      "DISP": 571,
      "30": 572,
      "DISPLAY": 573,
      "add": 574,
      "_index": 575,
      "char": 576,
      "97": 577,
      "oci": 578,
      "value": 579,
      "pre": 580,
      "associ": 581,
      "GE": 582,
      "i1": 583,
      "associated": 584,
      "60": 585,
      "true": 586,
      "INT": 587,
      "54": 588,
      "idx": 589,
      "21": 590,
      "====": 591,
      "up": 592,
      "alse": 593,
      "IT": 594,
      "log": 595,
      "pic": 596,
      "merge": 597,
      "Longint": 598,
      "90": 599,
      "temp": 600,
      "abs": 601,
      "CJ": 602,
      "we": 603,
      "lf": 604,
      "33": 605,
      "*>": 606,
      "ical": 607,
      "DDDD": 608,
      "arr": 609,
      "50": 610,
      "by": 611,
      "sion": 612,
      "96": 613,
      "()": 614,
      "rom": 615,
      "par": 616,
      "false": 617,
      "SECTION": 618,
      "/=": 619,
      "ite": 620,
      "****************": 621,
      "logical": 622,
      "eter": 623,
      "ext": 624,
      "rameter": 625,
      "IM": 626,
      "DU": 627,
      "parameter": 628,
      "cle": 629,
      "dis": 630,
      "now": 631,
      "ITE": 632,
      "UE": 633,
      "int32": 634,
      "VAL": 635,
      "ll": 636,
      "eq": 637,
      "words": 638,
      "from": 639,
      "na": 640,
      "rst": 641,
      "self": 642,
      "pu": 643,
      "d_": 644,
      "dim": 645,
      "vm": 646,
      "mdl": 647,
      "DO": 648,
      "gn": 649,
      "TEG": 650,
      "ac": 651,
      "INTEG": 652,
      "),(": 653,
      "UNT": 654,
      "gra": 655,
      "In": 656,
      "76": 657,
      "//": 658,
      "INTEGER": 659,
      "ension": 660,
      "graph": 661,
      "ROM": 662,
      ")))": 663,
      "pla": 664,
      "FROM": 665,
      "ly": 666,
      "dimension": 667,
      "jklm": 668,
      "cy": 669,
      "ack": 670,
      "va": 671,
      "ther": 672,
      "last": 673,
      "UTE": 674,
      "COMPUTE": 675,
      "sw": 676,
      "(.": 677,
      "first": 678,
      "mple": 679,
      "ance": 680,
      "pos": 681,
      "ghighi": 682,
      "fgh": 683,
      "(:,": 684,
      "PT": 685,
      "72": 686,
      "deallocate": 687,
      "buf": 688,
      "so": 689,
      "45": 690,
      "ele": 691,
      "##": 692,
      "next": 693,
      "case": 694,
      "CC": 695,
      "gs": 696,
      ")\",": 697,
      "go": 698,
      "used": 699,
      "wi": 700,
      "DAT": 701,
      "36": 702,
      "form": 703,
      "LE": 704,
      "ay": 705,
      "DATA": 706,
      "i2": 707,
      "ull": 708,
      "m5": 709,
      "t_node": 710,
      "ACCE": 711,
      "ACCEPT": 712,
      "que": 713,
      "ver": 714,
      "input": 715,
      "ry": 716,
      "FUN": 717,
      "cd": 718,
      "play": 719,
      "0_8": 720,
      "wer": 721,
      "PROCE": 722,
      "WOR": 723,
      "('<": 724,
      "ARY": 725,
      "test": 726,
      "FUNCTION": 727,
      "VALUE": 728,
      "code": 729,
      "1000": 730,
      "DURE": 731,
      "PROCEDURE": 732,
      ",*)": 733,
      "UNTIL": 734,
      "gt": 735,
      "che": 736,
      "element": 737,
      "37": 738,
      "wn": 739,
      "<>": 740,
      "item": 741,
      "face": 742,
      "interface": 743,
      ",'": 744,
      "OUT": 745,
      "ATION": 746,
      "ALL": 747,
      "_sort": 748,
      "dec": 749,
      "NO": 750,
      "s_": 751,
      "sive": 752,
      "intr": 753,
      "len_t": 754,
      "THEN": 755,
      "insic": 756,
      "ir": 757,
      "recur": 758,
      "fo": 759,
      "vari": 760,
      "im": 761,
      "intrinsic": 762,
      "len_trim": 763,
      "ha": 764,
      "check": 765,
      "perform": 766,
      "col": 767,
      "*(": 768,
      "display": 769,
      "])": 770,
      "_for": 771,
      "STORA": 772,
      "WORK": 773,
      "recursive": 774,
      "sq": 775,
      "STORAGE": 776,
      "62": 777,
      "other": 778,
      "70": 779,
      "map": 780,
      "line": 781,
      "STOP": 782,
      "pi": 783,
      "har": 784,
      "rea": 785,
      "vate": 786,
      "private": 787,
      "wt": 788,
      "100000": 789,
      "star": 790,
      "name": 791,
      "WORKING": 792,
      "CH": 793,
      "cycle": 794,
      "MA": 795,
      "data": 796,
      "EL": 797,
      "__": 798,
      "],": 799,
      "ift": 800,
      "null": 801,
      "unit": 802,
      "adv": 803,
      "VARY": 804,
      "ICATION": 805,
      "VARYING": 806,
      "nd": 807,
      "trim": 808,
      "IDENT": 809,
      "IFICATION": 810,
      "IDENTIFICATION": 811,
      "nk": 812,
      "----------------": 813,
      "cp": 814,
      "ation": 815,
      "]='": 816,
      "able": 817,
      "get": 818,
      "ES": 819,
      "99999999": 820,
      "40": 821,
      "SU": 822,
      "mi": 823,
      "31": 824,
      "a1": 825,
      "sample": 826,
      "tran": 827,
      "ok": 828,
      "fla": 829,
      "hijklm": 830,
      "ar1": 831,
      "47": 832,
      "shift": 833,
      "ELSE": 834,
      "wh": 835,
      "DCDD": 836,
      "get_": 837,
      "STR": 838,
      "df": 839,
      "ision": 840,
      "sy": 841,
      "comp": 842,
      "xt": 843,
      "RUN": 844,
      "ity": 845,
      "mat": 846,
      "fl": 847,
      "28": 848,
      "1000000": 849,
      "CT": 850,
      "ree_": 851,
      "29": 852,
      "46": 853,
      "ef": 854,
      "I0": 855,
      "n1": 856,
      "gi": 857,
      "abc": 858,
      "flag": 859,
      "ANS": 860,
      "und": 861,
      "wei": 862,
      "ror": 863,
      "rt": 864,
      "env": 865,
      "s1": 866,
      "(\"": 867,
      "ADD": 868,
      "ghijkl": 869,
      "56": 870,
      "nn": 871,
      "def": 872,
      "prev": 873,
      "swap": 874,
      "tot": 875,
      "ast": 876,
      "999": 877,
      "DG": 878,
      "iso": 879,
      "ho": 880,
      "92y": 881,
      "lmnlmn": 882,
      "advance": 883,
      "57": 884,
      "j85": 885,
      "mul": 886,
      "ence": 887,
      "sele": 888,
      "output": 889,
      "file": 890,
      "ted": 891,
      "WR": 892,
      "ix": 893,
      "INT32": 894,
      "]+": 895,
      "mod_": 896,
      "mb": 897,
      "init": 898,
      "j84": 899,
      "blic": 900,
      "92q": 901,
      "gcd": 902,
      "92z": 903,
      "91z": 904,
      "ick": 905,
      "91y": 906,
      "j86": 907,
      "tran_": 908,
      "t1": 909,
      "_fortran_": 910,
      "iso_fortran_": 911,
      "iso_fortran_env": 912,
      "43": 913,
      "public": 914,
      "inv": 915,
      "strbuf": 916,
      "WRITE": 917,
      "elemental": 918,
      "ijkijkjkljkl": 919,
      "ken": 920,
      "92x": 921,
      "91q": 922,
      "53": 923,
      "93x": 924,
      "_c": 925,
      "m74": 926,
      "m75": 927,
      "m65": 928,
      "ator": 929,
      "mid": 930,
      "sp": 931,
      "fer": 932,
      "l75": 933,
      "sm": 934,
      "UR": 935,
      "========": 936,
      "ACE": 937,
      "find": 938,
      "index": 939,
      "l74": 940,
      "red": 941,
      "1_8": 942,
      "j83": 943,
      "ip": 944,
      "wo": 945,
      "ijklmn": 946,
      "entry": 947,
      "m63": 948,
      "m73": 949,
      "l76": 950,
      "SPACE": 951,
      "48": 952,
      "m76": 953,
      "m66": 954,
      "q84": 955,
      "The": 956,
      "00000": 957,
      "q83": 958,
      "ar2": 959,
      "92v": 960,
      "variable": 961,
      "start": 962,
      "hijhijijkijk": 963,
      "j87": 964,
      "ZZ": 965,
      "92h": 966,
      "42": 967,
      "78": 968,
      "prob": 969,
      "bl": 970,
      "l73": 971,
      "ven": 972,
      "select": 973,
      "Re": 974,
      "k84": 975,
      "STRING": 976,
      "52": 977,
      "spa": 978,
      "02": 979,
      "91x": 980,
      "q85": 981,
      "92k": 982,
      "_node": 983,
      "AD": 984,
      "space": 985,
      "stack": 986,
      "mu": 987,
      "92w": 988,
      "table": 989,
      "69": 990,
      "79": 991,
      "k85": 992,
      "k83": 993,
      "token": 994,
      "a2": 995,
      "are": 996,
      "cal": 997,
      "is_": 998,
      "STE": 999,
      "TR": 1000,
      "m72": 1001,
      "m62": 1002,
      "fmt": 1003,
      "l77": 1004,
      "INE": 1005,
      "stat": 1006,
      "c1": 1007,
      "q82": 1008,
      "m77": 1009,
      "m67": 1010,
      ")),": 1011,
      "ijkjkljkl": 1012,
      "counter": 1013,
      "91w": 1014,
      "91v": 1015,
      "fghfgh": 1016,
      "61": 1017,
      "t2": 1018,
      "ai": 1019,
      "91h": 1020,
      "INTO": 1021,
      "10000": 1022,
      "vel": 1023,
      "n74": 1024,
      "git": 1025,
      "49": 1026,
      "ju": 1027,
      "nm": 1028,
      "jklijk": 1029,
      "STEP": 1030,
      "ary": 1031,
      "UM": 1032,
      "ts": 1033,
      "pow": 1034,
      "Str": 1035,
      "erator": 1036,
      ")\")": 1037,
      "j82": 1038,
      "age": 1039,
      "with": 1040,
      "DDDC": 1041,
      "cost": 1042,
      "bi": 1043,
      "ichar": 1044,
      "k86": 1045,
      "n73": 1046,
      "my": 1047,
      "RACT": 1048,
      "s2": 1049,
      "sto": 1050,
      "CDC": 1051,
      "nx": 1052,
      "dist": 1053,
      "n75": 1054,
      "division": 1055,
      "jkljklklmklm": 1056,
      "jklklmklm": 1057,
      "egs": 1058,
      "51": 1059,
      "_b": 1060,
      "k82": 1061,
      "p84": 1062,
      "201": 1063,
      "sc": 1064,
      "color": 1065,
      "LO": 1066,
      "m84": 1067,
      "m85": 1068,
      "m64": 1069,
      "lack": 1070,
      "low": 1071,
      "_se": 1072,
      "l85": 1073,
      "down": 1074,
      "l72": 1075,
      "answer": 1076,
      "1_": 1077,
      "fghi": 1078,
      "n2": 1079,
      "fghijk": 1080,
      "l84": 1081,
      "93f": 1082,
      "200": 1083,
      "p83": 1084,
      "q86": 1085,
      "41": 1086,
      "digit": 1087,
      "####": 1088,
      "os": 1089,
      "92p": 1090,
      "head": 1091,
      "variables": 1092,
      "p85": 1093,
      "92t": 1094,
      "ms": 1095,
      "SUB": 1096,
      "yo": 1097,
      "al_": 1098,
      "m83": 1099,
      "71": 1100,
      "error": 1101,
      "_of": 1102,
      "day": 1103,
      "level": 1104,
      "********************************": 1105,
      "AS": 1106,
      "l86": 1107,
      "):": 1108,
      "\".": 1109,
      "m86": 1110,
      "queue": 1111,
      "ste": 1112,
      "num_": 1113,
      "apac": 1114,
      "hijklmijkijkjkljkl": 1115,
      "ghijklhijhijijkijk": 1116,
      "apacity": 1117,
      "time": 1118,
      "FIL": 1119,
      "mno": 1120,
      "93r": 1121,
      "92n": 1122,
      "mask": 1123,
      "]=": 1124,
      "ctor": 1125,
      "*),": 1126,
      "LIM": 1127,
      "ow": 1128,
      "UNSTRING": 1129,
      "n72": 1130,
      "temp1": 1131,
      ",-": 1132,
      "y1": 1133,
      "til": 1134,
      "n76": 1135,
      "i_": 1136,
      "59": 1137,
      "SI": 1138,
      "date": 1139,
      "]-": 1140,
      "l83": 1141,
      "xor": 1142,
      "lim": 1143,
      "vi": 1144,
      "93u": 1145,
      "sign": 1146,
      ")*(": 1147,
      "n84": 1148,
      "j88": 1149,
      "calc": 1150,
      "92g": 1151,
      "task": 1152,
      "quick": 1153,
      "oo": 1154,
      "p82": 1155,
      "newi": 1156,
      "CALL": 1157,
      "n85": 1158,
      "n83": 1159,
      "inf": 1160,
      "d0": 1161,
      "p86": 1162,
      "cc": 1163,
      "91p": 1164,
      "NUM": 1165,
      "_no": 1166,
      "91t": 1167,
      "hijijkijk": 1168,
      "quence": 1169,
      "hijhijhijijkijk": 1170,
      "k87": 1171,
      "91k": 1172,
      "39": 1173,
      "nil": 1174,
      "tree_": 1175,
      "MAIN": 1176,
      "';": 1177,
      "et": 1178,
      "m82": 1179,
      "edge": 1180,
      "itr": 1181,
      "DELIM": 1182,
      "aa": 1183,
      "cont": 1184,
      "ITED": 1185,
      ",\"": 1186,
      "modulo": 1187,
      ",:)": 1188,
      "));": 1189,
      "m71": 1190,
      "merge_sort": 1191,
      "_A": 1192,
      "pure": 1193,
      "m61": 1194,
      "when": 1195,
      "DELIMITED": 1196,
      "l87": 1197,
      "68": 1198,
      "point": 1199,
      "92j": 1200,
      "flg": 1201,
      "m87": 1202,
      "l78": 1203,
      "58": 1204,
      "ize": 1205,
      "q81": 1206,
      "fin": 1207,
      "m78": 1208,
      "m68": 1209,
      "String": 1210,
      "PR": 1211,
      "91n": 1212,
      "500": 1213,
      "98": 1214,
      "Th": 1215,
      "YES": 1216,
      "ie": 1217,
      "operator": 1218,
      "200000": 1219,
      "rb": 1220,
      "klmjkl": 1221,
      "08": 1222,
      "py": 1223,
      "c2": 1224,
      "lean": 1225,
      "n86": 1226,
      "WS": 1227,
      "l82": 1228,
      "93o": 1229,
      "rv": 1230,
      "CON": 1231,
      "qsort": 1232,
      "until": 1233,
      "38": 1234,
      "defa": 1235,
      "exp": 1236,
      "ted_": 1237,
      "92u": 1238,
      "06": 1239,
      "n82": 1240,
      "]>": 1241,
      "92e": 1242,
      "ni": 1243,
      "92f": 1244,
      "wa": 1245,
      "93l": 1246,
      "007": 1247,
      "101": 1248,
      "WH": 1249,
      "pop": 1250,
      "k81": 1251,
      "ghijklhijhijijkijkijkjkljkl": 1252,
      "to_": 1253,
      "byte": 1254,
      "from_index": 1255,
      "92m": 1256,
      "_in_": 1257,
      "ib": 1258,
      "dx": 1259,
      "ert": 1260,
      "n77": 1261,
      "q87": 1262,
      "ard": 1263,
      "92b": 1264,
      "j81": 1265,
      "sqrt": 1266,
      "GC": 1267,
      "uble": 1268,
      "arg": 1269,
      "IR": 1270,
      "LEN": 1271,
      "(*),": 1272,
      ":),": 1273,
      "dy": 1274,
      "jo": 1275,
      "val_": 1276,
      "ny": 1277,
      "intkind": 1278,
      "fghijkghighi": 1279,
      "rec": 1280,
      "off": 1281,
      "using": 1282,
      "vo": 1283,
      "READ": 1284,
      "(-": 1285,
      "ATE": 1286,
      "DCDC": 1287,
      "07": 1288,
      "io": 1289,
      "US": 1290,
      "p87": 1291,
      "n71": 1292,
      "gen": 1293,
      "l71": 1294,
      "DCJ": 1295,
      "_word": 1296,
      "fill": 1297,
      "hash": 1298,
      "hijklmijkijkjkljkljklklmklm": 1299,
      "EDD": 1300,
      "92o": 1301,
      "dfs": 1302,
      "hal": 1303,
      "y2": 1304,
      "AND": 1305,
      "_tree": 1306,
      "P1": 1307,
      "ca": 1308,
      "fe": 1309,
      "EX": 1310,
      "bb": 1311,
      "dd": 1312,
      "p81": 1313,
      "(/": 1314,
      "_mask": 1315,
      "_s": 1316,
      "qui": 1317,
      "words_in_": 1318,
      "Inte": 1319,
      "words_in_use": 1320,
      "09": 1321,
      "tail": 1322,
      "heapsort": 1323,
      "ded": 1324,
      "k_": 1325,
      "PO": 1326,
      "ijkhij": 1327,
      "CHA": 1328,
      "weight": 1329,
      "assign": 1330,
      "Ar": 1331,
      "ial": 1332,
      "n87": 1333,
      "rent": 1334,
      "91g": 1335,
      "','": 1336,
      "Integer": 1337,
      "92r": 1338,
      "ock": 1339,
      "m81": 1340,
      "zz": 1341,
      "\",\"": 1342,
      "ult": 1343,
      "ijklmnjkljklklmklm": 1344,
      "MENT": 1345,
      "lus": 1346,
      "pt": 1347,
      "TRIM": 1348,
      "DP": 1349,
      "ls": 1350,
      "GO": 1351,
      "du": 1352,
      "text": 1353,
      "prime": 1354,
      "xi": 1355,
      "push": 1356,
      "RACTER": 1357,
      "CN": 1358,
      "=\"": 1359,
      "_B": 1360,
      "wor": 1361,
      "*,'": 1362,
      "(:)::": 1363,
      "CHARACTER": 1364,
      "comb": 1365,
      "UNIT": 1366,
      "default": 1367,
      "DF": 1368,
      "ji": 1369,
      "maxval": 1370,
      "INPUT": 1371,
      "]<": 1372,
      "ia": 1373,
      "non": 1374,
      "t_tree_": 1375,
      "weigh": 1376,
      "fghijkghighihijhijhijijkijk": 1377,
      "ga": 1378,
      "l88": 1379,
      "arch": 1380,
      "Co": 1381,
      "ki": 1382,
      "reak": 1383,
      "_list": 1384,
      "DDJ": 1385,
      "ERO": 1386,
      "dom": 1387,
      "const": 1388,
      "double": 1389,
      "skip": 1390,
      "'.": 1391,
      "m88": 1392,
      "dele": 1393,
      "jklmno": 1394,
      "____": 1395,
      "CNT": 1396,
      ")(": 1397,
      "k88": 1398,
      "step": 1399,
      "weighted_": 1400,
      "ZERO": 1401,
      "91e": 1402,
      "91u": 1403,
      "total": 1404,
      "tt": 1405,
      "zer": 1406,
      "92d": 1407,
      "offset": 1408,
      "EJ": 1409,
      "af": 1410,
      "MM": 1411,
      "n81": 1412,
      "URS": 1413,
      "IMP": 1414,
      "OCC": 1415,
      "efg": 1416,
      "FILE": 1417,
      "OCCURS": 1418,
      "x1": 1419,
      "node_": 1420,
      "temp2": 1421,
      "1000000007": 1422,
      "]<>": 1423,
      "fg": 1424,
      "ob": 1425,
      "ou": 1426,
      "poll": 1427,
      "91m": 1428,
      "l81": 1429,
      "ori": 1430,
      "requi": 1431,
      "ENV": 1432,
      "Black": 1433,
      "rage": 1434,
      "delete": 1435,
      "ONMENT": 1436,
      "IRONMENT": 1437,
      "ENVIRONMENT": 1438,
      "_a": 1439,
      "new_": 1440,
      "Array": 1441,
      "S9": 1442,
      "93c": 1443,
      "range": 1444,
      "WHEN": 1445,
      "CCDD": 1446,
      "_UNIT": 1447,
      "ute": 1448,
      "ax": 1449,
      "klmlmnlmn": 1450,
      "break": 1451,
      "92l": 1452,
      "les": 1453,
      "sol": 1454,
      ":=(": 1455,
      "boo": 1456,
      "storage": 1457,
      "92s": 1458,
      "ing_": 1459,
      "sym": 1460,
      "DER": 1461,
      "atur": 1462,
      "current": 1463,
      "_kind": 1464,
      "long": 1465,
      "+(": 1466,
      "weighted_graph": 1467,
      "Sort": 1468,
      "_heap": 1469,
      ")>": 1470,
      "pp": 1471,
      "rc": 1472,
      "ONE": 1473,
      "Pro": 1474,
      "run": 1475,
      "ub": 1476,
      "order": 1477,
      "oder": 1478,
      "bin": 1479,
      "natur": 1480,
      "ulate": 1481,
      "ansi": 1482,
      "impure": 1483,
      "ghighighi": 1484,
      "halt": 1485,
      "ns": 1486,
      "t_bit": 1487,
      "natural_": 1488,
      "P2": 1489,
      "--------------------------------": 1490,
      "LT": 1491,
      "capacity": 1492,
      "random": 1493,
      "boolean": 1494,
      "cm": 1495,
      "ws": 1496,
      "FORMAT": 1497,
      "LIC": 1498,
      "dif": 1499,
      "bool": 1500,
      "natural_number": 1501,
      "_unit": 1502,
      "zi": 1503,
      "downto": 1504,
      "-(": 1505,
      "n78": 1506,
      "lmnklm": 1507,
      "ansistring": 1508,
      "_nil": 1509,
      "ion_": 1510,
      "work": 1511,
      "lshift": 1512,
      "that": 1513,
      "ang": 1514,
      "ove": 1515,
      "(:,:)": 1516,
      "CDJ": 1517,
      "End": 1518,
      "TER": 1519,
      "ld": 1520,
      "x2": 1521,
      "buffer": 1522,
      "DS": 1523,
      "91o": 1524,
      "app": 1525,
      "ci": 1526,
      "ko": 1527,
      "))+": 1528,
      "ish": 1529,
      "ROUT": 1530,
      "SUBROUT": 1531,
      "SUBROUTINE": 1532,
      "ABC0": 1533,
      "MAX": 1534,
      "MS": 1535,
      "ye": 1536,
      "efghij": 1537,
      "PA": 1538,
      "av": 1539,
      "_C": 1540,
      "IV": 1541,
      "pres": 1542,
      "ZS": 1543,
      "rbt_": 1544,
      "NONE": 1545,
      "bound": 1546,
      "IMPLIC": 1547,
      "PUT": 1548,
      "93i": 1549,
      "uses": 1550,
      "IMPLICIT": 1551,
      "Red": 1552,
      "ck_": 1553,
      "modulus": 1554,
      "ff": 1555,
      "uo": 1556,
      "t_entry": 1557,
      "'(\"": 1558,
      "_max": 1559,
      "btest": 1560,
      "p88": 1561,
      "section": 1562,
      "ABC_": 1563,
      "kq": 1564,
      "cess": 1565,
      "calculate": 1566,
      "Fi": 1567,
      "mx": 1568,
      "mon": 1569,
      "vec": 1570,
      "================": 1571,
      "dic": 1572,
      "ka": 1573,
      "yy": 1574,
      "inue": 1575,
      "][": 1576,
      "j89": 1577,
      "any": 1578,
      "))-": 1579,
      "clear": 1580,
      "quicksort": 1581,
      "bytes": 1582,
      "OP": 1583,
      "ch1": 1584,
      ")/=": 1585,
      "verse": 1586,
      "OUTPUT": 1587,
      "GIV": 1588,
      "q88": 1589,
      "So": 1590,
      "cn": 1591,
      "sor": 1592,
      "gri": 1593,
      "continue": 1594,
      "CONT": 1595,
      "QU": 1596,
      "qo": 1597,
      "ui": 1598,
      "deflt": 1599,
      "/)": 1600,
      "qi": 1601,
      ")==\"": 1602,
      "CCDC": 1603,
      "GIVING": 1604,
      ".\"": 1605,
      "zo": 1606,
      "deque": 1607,
      "pass": 1608,
      "klmklmlmnlmn": 1609,
      "xo": 1610,
      "given": 1611,
      ")=='": 1612,
      "zs": 1613,
      "record": 1614,
      ".)": 1615,
      "sn": 1616,
      "ser": 1617,
      "91j": 1618,
      "comm": 1619,
      "cl": 1620,
      "dt": 1621,
      "son": 1622,
      "repe": 1623,
      "ant": 1624,
      "00000000": 1625,
      "present": 1626,
      "If": 1627,
      "sco": 1628,
      "to_index": 1629,
      "t_bitset": 1630,
      "copy": 1631,
      "MOD": 1632,
      "AM": 1633,
      "above": 1634,
      "Se": 1635,
      "status": 1636,
      "zero": 1637,
      "_key": 1638,
      "tional": 1639,
      "rr": 1640,
      "sx": 1641,
      "numbers": 1642,
      "initial": 1643,
      "word_index": 1644,
      "factor": 1645,
      "ek": 1646,
      "xx": 1647,
      "l79": 1648,
      ")',\"": 1649,
      "_back": 1650,
      "require": 1651,
      "BlackT": 1652,
      "RedBlackT": 1653,
      "kk": 1654,
      "########": 1655,
      "back": 1656,
      "less": 1657,
      "m79": 1658,
      "m69": 1659,
      "prec": 1660,
      "WA": 1661,
      "em": 1662,
      "rem": 1663,
      "RED": 1664,
      "usage": 1665,
      "gg": 1666,
      "seed": 1667,
      "found": 1668,
      "XT": 1669,
      "bu": 1670,
      "n88": 1671,
      "inp": 1672,
      "top": 1673,
      "minval": 1674,
      "ill": 1675,
      "NOT": 1676,
      "efghijfghfgh": 1677,
      "repeat": 1678,
      "RB": 1679,
      "tra": 1680,
      "0_": 1681,
      "SH": 1682,
      "ution": 1683,
      "perm": 1684,
      "compute": 1685,
      "='(": 1686,
      "KE": 1687,
      "L2": 1688,
      "ument": 1689,
      "_sequence": 1690,
      "[(": 1691,
      "flo": 1692,
      "import": 1693,
      "CDG": 1694,
      "L1": 1695,
      "can": 1696,
      "coder": 1697,
      "insert": 1698,
      "CJCDD": 1699,
      "ijklmnjkljklklmklmklmlmnlmn": 1700,
      "jj": 1701,
      "tar": 1702,
      "!!": 1703,
      "del": 1704,
      "gc": 1705,
      "ghijklhij": 1706,
      "lex": 1707,
      "loop": 1708,
      "priori": 1709,
      "update": 1710,
      "final": 1711,
      "EXIT": 1712,
      "MSG": 1713,
      "score": 1714,
      "priority": 1715,
      "uy": 1716,
      "91b": 1717,
      "DDG": 1718,
      "decla": 1719,
      "cond": 1720,
      "IST": 1721,
      "CHAR": 1722,
      "ight": 1723,
      "REAL": 1724,
      "grid": 1725,
      "base": 1726,
      "urce": 1727,
      "RBT": 1728,
      "Num": 1729,
      "ZE": 1730,
      "ng": 1731,
      "lose": 1732,
      "binary": 1733,
      "981": 1734,
      "ep": 1735,
      "fr": 1736,
      "ist": 1737,
      "re_": 1738,
      "remove": 1739,
      "only": 1740,
      "LN": 1741,
      "dst": 1742,
      "kt": 1743,
      "lease": 1744,
      "power": 1745,
      "addres": 1746,
      "gener": 1747,
      "atcoder": 1748,
      "#'": 1749,
      "300": 1750,
      "TIM": 1751,
      "ii": 1752,
      "om": 1753,
      "ACK": 1754,
      "2019": 1755,
      "ghighighihijhij": 1756,
      "SY": 1757,
      "bf": 1758,
      "p1": 1759,
      "sho": 1760,
      "hash_": 1761,
      "ants": 1762,
      "91f": 1763,
      "qual": 1764,
      "ame": 1765,
      "dv": 1766,
      "sz": 1767,
      "ys": 1768,
      "ying": 1769,
      "than": 1770,
      "chars": 1771,
      "Be": 1772,
      "rik": 1773,
      "...": 1774,
      "entif": 1775,
      "TEXT": 1776,
      "win": 1777,
      "xy": 1778,
      "source": 1779,
      "am": 1780,
      "DDDE": 1781,
      "tab": 1782,
      "fac": 1783,
      "just": 1784,
      "ASH": 1785,
      "declared": 1786,
      "=.": 1787,
      "Write": 1788,
      "vol": 1789,
      "ition": 1790,
      "This": 1791,
      "IDE": 1792,
      "hijjklijk": 1793,
      "jklijkklm": 1794,
      "\")')": 1795,
      "ED": 1796,
      "99999": 1797,
      "argument": 1798,
      "bit_index": 1799,
      "MMY": 1800,
      "nb": 1801,
      "union_": 1802,
      "tip": 1803,
      "REC": 1804,
      "union_find": 1805,
      "LINE": 1806,
      "RY": 1807,
      "cel": 1808,
      "mint": 1809,
      "pc": 1810,
      "ref": 1811,
      "explicit": 1812,
      "non_": 1813,
      ")<": 1814,
      "explicitly": 1815,
      "IG": 1816,
      "ful": 1817,
      "release": 1818,
      "ery": 1819,
      "ange": 1820,
      "open": 1821,
      ")\",\"": 1822,
      "hijklmijkhij": 1823,
      "invf": 1824,
      "_capacity": 1825,
      "OF": 1826,
      "black": 1827,
      "reate": 1828,
      "emp": 1829,
      "nl": 1830,
      "row": 1831,
      "ETER": 1832,
      "\\\\": 1833,
      "kp": 1834,
      "qs": 1835,
      "rshift": 1836,
      "yi": 1837,
      "state": 1838,
      "math": 1839,
      "filler": 1840,
      "GT": 1841,
      "sequence": 1842,
      "(*,*)'": 1843,
      "DCG": 1844,
      "t_tree_set": 1845,
      "append": 1846,
      "gb": 1847,
      "tx": 1848,
      "same": 1849,
      "GTH": 1850,
      "distance": 1851,
      "LENGTH": 1852,
      "2_": 1853,
      "400": 1854,
      "As": 1855,
      "COUNT": 1856,
      "Read": 1857,
      "PARAM": 1858,
      "l2": 1859,
      "high": 1860,
      "TIMES": 1861,
      "PARAMETER": 1862,
      "CG": 1863,
      "turn": 1864,
      "size_of": 1865,
      "uld": 1866,
      "query": 1867,
      "values": 1868,
      "disp": 1869,
      "dble": 1870,
      "jm": 1871,
      "urshift": 1872,
      "lower": 1873,
      "ART": 1874,
      "mulm": 1875,
      "den": 1876,
      "tex": 1877,
      "below": 1878,
      "010": 1879,
      "varying": 1880,
      "AY": 1881,
      "iv": 1882,
      "nc": 1883,
      "block": 1884,
      "PRINT": 1885,
      "address": 1886,
      "UF": 1887,
      "_count": 1888,
      "pv": 1889,
      "and_": 1890,
      "ZZZZ": 1891,
      "year": 1892,
      "bk": 1893,
      "bal": 1894,
      "nj": 1895,
      "vertex": 1896,
      "ABC_0": 1897,
      "For": 1898,
      "He": 1899,
      "nr": 1900,
      "into": 1901,
      "unc": 1902,
      "ceil": 1903,
      "expr": 1904,
      "DIVIDE": 1905,
      "LER": 1906,
      "change": 1907,
      "vm_": 1908,
      "''": 1909,
      "ample": 1910,
      "nh": 1911,
      "nex": 1912,
      "DDDDJ": 1913,
      "acce": 1914,
      "TRUE": 1915,
      "A1": 1916,
      "ensu": 1917,
      "search": 1918,
      "=='": 1919,
      "Len": 1920,
      "Ma": 1921,
      "bn": 1922,
      "rd": 1923,
      "pec": 1924,
      "sible": 1925,
      "bol": 1926,
      "_of_": 1927,
      "poll_": 1928,
      "-',": 1929,
      "TRACT": 1930,
      "eo": 1931,
      "ally": 1932,
      "m53": 1933,
      "m56": 1934,
      "Pr": 1935,
      "a3": 1936,
      "dm": 1937,
      "2_8": 1938,
      "cq": 1939,
      "da": 1940,
      "ea": 1941,
      "hs": 1942,
      "lp": 1943,
      "opcode": 1944,
      "reach": 1945,
      "Er": 1946,
      "hr": 1947,
      "SUBTRACT": 1948,
      "Error": 1949,
      ",'(": 1950,
      "gm": 1951,
      "ration": 1952,
      ")).": 1953,
      "load": 1954,
      "An": 1955,
      "BE": 1956,
      "_char": 1957,
      "eval": 1958,
      "i86": 1959,
      "n_": 1960,
      "ordin": 1961,
      "CDCDJ": 1962,
      "precision": 1963,
      "empty": 1964,
      "CCJ": 1965,
      "ec": 1966,
      "tri": 1967,
      "lation": 1968,
      "UNANS": 1969,
      "here": 1970,
      "SIZE": 1971,
      "close": 1972,
      "two": 1973,
      "uk": 1974,
      "rix": 1975,
      "valid": 1976,
      "maxlen": 1977,
      "CDDDJ": 1978,
      "DUMMY": 1979,
      "1_INT32": 1980,
      "quick_sort": 1981,
      "TB": 1982,
      "l89": 1983,
      "vt": 1984,
      "done": 1985,
      "odd": 1986,
      "DEDD": 1987,
      "_t_": 1988,
      "ak": 1989,
      "tk_": 1990,
      "655": 1991,
      "ASE": 1992,
      "BO": 1993,
      "uc": 1994,
      "v92": 1995,
      "produ": 1996,
      "rank": 1997,
      "imum": 1998,
      "match": 1999,
      "tb": 2000,
      "ication": 2001,
      "t_list": 2002,
      "gefg": 2003,
      "i_vm": 2004,
      "2000": 2005,
      "m1": 2006,
      "ux": 2007,
      "824": 2008,
      "105": 2009,
      "jklijkijkjkljkl": 2010,
      "key_kind": 2011,
      "start_": 2012,
      "Val": 2013,
      "].": 2014,
      "jp": 2015,
      "ice": 2016,
      "CODER": 2017,
      "matrix": 2018,
      "angle": 2019,
      "next_": 2020,
      "800": 2021,
      "900": 2022,
      "DT": 2023,
      "PE": 2024,
      "fn": 2025,
      "fx": 2026,
      "i87": 2027,
      "yes": 2028,
      "mess": 2029,
      "pair": 2030,
      "DEF": 2031,
      "STASH": 2032,
      "non_intrinsic": 2033,
      "gefgfghfgh": 2034,
      "TY": 2035,
      "i85": 2036,
      "seg": 2037,
      "siz": 2038,
      "m52": 2039,
      "multip": 2040,
      "cb": 2041,
      "ig": 2042,
      "loc": 2043,
      "ug": 2044,
      "tive": 2045,
      "102": 2046,
      "STORED": 2047,
      "=(": 2048,
      "iy": 2049,
      "mn": 2050,
      "913": 2051,
      "optional": 2052,
      "_word_mask": 2053,
      "CS": 2054,
      "tree": 2055,
      "ract": 2056,
      "identif": 2057,
      "newe": 2058,
      "skip_list": 2059,
      "Begin": 2060,
      "dw": 2061,
      "hp": 2062,
      "km": 2063,
      "q92": 2064,
      "show": 2065,
      "trunc": 2066,
      "m57": 2067,
      "FILLER": 2068,
      "Print": 2069,
      ",(": 2070,
      "5000": 2071,
      "IX": 2072,
      "Le": 2073,
      "])-": 2074,
      "fs": 2075,
      "lz": 2076,
      "sb": 2077,
      "vv": 2078,
      "adjust": 2079,
      "ORT": 2080,
      "asgn": 2081,
      "ds": 2082,
      "qr": 2083,
      "reverse": 2084,
      "vector": 2085,
      "123": 2086,
      "parse": 2087,
      "defghi": 2088,
      "finalize": 2089,
      "677": 2090,
      "Un": 2091,
      "_factor": 2092,
      "cs": 2093,
      "mv": 2094,
      "o86": 2095,
      "994": 2096,
      "644": 2097,
      "arraylist": 2098,
      "count_": 2099,
      "Eve": 2100,
      "None": 2101,
      "Tr": 2102,
      "cg": 2103,
      "np": 2104,
      "wk": 2105,
      "xl": 2106,
      "leaf": 2107,
      "865": 2108,
      "ility": 2109,
      "ATCODER": 2110,
      "]='#'": 2111,
      "ijklmnjklijkklm": 2112,
      "KEY": 2113,
      "evalu": 2114,
      ".(": 2115,
      "184": 2116,
      "884": 2117,
      "EVAL": 2118,
      "jt": 2119,
      "mk": 2120,
      "o85": 2121,
      "stra": 2122,
      "fore": 2123,
      "diff": 2124,
      "RedBlackTree_": 2125,
      ")**": 2126,
      ",:": 2127,
      "BLE": 2128,
      "bt": 2129,
      "dge": 2130,
      "has": 2131,
      "pm": 2132,
      "rx": 2133,
      "rnk": 2134,
      "offer": 2135,
      "ghiijkhij": 2136,
      "SET": 2137,
      "spaces": 2138,
      "hijklmijkijkjkljkljklklmklmijklmnjklijkklm": 2139,
      "hijklmijkijkjkljkljklklmklmijklmnjklijkklmjkljklklmklm": 2140,
      "+',": 2141,
      "Char": 2142,
      "SIN": 2143,
      "pn": 2144,
      "ps": 2145,
      "COL": 2146,
      "some": 2147,
      "ordinate": 2148,
      "message": 2149,
      "301": 2150,
      "987": 2151,
      "965": 2152,
      "And": 2153,
      "Do": 2154,
      "HT": 2155,
      "fy": 2156,
      "924": 2157,
      "ENTRY": 2158,
      "colum": 2159,
      "1x": 2160,
      "gy": 2161,
      "iz": 2162,
      "alph": 2163,
      "170": 2164,
      "avl": 2165,
      "110": 2166,
      "Con": 2167,
      "o87": 2168,
      "rh": 2169,
      "sl": 2170,
      "txt": 2171,
      "will": 2172,
      "occur": 2173,
      "pack": 2174,
      "bits": 2175,
      "adjustl": 2176,
      "Int": 2177,
      "_string": 2178,
      "even": 2179,
      "wg": 2180,
      "TOR": 2181,
      "324": 2182,
      "163": 2183,
      "666": 2184,
      "efghijfghfghghighighihijhij": 2185,
      "801": 2186,
      "_ne": 2187,
      "b1": 2188,
      "bx": 2189,
      "je": 2190,
      "qm": 2191,
      "unweighted_graph": 2192,
      "mas": 2193,
      "make": 2194,
      "para": 2195,
      "CDDCJ": 2196,
      "old": 2197,
      "dfs_": 2198,
      "points": 2199,
      "GIT": 2200,
      "SS": 2201,
      "gk": 2202,
      "ky": 2203,
      "lu": 2204,
      "bet": 2205,
      "example": 2206,
      "DIGIT": 2207,
      "180": 2208,
      "n79": 2209,
      "int32_": 2210,
      "ghijklhijhijijkijkijkjkljklhijklmijkhij": 2211,
      "lcm": 2212,
      "w92": 2213,
      "yl": 2214,
      "zy": 2215,
      "ifgh": 2216,
      "854": 2217,
      "834": 2218,
      "ined": 2219,
      "ghifgh": 2220,
      ")),((": 2221,
      "ghijklhijhijijkijkijkjkljklhijklmijkhijjklijkijkjkljkl": 2222,
      "191": 2223,
      "Find": 2224,
      "cw": 2225,
      "hu": 2226,
      "))=": 2227,
      "ranch": 2228,
      "evaluate": 2229,
      "112": 2230,
      "365": 2231,
      "544": 2232,
      "DAY": 2233,
      "bm": 2234,
      "branch": 2235,
      "dk": 2236,
      "igh": 2237,
      "o84": 2238,
      "rm": 2239,
      "adde": 2240,
      "coordinate": 2241,
      "peri": 2242,
      "115": 2243,
      "113": 2244,
      "763": 2245,
      "EQ": 2246,
      "_p": 2247,
      "cx": 2248,
      "qx": 2249,
      "xs": 2250,
      "DCDJ": 2251,
      "big": 2252,
      "182": 2253,
      "bc": 2254,
      "eg": 2255,
      "format": 2256,
      "sib": 2257,
      "874": 2258,
      "PRIM": 2259,
      "_size": 2260,
      "bs": 2261,
      "dh": 2262,
      "i84": 2263,
      "alpha": 2264,
      "EC": 2265,
      "To": 2266,
      "]]": 2267,
      "ba": 2268,
      "dq": 2269,
      "ev": 2270,
      "fen": 2271,
      "mt": 2272,
      "nu": 2273,
      "91s": 2274,
      "divi": 2275,
      ",'-',": 2276,
      "klmjkllmn": 2277,
      "Ch": 2278,
      "UATE": 2279,
      "WB": 2280,
      "fd": 2281,
      "h92": 2282,
      "jy": 2283,
      "p2": 2284,
      "rk": 2285,
      "tc": 2286,
      "wm": 2287,
      ":='": 2288,
      "com": 2289,
      "jkllmnklm": 2290,
      "IDX": 2291,
      "EVALUATE": 2292,
      "AGE": 2293,
      "_sum": 2294,
      "cing": 2295,
      "fp": 2296,
      "i88": 2297,
      "jq": 2298,
      "lk": 2299,
      "lq": 2300,
      "td": 2301,
      "uv": 2302,
      "yr": 2303,
      "elseif": 2304,
      ",'+',": 2305,
      "solve": 2306,
      "gefgfghfghfgh": 2307,
      "755": 2308,
      "m2": 2309,
      "px": 2310,
      "104": 2311,
      "169": 2312,
      ")//": 2313,
      "infty": 2314,
      "INPUT_UNIT": 2315,
      "t_tree_map": 2316,
      "OPEN": 2317,
      "mulmm": 2318,
      "805": 2319,
      "gp": 2320,
      "isor": 2321,
      "ijkklmjkl": 2322,
      "stru": 2323,
      "255": 2324,
      "804": 2325,
      "dr": 2326,
      "eof": 2327,
      "lv": 2328,
      "tg": 2329,
      "tw": 2330,
      "ubound": 2331,
      "wr": 2332,
      "jkstra": 2333,
      "995": 2334,
      "845": 2335,
      "103": 2336,
      "dijkstra": 2337,
      "160": 2338,
      "keys": 2339,
      "judge": 2340,
      "symbol": 2341,
      "identification": 2342,
      "/(": 2343,
      "_ID": 2344,
      "bp": 2345,
      "fk": 2346,
      "ker": 2347,
      "lx": 2348,
      "ud": 2349,
      "vr": 2350,
      "))%": 2351,
      "PROGRAM_ID": 2352,
      "matmul": 2353,
      "msd": 2354,
      "mnomno": 2355,
      "to_int64": 2356,
      "SYSIN": 2357,
      "ensure_": 2358,
      "986": 2359,
      "ee": 2360,
      "gu": 2361,
      "vx": 2362,
      "xm": 2363,
      "y92": 2364,
      "rip": 2365,
      "lef": 2366,
      "111": 2367,
      "975": 2368,
      "Min": 2369,
      "NE": 2370,
      "WC": 2371,
      "]*": 2372,
      "aq": 2373,
      "ety": 2374,
      "jn": 2375,
      "lin": 2376,
      "over": 2377,
      "wd": 2378,
      "))/": 2379,
      "933": 2380,
      "691": 2381,
      "685": 2382,
      "992": 2383,
      "Boo": 2384,
      "ah": 2385,
      "lh": 2386,
      "vj": 2387,
      "xd": 2388,
      "xu": 2389,
      "ses": 2390,
      "INDE": 2391,
      "product": 2392,
      "181": 2393,
      "Op": 2394,
      "ag": 2395,
      "lb": 2396,
      "lit": 2397,
      "sf": 2398,
      "rist": 2399,
      "RET": 2400,
      "variety": 2401,
      "have": 2402,
      "small": 2403,
      "Boolean": 2404,
      "885": 2405,
      "b92": 2406,
      "dg": 2407,
      "gd": 2408,
      "jh": 2409,
      "jz": 2410,
      "rj": 2411,
      "vk": 2412,
      "er_": 2413,
      "t_hash_": 2414,
      "vals": 2415,
      "goal": 2416,
      "unit_no": 2417,
      "digits": 2418,
      "push_back": 2419,
      "working": 2420,
      "month": 2421,
      "True": 2422,
      "(*)": 2423,
      "232": 2424,
      "612": 2425,
      "bq": 2426,
      "ih": 2427,
      "rn": 2428,
      "xj": 2429,
      "xp": 2430,
      "001": 2431,
      "led": 2432,
      "ssa": 2433,
      "outp": 2434,
      "175": 2435,
      "USING": 2436,
      "PRIME": 2437,
      "192": 2438,
      "614": 2439,
      "694": 2440,
      "fh": 2441,
      "gj": 2442,
      "hh": 2443,
      "kn": 2444,
      "ks": 2445,
      "tl": 2446,
      "xr": 2447,
      "z92": 2448,
      "second": 2449,
      "rand": 2450,
      "variants": 2451,
      "314": 2452,
      "785": 2453,
      "A2": 2454,
      "X1": 2455,
      "dn": 2456,
      "eded": 2457,
      "jg": 2458,
      "v91": 2459,
      "las": 2460,
      "t_skip_list": 2461,
      "_invariants": 2462,
      "353": 2463,
      "check_invariants": 2464,
      "jklmnoklmklmlmnlmn": 2465,
      "OUTPUT_UNIT": 2466,
      "floor": 2467,
      "generic": 2468,
      "285": 2469,
      "781": 2470,
      "gf": 2471,
      "jv": 2472,
      "m92": 2473,
      "pl": 2474,
      "vd": 2475,
      "ABC13": 2476,
      "upd": 2477,
      "Program": 2478,
      "600": 2479,
      "673": 2480,
      "S1": 2481,
      "gx": 2482,
      "g92": 2483,
      "j92": 2484,
      "kx": 2485,
      "o83": 2486,
      "r2": 2487,
      "vb": 2488,
      "835": 2489,
      "ENS": 2490,
      "934": 2491,
      "174": 2492,
      "234": 2493,
      "m51": 2494,
      "inputter": 2495,
      "fghijkghighihijhijhijijkijkhijjklijk": 2496,
      "period": 2497,
      "882": 2498,
      "977": 2499,
      "Imp": 2500,
      "N_": 2501,
      "bh": 2502,
      "dj": 2503,
      "gq": 2504,
      "ht": 2505,
      "ive": 2506,
      "mj": 2507,
      "rs": 2508,
      "yg": 2509,
      "999999": 2510,
      "add_": 2511,
      "m58": 2512,
      "load_factor": 2513,
      "795": 2514,
      "886": 2515,
      "aw": 2516,
      "ari": 2517,
      "c_": 2518,
      "fq": 2519,
      "gr": 2520,
      "ik": 2521,
      "o88": 2522,
      "tk": 2523,
      "goto": 2524,
      "piyo": 2525,
      "dict": 2526,
      "sorted": 2527,
      "615": 2528,
      "901": 2529,
      "ey": 2530,
      "hd": 2531,
      "iq": 2532,
      "kw": 2533,
      "thing": 2534,
      "ch2": 2535,
      "imple": 2536,
      "module_": 2537,
      "(:,:),": 2538,
      "SUM": 2539,
      "ious": 2540,
      "solution": 2541,
      "segment": 2542,
      "occurs": 2543,
      ")>=": 2544,
      ">>": 2545,
      "GN": 2546,
      "cz": 2547,
      "fb": 2548,
      "jx": 2549,
      "ku": 2550,
      "uj": 2551,
      "added": 2552,
      "915": 2553,
      "880": 2554,
      "max_": 2555,
      "updated": 2556,
      "OC": 2557,
      "hn": 2558,
      "iw": 2559,
      "i83": 2560,
      "jb": 2561,
      "lw": 2562,
      "qt": 2563,
      "tp": 2564,
      "vp": 2565,
      "vy": 2566,
      "assert": 2567,
      "****************************************************************": 2568,
      "687": 2569,
      "703": 2570,
      "=*)": 2571,
      "]>=": 2572,
      "dz": 2573,
      "gv": 2574,
      "hb": 2575,
      "iqsort": 2576,
      "kad": 2577,
      "pb": 2578,
      "pd": 2579,
      "pf": 2580,
      "pj": 2581,
      "sd": 2582,
      "vis": 2583,
      "wick": 2584,
      "xb": 2585,
      "unt": 2586,
      "107": 2587,
      "t_branch": 2588,
      "154": 2589,
      "URN": 2590,
      "CDCCJ": 2591,
      "ghijklhijhijijkijkijkjkljklijkklmjkl": 2592,
      "arguments": 2593,
      "fenwick": 2594,
      "kadai": 2595,
      "fenwick_tree": 2596,
      "++": 2597,
      "114": 2598,
      "20000": 2599,
      "AP": 2600,
      "D0": 2601,
      "d1": 2602,
      "fv": 2603,
      "hk": 2604,
      "jw": 2605,
      "kg": 2606,
      "kj": 2607,
      "q91": 2608,
      "sr": 2609,
      "ww": 2610,
      "fix": 2611,
      "753": 2612,
      "LOG": 2613,
      "RETURN": 2614,
      "(),": 2615,
      "277": 2616,
      "IP": 2617,
      "bg": 2618,
      "cv": 2619,
      "vg": 2620,
      "ving": 2621,
      "xg": 2622,
      "xk": 2623,
      "its": 2624,
      "CEJ": 2625,
      "737": 2626,
      "safe": 2627,
      "advan": 2628,
      "RBT_": 2629,
      "statement": 2630,
      "deno": 2631,
      "sibility": 2632,
      "\";": 2633,
      "214": 2634,
      "893": 2635,
      "Pos": 2636,
      "act": 2637,
      "k92": 2638,
      "lg": 2639,
      "pk": 2640,
      "sj": 2641,
      "vf": 2642,
      "wj": 2643,
      "wp": 2644,
      "xf": 2645,
      "ya": 2646,
      "integers": 2647,
      "INARY": 2648,
      "643": 2649,
      "815": 2650,
      "DDDDDD": 2651,
      "opcode_": 2652,
      "defghief": 2653,
      "244": 2654,
      "700": 2655,
      "891": 2656,
      "CUR": 2657,
      "DATE": 2658,
      "bd": 2659,
      "bv": 2660,
      "bw": 2661,
      "kh": 2662,
      "llm": 2663,
      "qj": 2664,
      "rg": 2665,
      "vc": 2666,
      "icode": 2667,
      "843": 2668,
      "DIO": 2669,
      "166": 2670,
      "divisor": 2671,
      "DEJ": 2672,
      "contained": 2673,
      "ited": 2674,
      "init_": 2675,
      "deque_": 2676,
      "ghifghhij": 2677,
      "887": 2678,
      "905": 2679,
      "I2": 2680,
      "UP": 2681,
      "_line": 2682,
      "db": 2683,
      "gw": 2684,
      "kr": 2685,
      "nf": 2686,
      "yd": 2687,
      "{$": 2688,
      "ans1": 2689,
      "ijkhijhijijkijk": 2690,
      "ghiijkhijhijijkijk": 2691,
      "sizeof": 2692,
      "ference": 2693,
      "574": 2694,
      "803": 2695,
      "964": 2696,
      "Data": 2697,
      "_number": 2698,
      "ew": 2699,
      "hm": 2700,
      "qp": 2701,
      "rev": 2702,
      "arge": 2703,
      "124": 2704,
      "890": 2705,
      "256": 2706,
      "ALLOC": 2707,
      "sqr": 2708,
      "ations": 2709,
      "________": 2710,
      "node_variety": 2711,
      "calculate_": 2712,
      "defghiefgefgfghfghfgh": 2713,
      "892": 2714,
      "BACK": 2715,
      "LIST": 2716,
      "SO": 2717,
      "kb": 2718,
      "uh": 2719,
      "uq": 2720,
      "vq": 2721,
      "maximum": 2722,
      "ENDING": 2723,
      "ARC": 2724,
      "board": 2725,
      "LOSE": 2726,
      "ristmas": 2727,
      "622": 2728,
      "744": 2729,
      "fw": 2730,
      "fli": 2731,
      "hj": 2732,
      "kd": 2733,
      "qk": 2734,
      "vh": 2735,
      "xa": 2736,
      "xc": 2737,
      "ym": 2738,
      "zr": 2739,
      "rep": 2740,
      "ory": 2741,
      "866": 2742,
      "t_item": 2743,
      "TEST": 2744,
      "DDDCJ": 2745,
      "column": 2746,
      "advancing": 2747,
      "CLOSE": 2748,
      "Ln": 2749,
      "ier": 2750,
      "kv": 2751,
      "mh": 2752,
      "qd": 2753,
      "r1": 2754,
      "sg": 2755,
      "u92": 2756,
      "w91": 2757,
      "yn": 2758,
      "GET": 2759,
      "strbuf_t": 2760,
      "GCDJ": 2761,
      "Comp": 2762,
      "priorityqueue": 2763,
      "117": 2764,
      "955": 2765,
      "ULT": 2766,
      "hg": 2767,
      "mg": 2768,
      "qh": 2769,
      "qv": 2770,
      "end_word": 2771,
      "rest": 2772,
      "unite": 2773,
      "863": 2774,
      "side": 2775,
      "DIM": 2776,
      "165": 2777,
      "125": 2778,
      "hed": 2779,
      "MODU": 2780,
      "piv": 2781,
      "ream": 2782,
      "9999999999": 2783,
      "fillchar": 2784,
      "start_word_index": 2785,
      "end_word_index": 2786,
      "387": 2787,
      "695": 2788,
      "FAL": 2789,
      "MIN": 2790,
      "Up": 2791,
      "az": 2792,
      "qb": 2793,
      "rp": 2794,
      "zj": 2795,
      "ont": 2796,
      "DCDDDD": 2797,
      "mean": 2798,
      "there": 2799,
      "665": 2800,
      "incre": 2801,
      "197": 2802,
      "754": 2803,
      "mnolmn": 2804,
      "Value": 2805,
      "FALSE": 2806,
      "!\"": 2807,
      ")<=": 2808,
      "274": 2809,
      "791": 2810,
      "903": 2811,
      "904": 2812,
      "OK": 2813,
      "Var": 2814,
      "hx": 2815,
      "mq": 2816,
      "p92": 2817,
      "tm": 2818,
      "yj": 2819,
      "zf": 2820,
      "too": 2821,
      "val_sequence": 2822,
      "894": 2823,
      "white": 2824,
      "try": 2825,
      "task_A": 2826,
      "task_B": 2827,
      "AME": 2828,
      "UFF": 2829,
      "TBL": 2830,
      "TYPE": 2831,
      "+'": 2832,
      "283": 2833,
      "682": 2834,
      "899": 2835,
      "984": 2836,
      "At": 2837,
      "ITH": 2838,
      "eb": 2839,
      "f1": 2840,
      "jf": 2841,
      "l1": 2842,
      "oq": 2843,
      "sv": 2844,
      "wc": 2845,
      "wv": 2846,
      "zc": 2847,
      "eld": 2848,
      "135": 2849,
      ")='": 2850,
      "new_node": 2851,
      "CCG": 2852,
      "token_no": 2853,
      "File": 2854,
      "Christmas": 2855,
      "282": 2856,
      "273": 2857,
      "CDE": 2858,
      "Pri": 2859,
      "bz": 2860,
      "cr": 2861,
      "hq": 2862,
      "mf": 2863,
      "oj": 2864,
      "qc": 2865,
      "way": 2866,
      ":=-": 2867,
      "**(": 2868,
      "817": 2869,
      "Input": 2870,
      "ircle": 2871,
      "iachar": 2872,
      "ensure_storage": 2873,
      "MODULE": 2874,
      "BINARY": 2875,
      "_entry": 2876,
      "dl": 2877,
      "gl": 2878,
      "gz": 2879,
      "glo": 2880,
      "h2": 2881,
      "hy": 2882,
      "nw": 2883,
      "ox": 2884,
      "qq": 2885,
      "tf": 2886,
      "tj": 2887,
      "vs": 2888,
      "x92": 2889,
      "yf": 2890,
      "zd": 2891,
      "814": 2892,
      "9999999": 2893,
      "345": 2894,
      "upper": 2895,
      "Heap": 2896,
      "acces": 2897,
      "':": 2898,
      "664": 2899,
      "Mod": 2900,
      "cu": 2901,
      "h91": 2902,
      "kf": 2903,
      "k89": 2904,
      "mr": 2905,
      "pg": 2906,
      "tate": 2907,
      "vn": 2908,
      "wf": 2909,
      "yb": 2910,
      "yc": 2911,
      "zu": 2912,
      "int_nil": 2913,
      "004": 2914,
      "925": 2915,
      "(*,\"(": 2916,
      "---": 2917,
      "167": 2918,
      "indata": 2919,
      "interpre": 2920,
      "uld_": 2921,
      "225": 2922,
      "STDIO": 2923,
      "char_nil": 2924,
      "INT8": 2925,
      "words_index": 2926,
      "split": 2927,
      "Result": 2928,
      "store": 2929,
      "_seed": 2930,
      "random_seed": 2931,
      "rbt_int_nil": 2932,
      "rbt_char_nil": 2933,
      "should_": 2934,
      "should_be": 2935,
      "164": 2936,
      "973": 2937,
      "FDD": 2938,
      "MON": 2939,
      "SORT": 2940,
      "Tree": 2941,
      "]<=": 2942,
      "ei": 2943,
      "ij": 2944,
      "m89": 2945,
      "nq": 2946,
      "og": 2947,
      "qf": 2948,
      "qy": 2949,
      "ten": 2950,
      "wb": 2951,
      "wx": 2952,
      "yk": 2953,
      "zk": 2954,
      "rect": 2955,
      "INS": 2956,
      "64m": 2957,
      "posit": 2958,
      "jklmnoklmjkllmn": 2959,
      "################": 2960,
      "ijklmnjkljklklmklmklmlmnlmnjklmnoklmjkllmn": 2961,
      "poll_first": 2962,
      "_needed": 2963,
      "ENSION": 2964,
      "ijklmnjkljklklmklmklmlmnlmnjklmnoklmjkllmnklmklmlmnlmn": 2965,
      "area": 2966,
      "bj": 2967,
      "fj": 2968,
      "jd": 2969,
      "lr": 2970,
      "m91": 2971,
      "ql": 2972,
      "vw": 2973,
      "xh": 2974,
      "yp": 2975,
      "maxlongint": 2976,
      "SELE": 2977,
      "fact": 2978,
      "wave": 2979,
      "GOBACK": 2980,
      "DIMENSION": 2981,
      "363": 2982,
      "693": 2983,
      "632": 2984,
      "625": 2985,
      "944": 2986,
      "js": 2987,
      "lj": 2988,
      "nv": 2989,
      "pw": 2990,
      "qg": 2991,
      "xq": 2992,
      "y91": 2993,
      "round": 2994,
      "let_": 2995,
      "32m": 2996,
      "TEMP": 2997,
      "DCDE": 2998,
      "STAT": 2999,
      "Int_": 3000,
      "ghijklhijhijijkijkijkjkljkljklklmklm": 3001,
      "efghijfghfghghighighihijhijghiijkhij": 3002,
      "pivot": 3003,
      "wavelet_": 3004,
      "wavelet_matrix": 3005,
      "187": 3006,
      "220": 3007,
      "766": 3008,
      "CAL": 3009,
      "_queue": 3010,
      "hv": 3011,
      "hel": 3012,
      "mw": 3013,
      "o82": 3014,
      "pal": 3015,
      "tu": 3016,
      "ugh": 3017,
      "wid": 3018,
      "where": 3019,
      "xn": 3020,
      "xv": 3021,
      "ICAL": 3022,
      "120": 3023,
      "ABLE": 3024,
      "mi64": 3025,
      "mi32": 3026,
      "limit": 3027,
      "priority_queue": 3028,
      "segment_tree": 3029,
      "385": 3030,
      "787": 3031,
      "714": 3032,
      "BER": 3033,
      "hf": 3034,
      "n92": 3035,
      "qa": 3036,
      "rw": 3037,
      "uw": 3038,
      "wq": 3039,
      "xw": 3040,
      "supp": 3041,
      "155": 3042,
      "mem": 3043,
      "194": 3044,
      "contain": 3045,
      "Rec": 3046,
      "times": 3047,
      "hijklmijkijkjkljkljklklmklmjkllmnklm": 3048,
      "fghijkghighihijhijhijijkijkijkjkljkl": 3049,
      "fghijkghighihijhijhijijkijkghijklhij": 3050,
      "accessibility": 3051,
      "fghijkghighihijhijhijijkijkghijklhijghiijkhijhijijkijk": 3052,
      ")]": 3053,
      "199": 3054,
      "132": 3055,
      "605": 3056,
      "705": 3057,
      "794": 3058,
      "FL": 3059,
      "Max": 3060,
      "On": 3061,
      "WITH": 3062,
      "br": 3063,
      "equal": 3064,
      "l92": 3065,
      "mc": 3066,
      "rq": 3067,
      "slshift": 3068,
      "zx": 3069,
      "chr": 3070,
      "nop": 3071,
      "height": 3072,
      ",'=": 3073,
      "1000000000": 3074,
      "days": 3075,
      "287": 3076,
      "293": 3077,
      "317": 3078,
      "484": 3079,
      "701": 3080,
      "783": 3081,
      "782": 3082,
      "967": 3083,
      "False": 3084,
      "GIN": 3085,
      "ME": 3086,
      "_min": 3087,
      "g91": 3088,
      "hc": 3089,
      "qn": 3090,
      "tle": 3091,
      "855": 3092,
      "(((": 3093,
      "upon": 3094,
      "symtab": 3095,
      "vm_bytes": 3096,
      "#')": 3097,
      "399": 3098,
      "626": 3099,
      "980": 3100,
      "LY": 3101,
      "Out": 3102,
      "_to_": 3103,
      "ej": 3104,
      "vz": 3105,
      "yt": 3106,
      "zb": 3107,
      "std": 3108,
      "ford_": 3109,
      "REMAIN": 3110,
      "654": 3111,
      "999999999999": 3112,
      "ishft": 3113,
      "fulker": 3114,
      "LOGICAL": 3115,
      "ford_fulker": 3116,
      "REMAINDER": 3117,
      "ford_fulkerson": 3118,
      "ARE": 3119,
      "CASE": 3120,
      "GRE": 3121,
      "]]:=": 3122,
      "_down": 3123,
      "oh": 3124,
      "oy": 3125,
      "pz": 3126,
      "pon": 3127,
      "sing": 3128,
      "vl": 3129,
      "zg": 3130,
      "zm": 3131,
      "zp": 3132,
      "zt": 3133,
      "))*": 3134,
      "(*,*)(": 3135,
      "dep": 3136,
      "oper": 3137,
      "DCDCDD": 3138,
      "countN": 3139,
      "START": 3140,
      "much": 3141,
      "POS": 3142,
      "SHO": 3143,
      "305": 3144,
      "375": 3145,
      "A3": 3146,
      "CD": 3147,
      "hand": 3148,
      "yx": 3149,
      "sta": 3150,
      "==\"": 3151,
      "len_sequence": 3152,
      "characters": 3153,
      "INTENT": 3154,
      "999999999": 3155,
      "100001": 3156,
      "Search": 3157,
      "Writeln": 3158,
      "Left": 3159,
      ".'": 3160,
      "0d0": 3161,
      "620": 3162,
      "881": 3163,
      "Ex": 3164,
      "TA": 3165,
      "_1": 3166,
      "_table": 3167,
      "fz": 3168,
      "hon": 3169,
      "hap": 3170,
      "kz": 3171,
      "qword": 3172,
      "ske": 3173,
      "uu": 3174,
      "enter": 3175,
      "850": 3176,
      "direc": 3177,
      "320": 3178,
      "RAN": 3179,
      "043": 3180,
      "ABC15": 3181,
      "Inser": 3182,
      "place": 3183,
      "wise": 3184,
      "hijklmijk": 3185,
      "target": 3186,
      "cell": 3187,
      "skew": 3188,
      "683": 3189,
      "617": 3190,
      "IAL": 3191,
      "hw": 3192,
      "kc": 3193,
      "src": 3194,
      "uz": 3195,
      "wy": 3196,
      "remain": 3197,
      "or_": 3198,
      "555": 3199,
      "DJCDD": 3200,
      "last_word_mask": 3201,
      "s_per": 3202,
      "strbuf_t_": 3203,
      "initial_capacity": 3204,
      "Char_": 3205,
      "HTM": 3206,
      "692": 3207,
      "603": 3208,
      "793": 3209,
      "883": 3210,
      "983": 3211,
      "982": 3212,
      "FD": 3213,
      "PH": 3214,
      "QR": 3215,
      "aj": 3216,
      "mz": 3217,
      "zh": 3218,
      "let": 3219,
      "645": 3220,
      "******": 3221,
      "nums": 3222,
      "323": 3223,
      "3232": 3224,
      "temp3": 3225,
      "vert": 3226,
      "namec": 3227,
      "SIGN": 3228,
      "paragraph": 3229,
      "Prime": 3230,
      "\"\"": 3231,
      "284": 3232,
      "601": 3233,
      "624": 3234,
      "810": 3235,
      "But": 3236,
      "Get": 3237,
      "I1": 3238,
      "VAN": 3239,
      "chi": 3240,
      "d2": 3241,
      "d92": 3242,
      "eh": 3243,
      "mel": 3244,
      "tn": 3245,
      "undirec": 3246,
      "640": 3247,
      "tern": 3248,
      "exist": 3249,
      "130": 3250,
      "954": 3251,
      "270": 3252,
      "uff": 3253,
      "skip_": 3254,
      "reater": 3255,
      "avl_": 3256,
      "width": 3257,
      "undirected": 3258,
      "286": 3259,
      "215": 3260,
      "684": 3261,
      "k91": 3262,
      "lc": 3263,
      "ov": 3264,
      "s92": 3265,
      "za": 3266,
      "zv": 3267,
      "ished": 3268,
      "unicode": 3269,
      "minator": 3270,
      "counts": 3271,
      "syser": 3272,
      "ADVAN": 3273,
      "Number": 3274,
      "denominator": 3275,
      "SELECT": 3276,
      "syserr": 3277,
      "183": 3278,
      "119": 3279,
      "717": 3280,
      ":(": 3281,
      "MAR": 3282,
      "Wor": 3283,
      "Word": 3284,
      "_r": 3285,
      "au": 3286,
      "eve": 3287,
      "ires": 3288,
      "rf": 3289,
      "yh": 3290,
      "914": 3291,
      "ents": 3292,
      "DDDCDD": 3293,
      "935": 3294,
      "termin": 3295,
      "more": 3296,
      "265": 3297,
      "previous": 3298,
      "USAGE": 3299,
      "]<>'": 3300,
      "lessi": 3301,
      "whitespace": 3302,
      "\"-": 3303,
      "266": 3304,
      "Ty": 3305,
      "Z9": 3306,
      "['": 3307,
      "ml": 3308,
      "oe": 3309,
      "qw": 3310,
      "ru": 3311,
      "spec": 3312,
      "xe": 3313,
      "yv": 3314,
      "990": 3315,
      "exce": 3316,
      "2020": 3317,
      "VEC": 3318,
      "edges": 3319,
      "Main": 3320,
      "275": 3321,
      "294": 3322,
      "686": 3323,
      "712": 3324,
      "722": 3325,
      "GRA": 3326,
      "Right": 3327,
      "WER": 3328,
      "hold": 3329,
      "ja": 3330,
      "ning": 3331,
      "was": 3332,
      "x_": 3333,
      "yq": 3334,
      "reset": 3335,
      "suc": 3336,
      "tain": 3337,
      "825": 3338,
      "allocated": 3339,
      "atta": 3340,
      "newg": 3341,
      "position": 3342,
      "99999999999": 3343,
      "9999999999999": 3344,
      "100000000000000": 3345,
      "delim": 3346,
      "each": 3347,
      "BEGIN": 3348,
      "212": 3349,
      "675": 3350,
      "974": 3351,
      "963": 3352,
      "FJ": 3353,
      "Per": 3354,
      "achar": 3355,
      "f92": 3356,
      "hz": 3357,
      "jr": 3358,
      "tq": 3359,
      "zn": 3360,
      "tori": 3361,
      "mode": 3362,
      "144": 3363,
      "250": 3364,
      "error_unit": 3365,
      "task_C": 3366,
      "quicksort1": 3367,
      "initialize": 3368,
      "ceiling": 3369,
      "392": 3370,
      "966": 3371,
      "AGC": 3372,
      "Go": 3373,
      "Size": 3374,
      "b91": 3375,
      "but": 3376,
      "cap": 3377,
      "fc": 3378,
      "zq": 3379,
      "onic": 3380,
      "ort_": 3381,
      "),*)": 3382,
      "840": 3383,
      "ped": 3384,
      "not_": 3385,
      "322": 3386,
      "indro": 3387,
      "merger": 3388,
      "part": 3389,
      "_heap_down": 3390,
      "sort_": 3391,
      "lex_line": 3392,
      "dfs_bf": 3393,
      "INDEX": 3394,
      "SearchTree": 3395,
      "Type": 3396,
      "lex_line_no": 3397,
      ".,": 3398,
      "303": 3399,
      "FAC": 3400,
      "One": 3401,
      "_num": 3402,
      "der": 3403,
      "qary": 3404,
      "tv": 3405,
      "xz": 3406,
      "ending": 3407,
      "righ": 3408,
      "9982": 3409,
      "844": 3410,
      "6464": 3411,
      "RAY": 3412,
      "need": 3413,
      "asc": 3414,
      "cells": 3415,
      "t_hash_map": 3416,
      ",:),": 3417,
      "1e": 3418,
      "ECDD": 3419,
      "Even": 3420,
      "Fix": 3421,
      "LON": 3422,
      "NAME": 3423,
      "Sub": 3424,
      "card": 3425,
      "est": 3426,
      "fol": 3427,
      "nz": 3428,
      "qe": 3429,
      "ify": 3430,
      "maze": 3431,
      "comple": 3432,
      "140": 3433,
      "735": 3434,
      "950": 3435,
      "merge_": 3436,
      "Count": 3437,
      "ough": 3438,
      "should": 3439,
      "715": 3440,
      "720": 3441,
      "=-": 3442,
      "LL": 3443,
      "_sub": 3444,
      "j91": 3445,
      "nor": 3446,
      "ose": 3447,
      "yw": 3448,
      "also": 3449,
      "873": 3450,
      "urs": 3451,
      "ghiefghijfghfghghighighihijhijghiijkhij": 3452,
      "DEDC": 3453,
      "195": 3454,
      "235": 3455,
      "ATER": 3456,
      "strings": 3457,
      "CCDCDD": 3458,
      "DGDDJ": 3459,
      "iostat": 3460,
      "emit": 3461,
      "FLG": 3462,
      "GREATER": 3463,
      "193": 3464,
      "213": 3465,
      "BB": 3466,
      "ECT": 3467,
      "List": 3468,
      "_con": 3469,
      "cj": 3470,
      "hull": 3471,
      "tract": 3472,
      "wl": 3473,
      "zw": 3474,
      "dire": 3475,
      "inser": 3476,
      "lmnmnomno": 3477,
      "word_mask": 3478,
      "730": 3479,
      "940": 3480,
      "bits_per": 3481,
      "CCDE": 3482,
      "NUMBER": 3483,
      "front": 3484,
      "Length": 3485,
      "bits_per_word": 3486,
      "344": 3487,
      "764": 3488,
      "991": 3489,
      "985": 3490,
      "Cmp": 3491,
      "IB": 3492,
      "Of": 3493,
      "dc": 3494,
      "i89": 3495,
      "rz": 3496,
      "dot_": 3497,
      "set_": 3498,
      "ans2": 3499,
      "come": 3500,
      "confi": 3501,
      "range_": 3502,
      "SortCmp": 3503,
      "RedBlackTree": 3504,
      "flip": 3505,
      "Record": 3506,
      "799": 3507,
      "786": 3508,
      "AG": 3509,
      "Line": 3510,
      "Po": 3511,
      "TLE": 3512,
      "p91": 3513,
      "qz": 3514,
      "ush": 3515,
      "stream": 3516,
      "numerator": 3517,
      "1200": 3518,
      "145": 3519,
      "1415": 3520,
      "CEDD": 3521,
      "field": 3522,
      "770": 3523,
      "230": 3524,
      "quare": 3525,
      "ARD": 3526,
      "STACK": 3527,
      "ITEM": 3528,
      "prob1": 3529,
      "new_entry": 3530,
      "================================": 3531,
      "divide": 3532,
      "382": 3533,
      "765": 3534,
      "BIG": 3535,
      "Odd": 3536,
      "PART": 3537,
      "htt": 3538,
      "i82": 3539,
      "n89": 3540,
      "tz": 3541,
      "vu": 3542,
      "invm": 3543,
      "lename": 3544,
      "775": 3545,
      "jklijkklmjkl": 3546,
      "itr_": 3547,
      "defaul": 3548,
      "after": 3549,
      "1000000007_8": 3550,
      "indrome": 3551,
      ")\"": 3552,
      "116": 3553,
      "292": 3554,
      "264": 3555,
      "217": 3556,
      "674": 3557,
      "723": 3558,
      "724": 3559,
      "AK": 3560,
      "De": 3561,
      "MULT": 3562,
      "ND": 3563,
      "Not": 3564,
      "TS": 3565,
      "USE": 3566,
      "YY": 3567,
      "_front": 3568,
      "cf": 3569,
      "man": 3570,
      "oz": 3571,
      "p89": 3572,
      "q89": 3573,
      "s3": 3574,
      "wz": 3575,
      "ward": 3576,
      "thro": 3577,
      "an_for": 3578,
      "910": 3579,
      "bellm": 3580,
      "875": 3581,
      "med": 3582,
      "_inf": 3583,
      "from_": 3584,
      "elem": 3585,
      "good": 3586,
      "prob3": 3587,
      "you": 3588,
      "obj": 3589,
      "ghighighihijhijhijijkijk": 3590,
      "cessor": 3591,
      "!!!": 3592,
      "Readln": 3593,
      "default_": 3594,
      "an_ford": 3595,
      "bellman_ford": 3596,
      "1X": 3597,
      "360": 3598,
      "696": 3599,
      ":-": 3600,
      "XX": 3601,
      "])+": 3602,
      "gon": 3603,
      "hl": 3604,
      "imove": 3605,
      "tally": 3606,
      "ua": 3607,
      "zl": 3608,
      "rook": 3609,
      "0001": 3610,
      "RESU": 3611,
      "sum1": 3612,
      "_input": 3613,
      "rank_": 3614,
      "045": 3615,
      "INT64": 3616,
      "west": 3617,
      "clr": 3618,
      "permut": 3619,
      "VECTOR": 3620,
      "RESULT": 3621,
      "rank_ssa": 3622,
      "680": 3623,
      "CLA": 3624,
      "Frip": 3625,
      "IO": 3626,
      "fu": 3627,
      "fre": 3628,
      "n91": 3629,
      "o92": 3630,
      "o89": 3631,
      "rotate": 3632,
      "mod_t": 3633,
      "(*,*)\"": 3634,
      "submm": 3635,
      "128": 3636,
      "divmm": 3637,
      "]:='": 3638,
      "ARRAY": 3639,
      "945": 3640,
      "THE": 3641,
      "addmm": 3642,
      "Int_node": 3643,
      "har_node": 3644,
      "finished": 3645,
      "_Char_node": 3646,
      "common": 3647,
      "RBT_Char_node": 3648,
      "MinHeap": 3649,
      "RBT_Int_node": 3650,
      "_infty": 3651,
      "']": 3652,
      "383": 3653,
      "604": 3654,
      "792": 3655,
      "710": 3656,
      "=*),": 3657,
      "EDJ": 3658,
      "ECJ": 3659,
      "MT": 3660,
      "Table": 3661,
      "WK": 3662,
      "bra": 3663,
      "ez": 3664,
      "ise": 3665,
      "iter": 3666,
      "j1": 3667,
      "kl": 3668,
      "large": 3669,
      "lice": 3670,
      "t_graph": 3671,
      "uess": 3672,
      "maxn": 3673,
      "look": 3674,
      "compil": 3675,
      "compare": 3676,
      "ijklmnjkl": 3677,
      "modulo_": 3678,
      "gcd_": 3679,
      "increment": 3680,
      "Insert_": 3681,
      "LONG": 3682,
      "\"#": 3683,
      "414": 3684,
      "://": 3685,
      "EDC": 3686,
      "Sta": 3687,
      "YE": 3688,
      "_bit": 3689,
      "gre": 3690,
      "wel": 3691,
      "ico": 3692,
      "allow": 3693,
      "820": 3694,
      "sig": 3695,
      "klmmnolmn": 3696,
      "895": 3697,
      "THAN": 3698,
      "save": 3699,
      "970": 3700,
      "goback": 3701,
      "check_": 3702,
      "ASSIGN": 3703,
      "iban": 3704,
      "zeros": 3705,
      "First": 3706,
      "trail": 3707,
      "poll_last": 3708,
      "HTML": 3709,
      "\"/": 3710,
      "613": 3711,
      "732": 3712,
      "AINS": 3713,
      "Alice": 3714,
      "Hel": 3715,
      "V9": 3716,
      "c92": 3717,
      "h1": 3718,
      "lock": 3719,
      "spe": 3720,
      "yz": 3721,
      "ORD": 3722,
      "150": 3723,
      "sizes": 3724,
      "ween": 3725,
      "items": 3726,
      "shift32": 3727,
      "selec": 3728,
      "xorshift32": 3729,
      "to_unicode": 3730,
      "ishop": 3731,
      "CONTAINS": 3732,
      "0_INT32": 3733,
      "through": 3734,
      "381": 3735,
      "<<": 3736,
      "HAR": 3737,
      "SC": 3738,
      "SQU": 3739,
      "_value": 3740,
      "ae": 3741,
      "cor": 3742,
      "han": 3743,
      "oi": 3744,
      "x91": 3745,
      "proble": 3746,
      "205": 3747,
      "750": 3748,
      "gist": 3749,
      "ast_node": 3750,
      "stack1": 3751,
      "pop_back": 3752,
      "EDDDJ": 3753,
      "clock": 3754,
      "3000": 3755,
      "300000": 3756,
      "616": 3757,
      "623": 3758,
      "FLO": 3759,
      "LIN": 3760,
      "bon": 3761,
      "cmp": 3762,
      "dum": 3763,
      "flow": 3764,
      "u91": 3765,
      "014": 3766,
      "ENCE": 3767,
      "UND": 3768,
      "ned": 3769,
      "204": 3770,
      "path": 3771,
      "list_": 3772,
      "(:,:": 3773,
      "img": 3774,
      "DGDCJ": 3775,
      "zzzz": 3776,
      "newe0": 3777,
      "between": 3778,
      "Hello": 3779,
      "(+": 3780,
      "186": 3781,
      "295": 3782,
      "784": 3783,
      "Div": 3784,
      "FF": 3785,
      "Ro": 3786,
      "REN": 3787,
      "TU": 3788,
      "VER": 3789,
      "_2": 3790,
      "ao": 3791,
      "gap": 3792,
      "jc": 3793,
      "ous": 3794,
      "wu": 3795,
      "ana": 3796,
      "write_": 3797,
      "*,\"": 3798,
      "325": 3799,
      "poly": 3800,
      "ROL": 3801,
      "sum_": 3802,
      "CDDCDD": 3803,
      "first_word_mask": 3804,
      "NOW": 3805,
      "dflow": 3806,
      "_clock": 3807,
      "aijo": 3808,
      "2018": 3809,
      "outer": 3810,
      "CONTROL": 3811,
      "ghijklhijfghijkghighihijhijhijijkijkhijjklijk": 3812,
      "release_tree": 3813,
      "nhap": 3814,
      "follow": 3815,
      "MULTIP": 3816,
      "'-": 3817,
      "185": 3818,
      "219": 3819,
      "304": 3820,
      "All": 3821,
      "FMT": 3822,
      "_INT32": 3823,
      "m55": 3824,
      "m54": 3825,
      "reference": 3826,
      "dow": 3827,
      "IND": 3828,
      "INSP": 3829,
      "cho": 3830,
      "numer": 3831,
      "'()')": 3832,
      "filename": 3833,
      "returning": 3834,
      "_init": 3835,
      "compr": 3836,
      "Then": 3837,
      "random_number": 3838,
      "INSPECT": 3839,
      "\":": 3840,
      "\"),": 3841,
      "->": 3842,
      "364": 3843,
      "355": 3844,
      "Cur": 3845,
      "CING": 3846,
      "En": 3847,
      "OT": 3848,
      "PP": 3849,
      "oa": 3850,
      "ting": 3851,
      "thres": 3852,
      "ich": 3853,
      "864": 3854,
      "tionary": 3855,
      "dp1": 3856,
      "635": 3857,
      "newmod": 3858,
      "mergesort": 3859,
      "access": 3860,
      "m59": 3861,
      "input_unit": 3862,
      "jump": 3863,
      "assignment": 3864,
      "_heap_sort": 3865,
      "------------------------------------": 3866,
      "PARA": 3867,
      "BOL": 3868,
      "struction": 3869,
      "support": 3870,
      "Output": 3871,
      "216": 3872,
      "4000": 3873,
      "796": 3874,
      "AA": 3875,
      "Coder": 3876,
      "Let": 3877,
      "NB": 3878,
      "frac": 3879,
      "i3": 3880,
      "ilation": 3881,
      "jl": 3882,
      "sin": 3883,
      "ulation": 3884,
      "enough": 3885,
      "rat": 3886,
      "))))": 3887,
      "10_8": 3888,
      "memo": 3889,
      "650": 3890,
      "merged": 3891,
      "ANSS": 3892,
      "swapi": 3893,
      "mod_graph": 3894,
      "_segt": 3895,
      "SIBLE": 3896,
      "combin": 3897,
      "gative": 3898,
      "hijklmijkghijklhijhijijkijkijkjkljklijkklmjkl": 3899,
      "'))": 3900,
      "();": 3901,
      "316": 3902,
      "395": 3903,
      "681": 3904,
      "Id": 3905,
      "S2": 3906,
      "Star": 3907,
      "bot": 3908,
      "cum": 3909,
      "ies": 3910,
      "lon": 3911,
      "l91": 3912,
      "erase": 3913,
      "see": 3914,
      "seq": 3915,
      "another": 3916,
      "addi": 3917,
      "920": 3918,
      "may": 3919,
      "830": 3920,
      "res1": 3921,
      "647": 3922,
      "3200": 3923,
      "121": 3924,
      "89j": 3925,
      "heap_nil": 3926,
      "possible": 3927,
      "]));": 3928,
      "prob2": 3929,
      "tree_size": 3930,
      "klmjkllmnklm": 3931,
      "expres": 3932,
      "jklmnoklmklmlmnlmnlmnmnomno": 3933,
      "118": 3934,
      "790": 3935,
      "BASE": 3936,
      "LD": 3937,
      "PENDING": 3938,
      "_l": 3939,
      "_than": 3940,
      "a92": 3941,
      "b2": 3942,
      "circle": 3943,
      "yu": 3944,
      "anced": 3945,
      "lead": 3946,
      "ater": 3947,
      "('-": 3948,
      "870": 3949,
      "PICTU": 3950,
      "ijkklm": 3951,
      "arrays": 3952,
      "134": 3953,
      "774": 3954,
      "DEPENDING": 3955,
      "count1": 3956,
      "Init": 3957,
      "swer": 3958,
      "DCDDDJ": 3959,
      "aaa": 3960,
      "val_kind": 3961,
      "cake": 3962,
      "Answer": 3963,
      "Point": 3964,
      "freq": 3965,
      "PICTURE": 3966,
      "'..": 3967,
      "([": 3968,
      "312": 3969,
      "366": 3970,
      "397": 3971,
      "_mod": 3972,
      "d91": 3973,
      "i64": 3974,
      "jmove": 3975,
      "t92": 3976,
      "raw": 3977,
      "rational": 3978,
      "util": 3979,
      "dp2": 3980,
      ")=\"": 3981,
      "734": 3982,
      "745": 3983,
      ")/(": 3984,
      "350": 3985,
      "bitsize": 3986,
      "670": 3987,
      "INT16": 3988,
      "parent": 3989,
      "giving": 3990,
      "LOOP": 3991,
      "required": 3992,
      "CONTIN": 3993,
      "change_": 3994,
      "dfs_ff": 3995,
      "global": 3996,
      "modulo_util": 3997,
      "MULTIPLY": 3998,
      "combination": 3999,
      "482": 4000,
      "780": 4001,
      "797": 4002,
      "B2": 4003,
      "EQU": 4004,
      "MH": 4005,
      "_data": 4006,
      "cro": 4007,
      "greater": 4008,
      "rol": 4009,
      "),'": 4010,
      "arget": 4011,
      "839": 4012,
      "ERR": 4013,
      "klmnop": 4014,
      "445": 4015,
      "my_count": 4016,
      "1_1": 4017,
      "_masks": 4018,
      "efghijfghfghghighighihijhijhijijkijk": 4019,
      "t_skip_list_": 4020,
      "ALLOCATE": 4021,
      "GRAPH": 4022,
      "FixUp": 4023,
      "norm": 4024,
      "problem": 4025,
      "PARAGRAPH": 4026,
      "'..'": 4027,
      "-\",": 4028,
      "299": 4029,
      "281": 4030,
      "315": 4031,
      "394": 4032,
      "516": 4033,
      "Pa": 4034,
      "Sum": 4035,
      "URA": 4036,
      "f91": 4037,
      "o81": 4038,
      "rl": 4039,
      "rgb": 4040,
      "radi": 4041,
      "INF": 4042,
      "tax": 4043,
      "tions": 4044,
      "cos": 4045,
      "andard": 4046,
      "TED": 4047,
      "tmp2": 4048,
      "554": 4049,
      "44353": 4050,
      ")+(": 4051,
      "newline": 4052,
      "WORD": 4053,
      ",*)\"": 4054,
      "*(*)": 4055,
      "************************************************": 4056,
      "trit": 4057,
      "palindrome": 4058,
      "998244353": 4059,
      "threshold": 4060,
      "CONTINUE": 4061,
      "MH_node": 4062,
      "386": 4063,
      "377": 4064,
      "376": 4065,
      "594": 4066,
      "716": 4067,
      "727": 4068,
      "960": 4069,
      "OS": 4070,
      "Y1": 4071,
      "]]);": 4072,
      "nseed": 4073,
      "s91": 4074,
      "does": 4075,
      "tist": 4076,
      "dem": 4077,
      "val1": 4078,
      "keta": 4079,
      "240": 4080,
      "634": 4081,
      "d_node": 4082,
      "game": 4083,
      "rbt_nil": 4084,
      "higher": 4085,
      "huge": 4086,
      "Good": 4087,
      "FACTOR": 4088,
      "334": 4089,
      "627": 4090,
      "Create": 4091,
      "Name": 4092,
      "Uses": 4093,
      "mone": 4094,
      "tong": 4095,
      "v93": 4096,
      "inline": 4097,
      "process": 4098,
      "015": 4099,
      "444": 4100,
      "260": 4101,
      "father": 4102,
      ")','": 4103,
      "040": 4104,
      "new_capacity": 4105,
      "ILE": 4106,
      "545": 4107,
      "version": 4108,
      "fghijkghifghhij": 4109,
      "(-)": 4110,
      "primes": 4111,
      "ECK": 4112,
      "left_branch": 4113,
      "ADVANCING": 4114,
      "right_branch": 4115,
      "(+)": 4116,
      "expression": 4117,
      "(=": 4118,
      "+\",": 4119,
      "725": 4120,
      "Add": 4121,
      "BC": 4122,
      "Bob": 4123,
      "Kaijo": 4124,
      "WW": 4125,
      "_all": 4126,
      "cat": 4127,
      "f0": 4128,
      "prim": 4129,
      "onent": 4130,
      "rith": 4131,
      "ard_": 4132,
      "))),": 4133,
      "847": 4134,
      "coef": 4135,
      "100010": 4136,
      "142": 4137,
      "shr": 4138,
      "190": 4139,
      "LAST": 4140,
      "THER": 4141,
      "defdef": 4142,
      "output_unit": 4143,
      "stack2": 4144,
      "NUM_": 4145,
      ",\"-\",": 4146,
      "DCDCDJ": 4147,
      "less_than": 4148,
      "factori": 4149,
      "accept": 4150,
      "leftist": 4151,
      "meld_node": 4152,
      "complex": 4153,
      "YEAR": 4154,
      "EQUAL": 4155,
      "leftist_heap": 4156,
      "393": 4157,
      "335": 4158,
      "CF": 4159,
      "IZ": 4160,
      "Ju": 4161,
      "guess": 4162,
      "know": 4163,
      "nfmt": 4164,
      "ody": 4165,
      "debu": 4166,
      "ICHAR": 4167,
      "subtract": 4168,
      "nodes": 4169,
      "shl": 4170,
      "()\")": 4171,
      ",\"+\",": 4172,
      "double_": 4173,
      "source_index": 4174,
      "DEFIN": 4175,
      "AtCoder": 4176,
      "memory": 4177,
      "ascend": 4178,
      "rotate_c": 4179,
      "Letter": 4180,
      ",\"(": 4181,
      "621": 4182,
      "Equal": 4183,
      "NEX": 4184,
      "Sm": 4185,
      "SQR": 4186,
      "_D": 4187,
      "ain": 4188,
      "q93": 4189,
      "st_": 4190,
      "))==": 4191,
      "mation": 4192,
      "t_priority_queue": 4193,
      "DIF": 4194,
      "660": 4195,
      "....": 4196,
      "228": 4197,
      "DEDDDD": 4198,
      "week": 4199,
      "swp": 4200,
      "Thus": 4201,
      "(/)": 4202,
      "command_": 4203,
      "rational_": 4204,
      "DataType": 4205,
      "emitbyte": 4206,
      "trailing": 4207,
      "_segtree": 4208,
      ")<>": 4209,
      "610": 4210,
      "689": 4211,
      "ECDC": 4212,
      "FLA": 4213,
      "IH": 4214,
      "N2": 4215,
      "bad": 4216,
      "c0": 4217,
      "eas": 4218,
      "iand": 4219,
      "kth": 4220,
      "tit": 4221,
      "ank": 4222,
      "fortran": 4223,
      "res2": 4224,
      "jkllmn": 4225,
      "888": 4226,
      "strlist": 4227,
      "ghighifghhij": 4228,
      "short": 4229,
      "bitonic": 4230,
      "preans": 4231,
      "DOM": 4232,
      "ALLY": 4233,
      "exponent": 4234,
      "WHILE": 4235,
      "half": 4236,
      "traverse": 4237,
      "\\\\\\": 4238,
      "STATUS": 4239,
      "hijklmijkijkjkljkljklklmklmjkllmnklmijklmnjkljklklmklm": 4240,
      "delimited": 4241,
      "permutation": 4242,
      "!****************************************************************": 4243,
      "\"'": 4244,
      "\"//": 4245,
      "384": 4246,
      "373": 4247,
      "367": 4248,
      "396": 4249,
      "584": 4250,
      "526": 4251,
      "PREC": 4252,
      "RR": 4253,
      "SW": 4254,
      "S_": 4255,
      "Ste": 4256,
      "TALLY": 4257,
      "],'": 4258,
      "a_": 4259,
      "ave": 4260,
      "crt": 4261,
      "pan": 4262,
      "t0": 4263,
      "rewrite": 4264,
      "ale": 4265,
      "mage": 4266,
      "peek": 4267,
      "ume": 4268,
      "159": 4269,
      "REDEFIN": 4270,
      "057": 4271,
      "length_needed": 4272,
      "Index": 4273,
      "quest": 4274,
      "what": 4275,
      "fghijkghiefghijfghfghghighighihijhijghiijkhij": 4276,
      "Some": 4277,
      "xyz": 4278,
      "ZZZZ9": 4279,
      "search_node": 4280,
      "pairs": 4281,
      "Possible": 4282,
      "MONTH": 4283,
      "child": 4284,
      "MARCH": 4285,
      "1000000000000000000": 4286,
      "change_modulus": 4287,
      "(=)": 4288,
      "REDEFINES": 4289,
      "&&": 4290,
      "296": 4291,
      "466": 4292,
      "514": 4293,
      "697": 4294,
      "789": 4295,
      "713": 4296,
      "726": 4297,
      "Dim": 4298,
      "KA": 4299,
      "N1": 4300,
      "Push": 4301,
      "VAR": 4302,
      "Yay": 4303,
      "_address": 4304,
      "lun": 4305,
      "many": 4306,
      "nmove": 4307,
      "sed": 4308,
      "army": 4309,
      ")));": 4310,
      "before": 4311,
      "INIT": 4312,
      "chara": 4313,
      "050": 4314,
      "254": 4315,
      "swap64": 4316,
      "swap32": 4317,
      "lmnlmnmnomno": 4318,
      "GCCJ": 4319,
      "hijklmijkijkjkljkljklklmklmklmlmnlmn": 4320,
      "EDDCJ": 4321,
      "CCDDDD": 4322,
      "ceiling_": 4323,
      "link": 4324,
      "operations": 4325,
      "icomb": 4326,
      "!'": 4327,
      "291": 4328,
      "289": 4329,
      "330": 4330,
      "767": 4331,
      "Dis": 4332,
      "EG": 4333,
      "Ho": 4334,
      "Is": 4335,
      "Lo": 4336,
      "XND": 4337,
      "dl2": 4338,
      "f2": 4339,
      "ium": 4340,
      "ied": 4341,
      "ner": 4342,
      "n_s": 4343,
      "ptr": 4344,
      "x3": 4345,
      "regist": 4346,
      "three": 4347,
      "als": 4348,
      "rib": 4349,
      "))',": 4350,
      "lication": 4351,
      "108": 4352,
      "neigh": 4353,
      "sum2": 4354,
      "five": 4355,
      "ALINE": 4356,
      "CODE": 4357,
      "module_sort": 4358,
      "\")',": 4359,
      "INP2": 4360,
      "INTER": 4361,
      "abc0": 4362,
      "how": 4363,
      "holes": 4364,
      "new_size": 4365,
      "lexer": 4366,
      "int32_from_": 4367,
      "interpreter": 4368,
      "RANDOM": 4369,
      "insert_": 4370,
      "TALLYING": 4371,
      "XNDX": 4372,
      "int32_from_vm_bytes": 4373,
      "290": 4374,
      "483": 4375,
      "477": 4376,
      "504": 4377,
      ":))": 4378,
      "EP": 4379,
      "EDG": 4380,
      "EDCDJ": 4381,
      "Whi": 4382,
      "_up": 4383,
      "_required": 4384,
      "edi": 4385,
      "fif": 4386,
      "ios": 4387,
      "r92": 4388,
      "slm": 4389,
      "sli": 4390,
      "z91": 4391,
      "instruction": 4392,
      "recalculate_": 4393,
      "don": 4394,
      "9265": 4395,
      "ENDIF": 4396,
      "lazy": 4397,
      "ines": 4398,
      "print_": 4399,
      "heigh": 4400,
      "mov": 4401,
      "245": 4402,
      "042": 4403,
      "CDDEJ": 4404,
      "string_": 4405,
      "words_required": 4406,
      "coded": 4407,
      "get_key": 4408,
      "get_element": 4409,
      "homo": 4410,
      "stem": 4411,
      "fghijkghighihijhij": 4412,
      "long_infty": 4413,
      "SortDataType": 4414,
      ",:))": 4415,
      "Op_": 4416,
      "Values": 4417,
      "mod_tree_": 4418,
      "LINK": 4419,
      "Small": 4420,
      "Step": 4421,
      "recalculate_words_in_use": 4422,
      "height_": 4423,
      "288": 4424,
      "374": 4425,
      "455": 4426,
      "CB": 4427,
      "Di": 4428,
      "Fin": 4429,
      "_STR": 4430,
      "_level": 4431,
      "_and_": 4432,
      "b0": 4433,
      "body": 4434,
      "eax": 4435,
      "fit": 4436,
      "ior": 4437,
      "men": 4438,
      "mil": 4439,
      "nheap": 4440,
      "sun": 4441,
      "y_": 4442,
      "best": 4443,
      "868": 4444,
      "sist": 4445,
      "106": 4446,
      "161": 4447,
      "SEQU": 4448,
      "box": 4449,
      "ase_level": 4450,
      "extend": 4451,
      ",*)(": 4452,
      "iron": 4453,
      "is_leaf": 4454,
      "ijkjkljklhijklmijkhij": 4455,
      "i_ast": 4456,
      "ccc": 4457,
      "control": 4458,
      "tten": 4459,
      "lexer_": 4460,
      "seconds": 4461,
      "fghijkghighihijhijhijijkijkghijklhijghiijkhijhijijkijkijkjkljklhijklmijkhij": 4462,
      "World": 4463,
      "Start": 4464,
      "money": 4465,
      "FLAG": 4466,
      "fghijkghighihijhijhijijkijkghijklhijghiijkhijhijijkijkijkjkljklhijklmijkhijjklijk": 4467,
      "210": 4468,
      "486": 4469,
      "583": 4470,
      "AF": 4471,
      "Fort": 4472,
      "I_": 4473,
      "OD": 4474,
      "OTHER": 4475,
      "X2": 4476,
      "dup": 4477,
      "i81": 4478,
      "alg": 4479,
      "alance": 4480,
      "seti": 4481,
      "orted": 4482,
      "prod": 4483,
      "ates": 4484,
      "ENUFF": 4485,
      "TOT": 4486,
      "subi": 4487,
      "expec": 4488,
      "122": 4489,
      "atis": 4490,
      "030": 4491,
      "]:=-": 4492,
      "shad": 4493,
      "_target": 4494,
      "ATABLE": 4495,
      "setm": 4496,
      "setta": 4497,
      "340": 4498,
      "arry": 4499,
      "pos1": 4500,
      "s_rev": 4501,
      "data_": 4502,
      "muli": 4503,
      "is_prime": 4504,
      "ms64": 4505,
      "ms32": 4506,
      "popcnt": 4507,
      "gain": 4508,
      "hijjklijkhijjklijk": 4509,
      "appende": 4510,
      "expr1": 4511,
      "msd3232": 4512,
      "msd6464": 4513,
      "ALLOCATABLE": 4514,
      "defghiefgefgfghfghfghghighighihijhij": 4515,
      "defghiefgefgfghfghfghghighifghhij": 4516,
      "skip_whitespace": 4517,
      "NEXT": 4518,
      "command_argument": 4519,
      "Smallint": 4520,
      "ironment": 4521,
      "Fortran": 4522,
      "(**": 4523,
      "581": 4524,
      "5d0": 4525,
      "989": 4526,
      "Cal": 4527,
      "Che": 4528,
      "May": 4529,
      "_out": 4530,
      "))**": 4531,
      "tile": 4532,
      "didate": 4533,
      "t_edge": 4534,
      "t_fenwick_tree": 4535,
      "ids": 4536,
      "most": 4537,
      "CDDDDJ": 4538,
      "354": 4539,
      "909": 4540,
      "gorith": 4541,
      "elements": 4542,
      "decre": 4543,
      "CHECK": 4544,
      "environment": 4545,
      "starting": 4546,
      "CDCEJ": 4547,
      "lmnklmmno": 4548,
      "lower_": 4549,
      "expr2": 4550,
      "vector_": 4551,
      "depth": 4552,
      "terminal": 4553,
      "Current": 4554,
      "(**)": 4555,
      "426": 4556,
      "475": 4557,
      "495": 4558,
      "501": 4559,
      "CI": 4560,
      "Cha": 4561,
      "Or": 4562,
      "Qu": 4563,
      "Sun": 4564,
      "Text": 4565,
      "UBLE": 4566,
      "_sa": 4567,
      "b93": 4568,
      "c3": 4569,
      "c91": 4570,
      "g93": 4571,
      "ign": 4572,
      "king": 4573,
      "scd": 4574,
      "y93": 4575,
      "006": 4576,
      "been": 4577,
      "016": 4578,
      "ters": 4579,
      "gest": 4580,
      "326": 4581,
      "DEG": 4582,
      "1111": 4583,
      "curl": 4584,
      "ANY": 4585,
      "540": 4586,
      "370": 4587,
      "getnum": 4588,
      "definit": 4589,
      "ast_t": 4590,
      "DGCDJ": 4591,
      "index_for": 4592,
      "_balance": 4593,
      "scan": 4594,
      "ing_zeros": 4595,
      "given_string": 4596,
      "changed": 4597,
      "n_dst": 4598,
      "overflow": 4599,
      "Implicit": 4600,
      "fix_balance": 4601,
      "direction": 4602,
      "obj_": 4603,
      "n_src": 4604,
      "definition": 4605,
      "380": 4606,
      "564": 4607,
      "704": 4608,
      "D2": 4609,
      "EST": 4610,
      "M1": 4611,
      "SM": 4612,
      "_val": 4613,
      "ake": 4614,
      "car": 4615,
      "cfmt": 4616,
      "f_": 4617,
      "m93": 4618,
      "nmm": 4619,
      "separa": 4620,
      "orter": 4621,
      "ICE": 4622,
      "vartab": 4623,
      "liter": 4624,
      "ORG": 4625,
      "ness": 4626,
      "171": 4627,
      "CEDC": 4628,
      "]:=(": 4629,
      "_two": 4630,
      "eqv": 4631,
      "four": 4632,
      "which": 4633,
      "ZZ9": 4634,
      "is_not_": 4635,
      "distrib": 4636,
      "ion_Find": 4637,
      "window": 4638,
      "volume": 4639,
      "multiple": 4640,
      "Union_Find": 4641,
      "ghijklhijhijijkijkijkjkljklhijklmijkhijjklijkijkjkljkljklklmklm": 4642,
      "linke": 4643,
      "speed": 4644,
      "---------------------------------------": 4645,
      "is_not_empty": 4646,
      "332": 4647,
      "By": 4648,
      "CCJCDD": 4649,
      "Draw": 4650,
      "LI": 4651,
      "LR": 4652,
      "NG": 4653,
      "a0": 4654,
      "a4": 4655,
      "again": 4656,
      "fra": 4657,
      "gfortran": 4658,
      "h93": 4659,
      "j93": 4660,
      "nbits": 4661,
      "ore": 4662,
      "ption": 4663,
      "sen": 4664,
      "tro": 4665,
      "seen": 4666,
      "itive": 4667,
      "hihi": 4668,
      "entro": 4669,
      "011": 4670,
      "816": 4671,
      "retval": 4672,
      "gef": 4673,
      "168": 4674,
      "129": 4675,
      "89r": 4676,
      "sum_of_": 4677,
      "fir": 4678,
      "interval": 4679,
      "lst_": 4680,
      "630": 4681,
      "number_of_": 4682,
      "Inc": 4683,
      "test1": 4684,
      "syn": 4685,
      "2800": 4686,
      "efgef": 4687,
      "100005": 4688,
      "DDDCDJ": 4689,
      "constants": 4690,
      "clear_bit": 4691,
      "candidate": 4692,
      "ijklmnjkljklklmklmklmlmnlmnklmmnolmn": 4693,
      "SYM": 4694,
      "CGDDJ": 4695,
      "efghijfghfghghighighihijhijfghijkghifghhij": 4696,
      "t_hash_set": 4697,
      "module_modint": 4698,
      "report": 4699,
      "MinHeap_": 4700,
      "ghijklhijfghijkghighihijhijhijijkijkhijjklijkghijklhijhijijkijk": 4701,
      "Identif": 4702,
      "linkage": 4703,
      "LINKAGE": 4704,
      "gorithm": 4705,
      "efghijfghfghghighighihijhijfghijkghifghhijghighi": 4706,
      "280": 4707,
      "417": 4708,
      "515": 4709,
      "575": 4710,
      "524": 4711,
      "719": 4712,
      "AMA": 4713,
      "CGCDJ": 4714,
      "El": 4715,
      "Node": 4716,
      "_al": 4717,
      "eu": 4718,
      "j2": 4719,
      "qlast": 4720,
      "v1": 4721,
      "enqueue": 4722,
      "ified": 4723,
      "org": 4724,
      "pect": 4725,
      "coins": 4726,
      "ingo": 4727,
      "'(*(": 4728,
      "maxval_": 4729,
      "lot": 4730,
      "them": 4731,
      "negative": 4732,
      "REE": 4733,
      "**************": 4734,
      "956": 4735,
      "parm": 4736,
      "codegen": 4737,
      "_cast": 4738,
      "ijklmnjklijkklmjkl": 4739,
      "tils": 4740,
      "cause": 4741,
      "target_": 4742,
      "eoln": 4743,
      "xuli": 4744,
      "dot_product": 4745,
      "\"#\")": 4746,
      "SQRT": 4747,
      "Character": 4748,
      "ghijklhijhijijkijkijkjkljklhijklmijkhijjklijkijkjkljkljklklmklmijklmnjklijkklmjkl": 4749,
      "'*": 4750,
      "-*": 4751,
      "310": 4752,
      "390": 4753,
      "512": 4754,
      "It": 4755,
      "Sw": 4756,
      "TI": 4757,
      "WT": 4758,
      "``": 4759,
      "bishop": 4760,
      "jmm": 4761,
      "kel": 4762,
      "o91": 4763,
      "omm": 4764,
      "alu": 4765,
      "tation": 4766,
      "ched": 4767,
      "colo": 4768,
      "328": 4769,
      "162": 4770,
      "189": 4771,
      "new0": 4772,
      "new2": 4773,
      "board_": 4774,
      "mmm": 4775,
      "ENTIAL": 4776,
      "9084": 4777,
      "DOUBLE": 4778,
      "s_kind": 4779,
      "prob4": 4780,
      "must": 4781,
      "scr": 4782,
      "1_nk": 4783,
      "to_vm_bytes": 4784,
      "POWER": 4785,
      "DFS": 4786,
      "cnt_": 4787,
      "condition": 4788,
      "appendi": 4789,
      "int32_to_vm_bytes": 4790,
      "wards": 4791,
      "compiler": 4792,
      "cross": 4793,
      "SEQUENTIAL": 4794,
      "Else": 4795,
      "\"))": 4796,
      "())": 4797,
      ")'": 4798,
      "0D0": 4799,
      "401": 4800,
      "467": 4801,
      "503": 4802,
      "535": 4803,
      "B1": 4804,
      "Col": 4805,
      "FI": 4806,
      "HE": 4807,
      "Ha": 4808,
      "IZE": 4809,
      "MD": 4810,
      "SA": 4811,
      "^^": 4812,
      "_time": 4813,
      "e1": 4814,
      "full": 4815,
      "mar": 4816,
      "mlm": 4817,
      "nxt": 4818,
      "olm": 4819,
      "t91": 4820,
      "ulm": 4821,
      "w93": 4822,
      "leep": 4823,
      "dequeue": 4824,
      "t_element": 4825,
      "t_queue": 4826,
      "len_needed": 4827,
      "like": 4828,
      "maxa": 4829,
      "CEDDDD": 4830,
      "6666": 4831,
      "251": 4832,
      "newwg": 4833,
      "3589": 4834,
      "getchar": 4835,
      "get_val": 4836,
      "get_at": 4837,
      "is_empty": 4838,
      "1_2": 4839,
      "calc_": 4840,
      "content": 4841,
      "IMPOS": 4842,
      "_ahead": 4843,
      "efghijfgh": 4844,
      "CONTENT": 4845,
      "SHORT": 4846,
      "sequence_sum": 4847,
      "ensure": 4848,
      "parse_": 4849,
      "finalizee": 4850,
      "random_seed_clock": 4851,
      "handle": 4852,
      "haps": 4853,
      "well": 4854,
      "(:,:)::": 4855,
      "hijklmijkghijklhijhijijkijkijkjkljklijkklmjklhijklmijkijkjkljkl": 4856,
      "modulo_utils": 4857,
      "IZATION": 4858,
      "While": 4859,
      "edited": 4860,
      "newwg0": 4861,
      "IMPOSSIBLE": 4862,
      "0ns": 4863,
      "0sn": 4864,
      "372": 4865,
      "410": 4866,
      "577": 4867,
      "523": 4868,
      "500000": 4869,
      "CAN": 4870,
      "Day": 4871,
      "Fact": 4872,
      "L_": 4873,
      "Pol": 4874,
      "Ran": 4875,
      "UST": 4876,
      "a91": 4877,
      "agc": 4878,
      "imm": 4879,
      "sert": 4880,
      "tor": 4881,
      "ual": 4882,
      "three_": 4883,
      "alle": 4884,
      "int_heap_down": 4885,
      "rary": 4886,
      "writeLn": 4887,
      "DDDF": 4888,
      "could": 4889,
      "t_segment_tree": 4890,
      "(:)=": 4891,
      "maxx": 4892,
      "maxloc": 4893,
      "summ": 4894,
      "056": 4895,
      "047": 4896,
      "new1": 4897,
      "CDDDCJ": 4898,
      "ANIZATION": 4899,
      "real_heap_down": 4900,
      "Insert": 4901,
      "SPACES": 4902,
      "UMN": 4903,
      "1_mask": 4904,
      "ossible": 4905,
      "That": 4906,
      "_area": 4907,
      "Procedure": 4908,
      "-----------------------------------------------------------------------": 4909,
      "RECORD": 4910,
      "CGDCJ": 4911,
      "UFty": 4912,
      "BOARD": 4913,
      "COLUMN": 4914,
      "guration": 4915,
      "RBT_KEY": 4916,
      "remainder": 4917,
      "attack_": 4918,
      "1e9": 4919,
      "https": 4920,
      "CLASS": 4921,
      "ORGANIZATION": 4922,
      "entroids": 4923,
      "-*-": 4924,
      "'#')": 4925,
      "188": 4926,
      "493": 4927,
      "435": 4928,
      "592": 4929,
      "50000": 4930,
      "534": 4931,
      "690": 4932,
      "Asum": 4933,
      "D1": 4934,
      "FR": 4935,
      "Mul": 4936,
      "OLD": 4937,
      "TF": 4938,
      "War": 4939,
      "[-": 4940,
      "at_": 4941,
      "east": 4942,
      "k93": 4943,
      "nal": 4944,
      "v2": 4945,
      "}{$": 4946,
      "*,(": 4947,
      "deck": 4948,
      "lay": 4949,
      "t_ast_node": 4950,
      "TOP": 4951,
      "tmp1": 4952,
      "126": 4953,
      "12345": 4954,
      "atan": 4955,
      "89d": 4956,
      "177": 4957,
      "058": 4958,
      "boun": 4959,
      "DDDDDJ": 4960,
      "nowt": 4961,
      "d_list": 4962,
      "Invalid": 4963,
      "lines": 4964,
      "mod_modint": 4965,
      "DCDCCJ": 4966,
      "difference": 4967,
      "dictionary": 4968,
      "WriteLn": 4969,
      "CSV": 4970,
      "Compilation": 4971,
      "interpret_ast_node": 4972,
      "fghijkghighihijhijhijijkijkijkjkljklghijklhijhijijkijkijkjkljkljklklmklm": 4973,
      "Enter": 4974,
      "Check": 4975,
      "*/": 4976,
      "491": 4977,
      "415": 4978,
      ":\"": 4979,
      "</": 4980,
      "DGE": 4981,
      "I4": 4982,
      "Mb": 4983,
      "My": 4984,
      "NA": 4985,
      "UL": 4986,
      "n0": 4987,
      "nint": 4988,
      "p93": 4989,
      "q2": 4990,
      "u93": 4991,
      "ving_": 4992,
      "war": 4993,
      "x0": 4994,
      "thod": 4995,
      "dot": 4996,
      "itch": 4997,
      "modmatmul": 4998,
      "defgh": 4999,
      "dir": 5000,
      "t_heap": 5001,
      "limy": 5002,
      "DEC": 5003,
      "fai": 5004,
      "heap1": 5005,
      "CDDE": 5006,
      "were": 5007,
      "space_sa": 5008,
      "nxn": 5009,
      "limx": 5010,
      ",\"=": 5011,
      "finger": 5012,
      "CONF": 5013,
      "_sol": 5014,
      "k_dist": 5015,
      "ijklmnjkljklklmklmjkllmnklm": 5016,
      "constant": 5017,
      "CCDCDJ": 5018,
      "float": 5019,
      "hash_code": 5020,
      "2_1": 5021,
      "columns": 5022,
      "ghijklhijhijijkijkijkjkljklhijklmijkhijjklijkijkjkljklijkklm": 5023,
      "Impossible": 5024,
      "CDEDJ": 5025,
      "SHOW": 5026,
      "Perhaps": 5027,
      "mazemap": 5028,
      "14159265": 5029,
      "correct": 5030,
      "anagram": 5031,
      "t_skip_list_set": 5032,
      "debugg": 5033,
      "distribution": 5034,
      "speedrun": 5035,
      "s_kindnxn": 5036,
      "attack_check": 5037,
      "ving_array": 5038,
      "space_saving_array": 5039,
      "ghijklhijhijijkijkijkjkljklhijklmijkhijjklijkijkjkljklijkklmjklijkklm": 5040,
      "313": 5041,
      "319": 5042,
      "585": 5043,
      "688": 5044,
      "Can": 5045,
      "Close": 5046,
      "DH": 5047,
      "EDDDD": 5048,
      "FIND": 5049,
      "I3": 5050,
      "LGT": 5051,
      "Other": 5052,
      "Rain": 5053,
      "[[": 5054,
      "_d": 5055,
      "_i": 5056,
      "_length": 5057,
      "_name": 5058,
      "_SIZE": 5059,
      "kmm": 5060,
      "land": 5061,
      "our": 5062,
      "pmm": 5063,
      "ren": 5064,
      "s9": 5065,
      "ule": 5066,
      "ugo": 5067,
      "reposit": 5068,
      "002": 5069,
      "itu": 5070,
      "***": 5071,
      "ones": 5072,
      "sieve": 5073,
      "938": 5074,
      "ces": 5075,
      "1001": 5076,
      "127": 5077,
      "89f": 5078,
      "REF": 5079,
      "moun": 5080,
      "447": 5081,
      "counting": 5082,
      "743": 5083,
      "656": 5084,
      "otal": 5085,
      "Now": 5086,
      "ABC14": 5087,
      "ILL": 5088,
      "iteration": 5089,
      "verage": 5090,
      "trans": 5091,
      "system": 5092,
      "2016": 5093,
      "population": 5094,
      "ibset": 5095,
      "dice": 5096,
      "command": 5097,
      "generate": 5098,
      "size_of_list": 5099,
      "KEYBOARD": 5100,
      "CALC": 5101,
      "config": 5102,
      "clrscr": 5103,
      "brack": 5104,
      "SQUARE": 5105,
      "Division": 5106,
      "polygon": 5107,
      "defdefefgef": 5108,
      "INITIAL": 5109,
      "Calc": 5110,
      "literal": 5111,
      "defghdefdefefgef": 5112,
      "repository": 5113,
      "(*": 5114,
      "-,": 5115,
      "/\\\\\\": 5116,
      "413": 5117,
      "427": 5118,
      "533": 5119,
      "536": 5120,
      "Bo": 5121,
      "C1": 5122,
      "Code": 5123,
      "R2": 5124,
      "T1": 5125,
      "_error": 5126,
      "dlm": 5127,
      "e92": 5128,
      "eat": 5129,
      "flm": 5130,
      "glm": 5131,
      "ian": 5132,
      "i92": 5133,
      "jlm": 5134,
      "mma": 5135,
      "mber": 5136,
      "nlm": 5137,
      "plm": 5138,
      "rlm": 5139,
      "simple": 5140,
      "tlm": 5141,
      "vlm": 5142,
      "water": 5143,
      "ries": 5144,
      "oring": 5145,
      "ic_": 5146,
      "unget_": 5147,
      "licen": 5148,
      "827": 5149,
      "decessor": 5150,
      "877": 5151,
      "133": 5152,
      "777": 5153,
      "740": 5154,
      "951": 5155,
      "newh": 5156,
      "bitset": 5157,
      "predecessor": 5158,
      "pos2": 5159,
      "PTR": 5160,
      "4567": 5161,
      "usedg": 5162,
      "useds": 5163,
      "test_": 5164,
      "flatten": 5165,
      "get_command_argument": 5166,
      "DGCCJ": 5167,
      "home": 5168,
      "init_list": 5169,
      "ZZZ9": 5170,
      "hijhijhijijkijkghijklhij": 5171,
      "flg_": 5172,
      "CONSO": 5173,
      "pop_front": 5174,
      "val_coordinate": 5175,
      "push_front": 5176,
      "_B_": 5177,
      "world": 5178,
      "new_modint": 5179,
      "comment": 5180,
      "IGURA": 5181,
      "2_2": 5182,
      "multiplication": 5183,
      "make_": 5184,
      "comma": 5185,
      "INDEEP": 5186,
      "reporter": 5187,
      "single": 5188,
      "successor": 5189,
      "configuration": 5190,
      "default_load_factor": 5191,
      "default_initial_capacity": 5192,
      "ratch": 5193,
      "Display": 5194,
      "lexer_token": 5195,
      "efghijfghfghghighighihijhijfghijkghifghhijghighihijhijhijijkijkghijklhij": 5196,
      "'*'": 5197,
      "CONFIGURA": 5198,
      "_solution": 5199,
      "ILLION": 5200,
      "CONSOLE": 5201,
      "reporterror": 5202,
      "efghijfghfghghighighihijhijfghijkghifghhijghighihijhijhijijkijkghijklhijghiijkhij": 5203,
      "CONFIGURATION": 5204,
      "391": 5205,
      "465": 5206,
      "404": 5207,
      "434": 5208,
      "433": 5209,
      "586": 5210,
      "532": 5211,
      "573": 5212,
      "699": 5213,
      ":\",": 5214,
      "BD": 5215,
      "BRA": 5216,
      "FREE": 5217,
      "Move": 5218,
      "Next": 5219,
      "PRE": 5220,
      "SAM": 5221,
      "XY": 5222,
      "]))": 5223,
      "]])": 5224,
      "_at": 5225,
      "_idx": 5226,
      "_NUM": 5227,
      "action": 5228,
      "ball": 5229,
      "cut": 5230,
      "crc": 5231,
      "ibits": 5232,
      "l93": 5233,
      "mval": 5234,
      "omp": 5235,
      "uke": 5236,
      "udy": 5237,
      "xlm": 5238,
      "yen": 5239,
      "info": 5240,
      "rain": 5241,
      "reading": 5242,
      "proper": 5243,
      "ginal": 5244,
      "017": 5245,
      "cou": 5246,
      "TORY": 5247,
      "ERENCE": 5248,
      "DIDATE": 5249,
      "DCS": 5250,
      "1234": 5251,
      "89c": 5252,
      "minus": 5253,
      "shuff": 5254,
      "inclu": 5255,
      "ild": 5256,
      "ABC123": 5257,
      "database": 5258,
      "might": 5259,
      "mbase": 5260,
      "would": 5261,
      "ctory": 5262,
      "POSI": 5263,
      "Second": 5264,
      "hijklmijkijkjkljkljklklmklmijklmnjklijkklmjkljklklmklmjkllmn": 5265,
      "ject": 5266,
      "klmjkllmnklmjkllmnklm": 5267,
      "Module": 5268,
      "_table_t": 5269,
      "FripLeft": 5270,
      "FripRight": 5271,
      "PushBlack": 5272,
      "AFTER": 5273,
      "linked_list": 5274,
      "CANDIDATE": 5275,
      "hijklmijkijkjkljkljklklmklmijklmnjklijkklmjkljklklmklmjkllmnklmjkllmnklmjkllmnklm": 5276,
      "2in": 5277,
      "2ni": 5278,
      "485": 5279,
      "487": 5280,
      "420": 5281,
      "497": 5282,
      "595": 5283,
      "618": 5284,
      "ARED": 5285,
      "E_": 5286,
      "EDE": 5287,
      "Gen": 5288,
      "GAP": 5289,
      "I8": 5290,
      "IVAL": 5291,
      "LU": 5292,
      "Me": 5293,
      "NP": 5294,
      "PI": 5295,
      "SAY": 5296,
      "Utils": 5297,
      "Wi": 5298,
      "dmm": 5299,
      "iu": 5300,
      "n93": 5301,
      "wri": 5302,
      "reg": 5303,
      "dog": 5304,
      "standard": 5305,
      "9273": 5306,
      "unsafe": 5307,
      "INtest": 5308,
      "six": 5309,
      "930": 5310,
      "ISINtest": 5311,
      "REPOSI": 5312,
      "440": 5313,
      "222": 5314,
      "ason": 5315,
      "3333": 5316,
      "parti": 5317,
      "who": 5318,
      "There": 5319,
      "stores": 5320,
      "ibclr": 5321,
      "assign1": 5322,
      "jklmnoklm": 5323,
      "positive": 5324,
      "################################": 5325,
      "exists": 5326,
      "special": 5327,
      "numeric": 5328,
      "title": 5329,
      "PRECISION": 5330,
      "ceiling_key": 5331,
      "get_keys_": 5332,
      "Quick": 5333,
      "Sunny": 5334,
      "colour": 5335,
      "REPOSITORY": 5336,
      "-'": 5337,
      "403": 5338,
      "437": 5339,
      "599": 5340,
      "566": 5341,
      "Cop": 5342,
      "Cho": 5343,
      "FIR": 5344,
      "HO": 5345,
      "JK": 5346,
      "MER": 5347,
      "St": 5348,
      "_the": 5349,
      "_message": 5350,
      "drea": 5351,
      "far": 5352,
      "fmm": 5353,
      "gro": 5354,
      "i5": 5355,
      "osi": 5356,
      "ping": 5357,
      "s93": 5358,
      "smm": 5359,
      "strip": 5360,
      "read_": 5361,
      "ready": 5362,
      "ici": 5363,
      "912": 5364,
      "dev": 5365,
      "642": 5366,
      "len_string": 5367,
      "here_": 5368,
      "173": 5369,
      "SES": 5370,
      "keyence": 5371,
      "abcd": 5372,
      "COBOL": 5373,
      "757": 5374,
      "ABS": 5375,
      "price": 5376,
      "DDDDS": 5377,
      "CCS": 5378,
      "imal": 5379,
      "479": 5380,
      "DCDDCJ": 5381,
      "DCDDDCJ": 5382,
      "blank": 5383,
      "num_operations": 5384,
      "operators": 5385,
      "_sort_": 5386,
      "heapsort2": 5387,
      "new_storage": 5388,
      "bust": 5389,
      "delta": 5390,
      "location": 5391,
      "finalizei": 5392,
      "arison": 5393,
      "INDEXED": 5394,
      "http": 5395,
      "ijklmnjklhijklmijkijkjkljkljklklmklmjkllmnklmijklmnjkljklklmklm": 5396,
      "selected_": 5397,
      "))),(((": 5398,
      "syntax": 5399,
      "Random": 5400,
      "Otherwise": 5401,
      "FIRST": 5402,
      "new_storage_size": 5403,
      ",&": 5404,
      "/\"": 5405,
      "211": 5406,
      "405": 5407,
      "463": 5408,
      "BA": 5409,
      "CY": 5410,
      "Clo": 5411,
      "EDDDC": 5412,
      "FA": 5413,
      "L0": 5414,
      "RENT": 5415,
      "Sh": 5416,
      "VW": 5417,
      "_16": 5418,
      "bal_": 5419,
      "create": 5420,
      "ets": 5421,
      "jcomb": 5422,
      "k1": 5423,
      "p0": 5424,
      "qmm": 5425,
      "sla": 5426,
      "square": 5427,
      "vin": 5428,
      "vow": 5429,
      "y0": 5430,
      "inge": 5431,
      "lng": 5432,
      "unction": 5433,
      "anss": 5434,
      "lmm": 5435,
      "822": 5436,
      "828": 5437,
      "degre": 5438,
      "109": 5439,
      "813": 5440,
      "laste": 5441,
      "functions": 5442,
      "ROW": 5443,
      "method": 5444,
      "89a": 5445,
      "89l": 5446,
      "176": 5447,
      "053": 5448,
      "550": 5449,
      "442": 5450,
      ")=.": 5451,
      "742": 5452,
      "257": 5453,
      "heapmax": 5454,
      "heapmin": 5455,
      "pointer_": 5456,
      "809": 5457,
      "uple": 5458,
      "dishe": 5459,
      "graphs": 5460,
      "cdf": 5461,
      "names": 5462,
      "tot1": 5463,
      "mod_union_find": 5464,
      "blue": 5465,
      "sccdf": 5466,
      "time_": 5467,
      "GCD": 5468,
      "feed": 5469,
      "POP": 5470,
      "assign2": 5471,
      "SortImp": 5472,
      "anything": 5473,
      "to_index_": 5474,
      "floore": 5475,
      "qsrt": 5476,
      "ceilinge": 5477,
      "DIGITS": 5478,
      "coordinate_": 5479,
      "struct": 5480,
      "CURRENT": 5481,
      "UPPER": 5482,
      "global_": 5483,
      "ghijklhijhijijkijkijkjkljkljklklmklmhijklmijkijkjkljkl": 5484,
      "attack": 5485,
      "dot_prod": 5486,
      "check_range": 5487,
      "following": 5488,
      "coeffs": 5489,
      "Just": 5490,
      "mod_tree_set": 5491,
      "extended": 5492,
      "decrease_level": 5493,
      "SMALL": 5494,
      "firste": 5495,
      "target_words": 5496,
      "Rainy": 5497,
      "REFERENCE": 5498,
      "Cloudy": 5499,
      "vowel": 5500,
      "degrees": 5501,
      "SortImpl": 5502,
      "global_variables": 5503,
      "'/": 5504,
      ")!": 5505,
      "1A": 5506,
      "1ln": 5507,
      "1nl": 5508,
      "432": 5509,
      "473": 5510,
      "582": 5511,
      "522": 5512,
      "788": 5513,
      "CLE": 5514,
      "Ite": 5515,
      "LST": 5516,
      "Mon": 5517,
      "NK": 5518,
      "OUS": 5519,
      "Qs": 5520,
      "We": 5521,
      "_qsort": 5522,
      "amm": 5523,
      "average": 5524,
      "bri": 5525,
      "blm": 5526,
      "bcount": 5527,
      "clm": 5528,
      "cdefghdefdefefgef": 5529,
      "dan": 5530,
      "fri": 5531,
      "g1": 5532,
      "gmp": 5533,
      "hlm": 5534,
      "ilm": 5535,
      "mic": 5536,
      "pen": 5537,
      "pad": 5538,
      "qlm": 5539,
      "r91": 5540,
      "wlm": 5541,
      "ylm": 5542,
      "alanced": 5543,
      "int_heap_sort": 5544,
      "rosetta": 5545,
      "008": 5546,
      "ices": 5547,
      "911": 5548,
      "996": 5549,
      "9944": 5550,
      "846": 5551,
      "833": 5552,
      "937": 5553,
      "(:))": 5554,
      "term": 5555,
      "medi": 5556,
      "896": 5557,
      "206": 5558,
      "summation": 5559,
      "136": 5560,
      "minimum": 5561,
      "...\"": 5562,
      "int64_qsort": 5563,
      "fail": 5564,
      "7483": 5565,
      "248": 5566,
      "THIS": 5567,
      "ACARD": 5568,
      "real_heap_sort": 5569,
      "paren": 5570,
      "nowf": 5571,
      "switch": 5572,
      "sole": 5573,
      "queen": 5574,
      "player": 5575,
      "_for_": 5576,
      "find_node": 5577,
      "prob5": 5578,
      "heading": 5579,
      "DFDD": 5580,
      ")>>": 5581,
      "ubnd": 5582,
      "------------------------------------------------": 5583,
      "COUNTER": 5584,
      "next_int": 5585,
      "local": 5586,
      ",:,": 5587,
      "int32_qsort": 5588,
      "alphabet": 5589,
      "UPON": 5590,
      "________________": 5591,
      "range_less": 5592,
      "easy": 5593,
      "S_N": 5594,
      "fifo": 5595,
      "Copy": 5596,
      "feed_char": 5597,
      ")]);": 5598,
      "454": 5599,
      "593": 5600,
      "619": 5601,
      "AULT": 5602,
      "BIT": 5603,
      "EDDDDDD": 5604,
      "Key": 5605,
      "M2": 5606,
      "MANY": 5607,
      "NH": 5608,
      "P0": 5609,
      "PY": 5610,
      "PLA": 5611,
      "SR": 5612,
      "Two": 5613,
      "Wh": 5614,
      "Wall": 5615,
      "_0": 5616,
      "_win": 5617,
      "bingo": 5618,
      "c93": 5619,
      "cmm": 5620,
      "cpu": 5621,
      "g2": 5622,
      "mis": 5623,
      "ndp": 5624,
      "wxyz": 5625,
      "x4": 5626,
      "reen": 5627,
      "redistribution": 5628,
      "reader": 5629,
      "itted": 5630,
      "unstring": 5631,
      "maken": 5632,
      "852": 5633,
      "coprime": 5634,
      "len_": 5635,
      "appro": 5636,
      "ROOT": 5637,
      "DCCJ": 5638,
      "inste": 5639,
      "they": 5640,
      "modul": 5641,
      "172": 5642,
      "CEG": 5643,
      "pas": 5644,
      "741": 5645,
      "quo": 5646,
      "CDDDD": 5647,
      "bols": 5648,
      "6787": 5649,
      "806": 5650,
      "value_t": 5651,
      "s_elem": 5652,
      "s_compr": 5653,
      "harshad": 5654,
      "ANSX": 5655,
      "ANSWER": 5656,
      "defines": 5657,
      "tot2": 5658,
      "ASS": 5659,
      "night": 5660,
      "val_range": 5661,
      "_sched": 5662,
      "_Con": 5663,
      "IGHT": 5664,
      "Assign": 5665,
      ":='';": 5666,
      "implement": 5667,
      "200005": 5668,
      "CDECJ": 5669,
      "exception": 5670,
      "directory": 5671,
      "signed": 5672,
      "select_": 5673,
      "Root": 5674,
      "caten": 5675,
      "question": 5676,
      "fghijkghiefghijfghfghghighighihijhijghiijkhijfghijkghighihijhij": 5677,
      "neighbo": 5678,
      "lazy_segtree": 5679,
      "ESTIVAL": 5680,
      "Identifier": 5681,
      "Multip": 5682,
      "failed": 5683,
      "ghijklhijhijijkijkijkjkljklhijklmijkhijjklijkijkjkljklijkklmjklijkklmjklijkklmjkl": 5684,
      "makenode": 5685,
      "_schedul": 5686,
      "'#'": 5687,
      "423": 5688,
      "424": 5689,
      "494": 5690,
      "517": 5691,
      "596": 5692,
      "8000": 5693,
      "BR": 5694,
      "Bl": 5695,
      "Bad": 5696,
      "Balanced": 5697,
      "CDF": 5698,
      "CDS": 5699,
      "Function": 5700,
      "Gi": 5701,
      "I_UNIT": 5702,
      "Loc": 5703,
      "NL": 5704,
      "PC": 5705,
      "Set": 5706,
      "TMP": 5707,
      "bmm": 5708,
      "cand": 5709,
      "dat": 5710,
      "dll": 5711,
      "emm": 5712,
      "ever": 5713,
      "free": 5714,
      "finv": 5715,
      "gmm": 5716,
      "lan": 5717,
      "orary": 5718,
      "rmm": 5719,
      "tmm": 5720,
      "uth": 5721,
      "vmm": 5722,
      "y3": 5723,
      "enc": 5724,
      "redefines": 5725,
      "err": 5726,
      "rows": 5727,
      "orde": 5728,
      "leap": 5729,
      "lect": 5730,
      "ars": 5731,
      "917": 5732,
      "such": 5733,
      "tom": 5734,
      "993": 5735,
      "842": 5736,
      "(',": 5737,
      "837": 5738,
      "9363": 5739,
      "646": 5740,
      "t_linked_list": 5741,
      "convert": 5742,
      "5555": 5743,
      "669": 5744,
      "952": 5745,
      "048": 5746,
      "672": 5747,
      "802": 5748,
      "807": 5749,
      "pqrst": 5750,
      "first_key": 5751,
      "LESS": 5752,
      "rypt": 5753,
      "nullify": 5754,
      "abcdefghi": 5755,
      "mod_weighted_graph": 5756,
      "LOCAL": 5757,
      "num_point": 5758,
      "num_moun": 5759,
      "vide": 5760,
      "Three": 5761,
      "arg_count": 5762,
      "EJCDD": 5763,
      "symbols": 5764,
      "differ": 5765,
      "kazu": 5766,
      "AMR": 5767,
      "required_": 5768,
      "rik_cast": 5769,
      "DDDEJ": 5770,
      "2_16": 5771,
      "Int64": 5772,
      "_ptr": 5773,
      "_plus": 5774,
      "combo": 5775,
      "uvwxyz": 5776,
      "toobig": 5777,
      "toosmall": 5778,
      "set_default": 5779,
      "comefrom": 5780,
      "list_gcd_": 5781,
      "ERROR": 5782,
      "insert_or_": 5783,
      "sistants": 5784,
      "duplic": 5785,
      "separator": 5786,
      "alu_": 5787,
      "141592653589": 5788,
      "dreamer": 5789,
      "CYCLE": 5790,
      "instead": 5791,
      "I_UNITS": 5792,
      "pqrstuvwxyz": 5793,
      "&!": 5794,
      "'+'": 5795,
      "+=": 5796,
      "./": 5797,
      "416": 5798,
      "412": 5799,
      "422": 5800,
      "430": 5801,
      "537": 5802,
      "Ac": 5803,
      "FB": 5804,
      "NU": 5805,
      "SD": 5806,
      "f8": 5807,
      "nap": 5808,
      "nmax": 5809,
      "pat": 5810,
      "plus": 5811,
      "rsx": 5812,
      "satis": 5813,
      "wal": 5814,
      "x93": 5815,
      "xmm": 5816,
      "yok": 5817,
      "yet": 5818,
      "invalid": 5819,
      "align": 5820,
      "003": 5821,
      "009": 5822,
      "stract": 5823,
      "args": 5824,
      "922": 5825,
      "926": 5826,
      "INDATA": 5827,
      "841": 5828,
      "peop": 5829,
      "821": 5830,
      "lative": 5831,
      "prbl": 5832,
      "of_": 5833,
      "158": 5834,
      "indent": 5835,
      "SEAR": 5836,
      "052": 5837,
      "shif": 5838,
      "196": 5839,
      "2400": 5840,
      "652": 5841,
      "9577": 5842,
      "newug": 5843,
      "943": 5844,
      "set0": 5845,
      "person": 5846,
      "ionFind": 5847,
      "ENTS": 5848,
      "808": 5849,
      "predic": 5850,
      "temporary": 5851,
      "DDDDCJ": 5852,
      "vm_t": 5853,
      ")\",(": 5854,
      "hape": 5855,
      "matpow": 5856,
      "ADDENTRY": 5857,
      "hour": 5858,
      "URCE": 5859,
      "without": 5860,
      "DDDCCJ": 5861,
      "_bin": 5862,
      "oose": 5863,
      "_A_": 5864,
      "fect": 5865,
      "jklmnopqrstuvwxyz": 5866,
      "efgghifgh": 5867,
      "angles": 5868,
      "backsla": 5869,
      "inpt_": 5870,
      "REAL64": 5871,
      "bfdfs": 5872,
      "MMYY": 5873,
      "2_INT32": 5874,
      "balanced": 5875,
      "vm_code": 5876,
      "hrn": 5877,
      "BEST": 5878,
      "UnionFind": 5879,
      "ization": 5880,
      "even_": 5881,
      "nump": 5882,
      "visited": 5883,
      "Positive": 5884,
      "SOURCE": 5885,
      "stamp": 5886,
      "exceed": 5887,
      "_contest": 5888,
      "YYMM": 5889,
      "EDCCJ": 5890,
      "allowed": 5891,
      "SQUARED": 5892,
      "FLOAT": 5893,
      "choice": 5894,
      "access_": 5895,
      "double_merge_sort": 5896,
      "ijklmnjkljklklmklmklmlmnlmnklmmnolmnjklmnoklmklmlmnlmn": 5897,
      "cpu_time": 5898,
      "_scheduling": 5899,
      "abcdefghijklmnopqrstuvwxyz": 5900,
      "people": 5901,
      "SEARCH": 5902,
      "newug0": 5903,
      "backslash": 5904,
      "'//": 5905,
      "/),": 5906,
      "591": 5907,
      "587": 5908,
      "519": 5909,
      "525": 5910,
      "563": 5911,
      "ADJ": 5912,
      "DEN": 5913,
      "EVE": 5914,
      "EOF": 5915,
      "FDJ": 5916,
      "FNAME": 5917,
      "GH": 5918,
      "HOR": 5919,
      "IA": 5920,
      "IED": 5921,
      "]]=": 5922,
      "d93": 5923,
      "dai": 5924,
      "hone": 5925,
      "hex": 5926,
      "ton": 5927,
      "tic": 5928,
      "tes": 5929,
      "replace": 5930,
      "thir": 5931,
      "alice": 5932,
      "rab": 5933,
      "ors": 5934,
      "odd_": 5935,
      "isPrime": 5936,
      "918": 5937,
      "entries": 5938,
      "ell": 5939,
      "ansa": 5940,
      "choose": 5941,
      "836": 5942,
      "ONENTS": 5943,
      "1020": 5944,
      "dig": 5945,
      "val2": 5946,
      "889": 5947,
      "ROUN": 5948,
      "ISH": 5949,
      "033": 5950,
      "VED": 5951,
      "1900": 5952,
      "231": 5953,
      "quent": 5954,
      "heapsort_": 5955,
      "041": 5956,
      "newm": 5957,
      "bove": 5958,
      "COMPONENTS": 5959,
      "306": 5960,
      "979": 5961,
      "907": 5962,
      "roman": 5963,
      "acc": 5964,
      "768": 5965,
      "input_": 5966,
      "709": 5967,
      "line_no": 5968,
      "get_token": 5969,
      "pow2": 5970,
      "_set_": 5971,
      "2001": 5972,
      "2008": 5973,
      "error_message": 5974,
      "LIMIT": 5975,
      "i_left": 5976,
      "generator": 5977,
      "POINTER": 5978,
      "texts": 5979,
      "nonterminal": 5980,
      "longs": 5981,
      "Produ": 5982,
      "ubble": 5983,
      "matches": 5984,
      "Double": 5985,
      "module_RedBlackTree": 5986,
      "APPRO": 5987,
      "divisors": 5988,
      "column_no": 5989,
      "':('": 5990,
      "letter": 5991,
      "ADVANCE": 5992,
      "largest": 5993,
      "compiler_": 5994,
      "Stack": 5995,
      "bottom": 5996,
      "known": 5997,
      "bitonic_sort": 5998,
      "Finger": 5999,
      "trouble": 6000,
      "USTL": 6001,
      "flg_swp": 6002,
      "XYZ": 6003,
      "Gener": 6004,
      "With": 6005,
      "dishes": 6006,
      "ESTIVAL2016": 6007,
      "ADJUSTL": 6008,
      "DENIED": 6009,
      "389": 6010,
      "=\",": 6011,
      "ACTION": 6012,
      "Ans": 6013,
      "Adv": 6014,
      "Bu": 6015,
      "C2": 6016,
      "CRO": 6017,
      "Dist": 6018,
      "KBD": 6019,
      "Last": 6020,
      "Par": 6021,
      "SL": 6022,
      "Show": 6023,
      "TC": 6024,
      "Test": 6025,
      "_product": 6026,
      "amax": 6027,
      "avo": 6028,
      "bro": 6029,
      "e91": 6030,
      "gol": 6031,
      "habove": 6032,
      "i32": 6033,
      "kin": 6034,
      "king_": 6035,
      "llim": 6036,
      "ndiv": 6037,
      "rlim": 6038,
      "xel": 6039,
      "zlm": 6040,
      "inside": 6041,
      "end_index": 6042,
      "ifrac": 6043,
      "int16": 6044,
      "0010": 6045,
      "),.": 6046,
      "927": 6047,
      "unded": 6048,
      "sure": 6049,
      "mach": 6050,
      "ansb": 6051,
      "===": 6052,
      "tape": 6053,
      "tabove": 6054,
      "forall": 6055,
      "860": 6056,
      "desi": 6057,
      "cob": 6058,
      "coin": 6059,
      "type_kind": 6060,
      "')'": 6061,
      "did": 6062,
      "opti": 6063,
      "ORDER": 6064,
      "148": 6065,
      "207": 6066,
      "fiv": 6067,
      "interse": 6068,
      "SEED": 6069,
      "0550": 6070,
      ")')'": 6071,
      "662": 6072,
      "moji": 6073,
      "DESC": 6074,
      "COMM": 6075,
      "748": 6076,
      "272": 6077,
      "6704": 6078,
      "reals": 6079,
      "GEDJ": 6080,
      "ITY": 6081,
      "DOW": 6082,
      "7213": 6083,
      "element_list": 6084,
      "s_len": 6085,
      "line_": 6086,
      "get1": 6087,
      "get_input_unit": 6088,
      "prevlength": 6089,
      "mul0": 6090,
      "mod_t_list": 6091,
      "_circle": 6092,
      "i_right": 6093,
      "tree_map": 6094,
      "ieor": 6095,
      "expand_": 6096,
      "bbb": 6097,
      "DFJ": 6098,
      "_unit_no": 6099,
      "clear0": 6100,
      "0_16": 6101,
      "SHUFF": 6102,
      "atcoder_contest": 6103,
      "omitted": 6104,
      "Format": 6105,
      "start_index": 6106,
      "formatted": 6107,
      "N_compr": 6108,
      "module_deque": 6109,
      "200001": 6110,
      "deque_push_back": 6111,
      "deque_pop_back": 6112,
      "deque_pop_front": 6113,
      "deque_push_front": 6114,
      "operation": 6115,
      "success": 6116,
      "look_up": 6117,
      "Insert_Node": 6118,
      "sigma": 6119,
      "jklmnoklmklmlmnlmnlmnmnomnoklmnop": 6120,
      "factorial": 6121,
      "rotate_cw": 6122,
      "rotate_ccw": 6123,
      "defghiefgefgfghfghfghghighighihijhijefghijfghfghghighighihijhijhijijkijk": 6124,
      "lmnklmmnolmnlmnmnomno": 6125,
      "Swap": 6126,
      "ratchpad": 6127,
      "exceeds": 6128,
      "APPROVED": 6129,
      "compiler_type_kind": 6130,
      "Advance": 6131,
      "get_input_unit_char": 6132,
      "expand_to": 6133,
      "SHUFFLE": 6134,
      "atcoder_contest_scheduling": 6135,
      "jklmnoklmklmlmnlmnlmnmnomnoklmnoplmnklmmnolmnlmnmnomno": 6136,
      "compiler_type_kinds": 6137,
      "\"('": 6138,
      "'+": 6139,
      "464": 6140,
      "425": 6141,
      "760": 6142,
      "AV": 6143,
      "AX": 6144,
      "DM": 6145,
      "EM": 6146,
      "Free": 6147,
      "Greater": 6148,
      "HINT": 6149,
      "LM": 6150,
      "T2": 6151,
      "Try": 6152,
      "TABLE": 6153,
      "WF": 6154,
      "_merge": 6155,
      "_graph": 6156,
      "a5": 6157,
      "ben": 6158,
      "fum": 6159,
      "hum": 6160,
      "hmm": 6161,
      "lar": 6162,
      "lis": 6163,
      "o2": 6164,
      "shi": 6165,
      "simp": 6166,
      "scnt": 6167,
      "wmm": 6168,
      "ymm": 6169,
      "endar": 6170,
      "endprogram": 6171,
      "relative": 6172,
      "alfa": 6173,
      "rather": 6174,
      "all_": 6175,
      "91d": 6176,
      "823": 6177,
      "8205": 6178,
      "9330": 6179,
      "818": 6180,
      "8150": 6181,
      "pole": 6182,
      "------": 6183,
      "klmmno": 6184,
      "89m": 6185,
      "TIONAL": 6186,
      "141": 6187,
      "202": 6188,
      "131": 6189,
      "139": 6190,
      ")=(": 6191,
      "DEDCDD": 6192,
      "CODEF": 6193,
      "736": 6194,
      "249": 6195,
      "CDDCDJ": 6196,
      "setlength": 6197,
      "aser": 6198,
      "351": 6199,
      ")-(": 6200,
      "sack": 6201,
      "302": 6202,
      "972": 6203,
      "3383": 6204,
      "parts": 6205,
      "nowidx": 6206,
      "//\"": 6207,
      "last_key": 6208,
      "comparison": 6209,
      "flgs": 6210,
      "ichar_kind": 6211,
      "2017": 6212,
      "msg": 6213,
      "SIDE": 6214,
      "CONST": 6215,
      "jklmnoklmjkllmnklm": 6216,
      "klmlmnlmnjklmnoklmjkllmnklm": 6217,
      "FORMATTED": 6218,
      "lmnklmmnolmn": 6219,
      "fully": 6220,
      "ZZZZZZZZ": 6221,
      "search_out": 6222,
      "hijklmijkijkjkljkljklklmklmijklmnjklijkklmjkljklklmklmklmlmnlmnjklmnoklmjkllmnklm": 6223,
      "tlft": 6224,
      "c_int": 6225,
      "solutions": 6226,
      "rectangle": 6227,
      "METH": 6228,
      "AREA": 6229,
      "_table_t_": 6230,
      "'-'": 6231,
      "Digit": 6232,
      "INITIALIZE": 6233,
      "QuickSort": 6234,
      "icient": 6235,
      "LSTNB": 6236,
      "Local": 6237,
      "backslash_char": 6238,
      "CODEFESTIVAL2016": 6239,
      "'('": 6240,
      ".\")": 6241,
      "30000": 6242,
      "496": 6243,
      "BN": 6244,
      "DA": 6245,
      "FIN": 6246,
      "IW": 6247,
      "IJK": 6248,
      "K2": 6249,
      "Ne": 6250,
      "NMAX": 6251,
      "Pre": 6252,
      "Prt": 6253,
      "R1": 6254,
      "SUN": 6255,
      "You": 6256,
      "]];": 6257,
      "_be": 6258,
      "_mul": 6259,
      "_numbers": 6260,
      "b3": 6261,
      "bar": 6262,
      "bum": 6263,
      "clo": 6264,
      "center": 6265,
      "fall": 6266,
      "i4": 6267,
      "nine": 6268,
      "qfirst": 6269,
      "r3": 6270,
      "rdp": 6271,
      "snd": 6272,
      "tent": 6273,
      "uum": 6274,
      "w1": 6275,
      "xul": 6276,
      "inst": 6277,
      "represent": 6278,
      "dol": 6279,
      "already": 6280,
      "int8": 6281,
      "rad": 6282,
      "005": 6283,
      "sty": 6284,
      "sedol": 6285,
      "adj": 6286,
      "923": 6287,
      "928": 6288,
      "919": 6289,
      "beta": 6290,
      "modmatpow": 6291,
      "018": 6292,
      "8220": 6293,
      "simul": 6294,
      "labe": 6295,
      "lier": 6296,
      "lian": 6297,
      "maxnum": 6298,
      "lowest": 6299,
      "conson": 6300,
      "ISE": 6301,
      "sumb": 6302,
      "ular": 6303,
      "779": 6304,
      "059": 6305,
      "cnt2": 6306,
      "039": 6307,
      "key_length": 6308,
      "ability": 6309,
      "661": 6310,
      "word_": 6311,
      "198": 6312,
      "COS": 6313,
      "747": 6314,
      "749": 6315,
      "243": 6316,
      "653": 6317,
      "658": 6318,
      "659": 6319,
      "1199": 6320,
      "newn0": 6321,
      "947": 6322,
      "user": 6323,
      "string1": 6324,
      "strings_": 6325,
      "asse": 6326,
      "assu": 6327,
      "COMPUT": 6328,
      "678": 6329,
      "978": 6330,
      "pred": 6331,
      "merge_sort_": 6332,
      "extrac": 6333,
      "gettoken": 6334,
      "468": 6335,
      "abc163": 6336,
      "============": 6337,
      "ASC": 6338,
      "SIEVE": 6339,
      "fill_": 6340,
      "_simple": 6341,
      "POK": 6342,
      "Comb": 6343,
      "______": 6344,
      "Proc": 6345,
      "Sequence": 6346,
      "ISTASH": 6347,
      "DDDEDD": 6348,
      "reflect": 6349,
      "non_whitespace": 6350,
      "release_list": 6351,
      "lower_key": 6352,
      "Head": 6353,
      "uct_": 6354,
      "Less": 6355,
      "structor": 6356,
      "jklmnoklmklmlmnlmnklmmnolmn": 6357,
      "floor_key": 6358,
      ">>(": 6359,
      "init_graph": 6360,
      "CDGE": 6361,
      "Example": 6362,
      "QRST": 6363,
      "skip_non_whitespace": 6364,
      "specified": 6365,
      "range_freq": 6366,
      "dummy": 6367,
      "higher_key": 6368,
      "army1": 6369,
      "army2": 6370,
      "menu": 6371,
      "TOTAL": 6372,
      "defghiefgefgfghfghfghghighifghhijghiefghijfghfghghighighihijhijghiijkhij": 6373,
      "SYMBOL": 6374,
      "_NUMS": 6375,
      "here_address": 6376,
      "VWXYZ": 6377,
      "POPCOUNT": 6378,
      "implementation": 6379,
      "Blue": 6380,
      "pattern": 6381,
      "GHIJK": 6382,
      "larger": 6383,
      "consonant": 6384,
      "merge_sort_mod": 6385,
      "1d0": 6386,
      "460": 6387,
      "436": 6388,
      "400000": 6389,
      "562": 6390,
      "Al": 6391,
      "Dic": 6392,
      "Dec": 6393,
      "GK": 6394,
      "H2": 6395,
      "NC": 6396,
      "NX": 6397,
      "PQRST": 6398,
      "RINS": 6399,
      "Sys": 6400,
      "Sort_": 6401,
      "TRAN": 6402,
      "UOUS": 6403,
      "UVWXYZ": 6404,
      "_alloc": 6405,
      "_stack": 6406,
      "_with": 6407,
      "_TRIM": 6408,
      "cri": 6409,
      "dream": 6410,
      "f2008": 6411,
      "hol": 6412,
      "i91": 6413,
      "march": 6414,
      "oum": 6415,
      "o93": 6416,
      "ster": 6417,
      "squ": 6418,
      "udo": 6419,
      "want": 6420,
      "zrt": 6421,
      "interest": 6422,
      "sequent": 6423,
      "isspace": 6424,
      "unix": 6425,
      "timer": 6426,
      "013": 6427,
      "forth": 6428,
      "861": 6429,
      "88k": 6430,
      "post": 6431,
      "1600": 6432,
      "897": 6433,
      "89u": 6434,
      "their": 6435,
      "SEQ": 6436,
      "dpz": 6437,
      "034": 6438,
      "552": 6439,
      "553": 6440,
      "sha": 6441,
      "cedence": 6442,
      "448": 6443,
      "227": 6444,
      ")=-": 6445,
      "DEDE": 6446,
      "count2": 6447,
      "238": 6448,
      "7385": 6449,
      "638": 6450,
      "6385": 6451,
      "6336": 6452,
      "STUFF": 6453,
      "bob": 6454,
      "asci": 6455,
      "ABCDEF": 6456,
      "pers": 6457,
      "307": 6458,
      "prep": 6459,
      "606": 6460,
      "INTRINS": 6461,
      "**********************": 6462,
      "nack": 6463,
      "vm84": 6464,
      "vm85": 6465,
      "vm83": 6466,
      "vm64": 6467,
      "761": 6468,
      "762": 6469,
      "///": 6470,
      "729": 6471,
      "368": 6472,
      "LET": 6473,
      "LEMENT": 6474,
      "started": 6475,
      "------------------------": 6476,
      "gi85": 6477,
      "579": 6478,
      "output_": 6479,
      "indexed": 6480,
      "prob6": 6481,
      "_node_t": 6482,
      "_bishop": 6483,
      "vi84": 6484,
      "vi85": 6485,
      "LEN_TRIM": 6486,
      "jo85": 6487,
      "jo86": 6488,
      "_mask_": 6489,
      "ji86": 6490,
      "EJDDDD": 6491,
      "object": 6492,
      "ffdfs": 6493,
      "build": 6494,
      "hash_map": 6495,
      "Assistants": 6496,
      "Unicode": 6497,
      "COLOR": 6498,
      "something": 6499,
      "avl_node_t": 6500,
      "rh1": 6501,
      "rh2": 6502,
      "DAYNUM": 6503,
      "matmul2": 6504,
      "plan": 6505,
      "++++": 6506,
      "init_bit": 6507,
      "position_": 6508,
      "help": 6509,
      "strbuf_t_to_unicode": 6510,
      "leading_zeros": 6511,
      "Points": 6512,
      "bitonic_merge": 6513,
      "lexer_input": 6514,
      "fraction": 6515,
      "candidates": 6516,
      "1234567": 6517,
      "anagrams": 6518,
      "transfer": 6519,
      "system_clock": 6520,
      "group": 6521,
      "CROAK": 6522,
      "DESCENDING": 6523,
      "METHOD": 6524,
      "GHIJKLM": 6525,
      "Dictionary": 6526,
      "PQRSTUVWXYZ": 6527,
      "SysUtils": 6528,
      "Sort_Module": 6529,
      "ascii": 6530,
      "ABCDEFGHIJKLM": 6531,
      "INTRINSIC": 6532,
      "\"?": 6533,
      "#\")": 6534,
      "218": 6535,
      "Af": 6536,
      "BLA": 6537,
      "Del": 6538,
      "KIH": 6539,
      "Li": 6540,
      "Nil": 6541,
      "Pop": 6542,
      "Pull": 6543,
      "Ti": 6544,
      "_tmp": 6545,
      "_or_": 6546,
      "_newline": 6547,
      "atype": 6548,
      "ban": 6549,
      "ipos": 6550,
      "lca": 6551,
      "mum": 6552,
      "plot": 6553,
      "tus": 6554,
      "tbl": 6555,
      "ually": 6556,
      "xmax": 6557,
      "x11": 6558,
      "teen": 6559,
      "ends": 6560,
      "eraser": 6561,
      "do85": 6562,
      "do86": 6563,
      "alf": 6564,
      "rail": 6565,
      ")))+": 6566,
      "ln84": 6567,
      "ln85": 6568,
      "ln86": 6569,
      "ln75": 6570,
      "ln74": 6571,
      "ln76": 6572,
      "ics": 6573,
      "jk84": 6574,
      "jk85": 6575,
      "jk86": 6576,
      "town": 6577,
      "mat_": 6578,
      "856": 6579,
      "8314": 6580,
      "deg": 6581,
      "879": 6582,
      "ress": 6583,
      "no_newline": 6584,
      "func": 6585,
      "ERS": 6586,
      "subprogram": 6587,
      "submi64": 6588,
      "submi32": 6589,
      "88j": 6590,
      "8881": 6591,
      "tmp_": 6592,
      "ating": 6593,
      "idd": 6594,
      "results": 6595,
      "negm": 6596,
      "RESP": 6597,
      "divmi64": 6598,
      "divmi32": 6599,
      "minn": 6600,
      "778": 6601,
      "************": 6602,
      "449": 6603,
      "2244": 6604,
      "1905": 6605,
      "2384": 6606,
      "733": 6607,
      "7304": 6608,
      "2575": 6609,
      "quate": 6610,
      "6500": 6611,
      "946": 6612,
      "949": 6613,
      "bo85": 6614,
      "set1": 6615,
      "346": 6616,
      "addmi64": 6617,
      "addmi32": 6618,
      "precedence": 6619,
      "merge64": 6620,
      "merge32": 6621,
      "509": 6622,
      "969": 6623,
      "vm86": 6624,
      "vm82": 6625,
      "gn84": 6626,
      "gn85": 6627,
      "gn83": 6628,
      "accum": 6629,
      "posm": 6630,
      "go84": 6631,
      "go85": 6632,
      "wi84": 6633,
      "wi83": 6634,
      "wn83": 6635,
      "itemize": 6636,
      "NOPQRSTUVWXYZ": 6637,
      "compilation": 6638,
      "10000000": 6639,
      "gi84": 6640,
      "gi86": 6641,
      "total_": 6642,
      "mod_pow": 6643,
      "powmi64": 6644,
      "powmi32": 6645,
      "CDCDS": 6646,
      "1_16": 6647,
      "\".\"": 6648,
      "vi83": 6649,
      "vi86": 6650,
      "jo84": 6651,
      "jo87": 6652,
      "EXIST": 6653,
      "xij": 6654,
      "combi": 6655,
      "ji85": 6656,
      "ji87": 6657,
      "]<>-": 6658,
      "lesse": 6659,
      "zi84": 6660,
      "zi83": 6661,
      "MAX_": 6662,
      "bounds": 6663,
      "============================": 6664,
      "zo84": 6665,
      "zo83": 6666,
      "based": 6667,
      "RBT_node": 6668,
      "jm55": 6669,
      "jm54": 6670,
      "mulmi64": 6671,
      "mulmi32": 6672,
      "Heise": 6673,
      "start_error_message": 6674,
      "multiply": 6675,
      "multiples": 6676,
      "dwSta": 6677,
      "hijklmijkijkjkljkljklklmklmijklmnjklijkklmjkljklklmklmijklmnjkljklklmklmjkllmnklm": 6678,
      "_need": 6679,
      "divi64m": 6680,
      "divi32m": 6681,
      "gefgfghfghfghghighi": 6682,
      "fixed": 6683,
      "I2FMT": 6684,
      "ghijklhijhijijkijkijkjkljkljklklmklmhijklmijkijkjkljkljklklmklmklmlmnlmn": 6685,
      "fghijkghighihijhijhijijkijkghijklhijghiijkhijhijijkijkhijjklijkhijjklijk": 6686,
      "\"-\"": 6687,
      "AKIH": 6688,
      "rook1_mask": 6689,
      "VECTOR_": 6690,
      "green": 6691,
      "merged3232": 6692,
      "merged6464": 6693,
      "addi64m": 6694,
      "addi32m": 6695,
      "bad_": 6696,
      "1000000000000000000_8": 6697,
      "hijklmijkijkjkljkljklklmklmklmlmnlmnijklmnjkljklklmklm": 6698,
      "Loop": 6699,
      "RANDOM_": 6700,
      "seti64": 6701,
      "seti32": 6702,
      "subi64m": 6703,
      "subi32m": 6704,
      "muli64m": 6705,
      "muli32m": 6706,
      "board_reflect": 6707,
      "Calculate": 6708,
      "Standard": 6709,
      "neighbours": 6710,
      "insert_or_assign": 6711,
      "yoko": 6712,
      "desired": 6713,
      "unixdict": 6714,
      "PullBlack": 6715,
      "RESPON": 6716,
      "Heisei": 6717,
      "dwStatus": 6718,
      "fghijkghighihijhijhijijkijkghijklhijghiijkhijhijijkijkhijjklijkhijjklijkhijjklijk": 6719,
      "!\")": 6720,
      "\">": 6721,
      "505": 6722,
      ">(": 6723,
      "Cnt": 6724,
      "FO": 6725,
      "Gv": 6726,
      "Lim": 6727,
      "NREC": 6728,
      "TW": 6729,
      "Tri": 6730,
      "TRA": 6731,
      "W_": 6732,
      "]]+": 6733,
      "_q": 6734,
      "_expr": 6735,
      "a8": 6736,
      "aka": 6737,
      "bun": 6738,
      "centroids": 6739,
      "ere": 6740,
      "ebx": 6741,
      "l_": 6742,
      "mal": 6743,
      "nin": 6744,
      "ntmp": 6745,
      "oqx": 6746,
      "pin": 6747,
      "pted": 6748,
      "q1": 6749,
      "rnum": 6750,
      "tin": 6751,
      "v_": 6752,
      "w2": 6753,
      "won": 6754,
      "wan": 6755,
      "zmm": 6756,
      "zation": 6757,
      "inorder": 6758,
      "encoded": 6759,
      "red_": 6760,
      "do84": 6761,
      "do87": 6762,
      "alft": 6763,
      "algorithm": 6764,
      "rate": 6765,
      "integer_": 6766,
      "))]": 6767,
      "921": 6768,
      "ln83": 6769,
      "ln87": 6770,
      "ln77": 6771,
      "ln73": 6772,
      "jk83": 6773,
      "jk87": 6774,
      "91l": 6775,
      "suma": 6776,
      "to84": 6777,
      "to85": 6778,
      "to83": 6779,
      "DDO": 6780,
      "modpow": 6781,
      "012": 6782,
      "ate_": 6783,
      "8492": 6784,
      "take": 6785,
      "('#')": 6786,
      "one_": 6787,
      "826": 6788,
      "829": 6789,
      "si85": 6790,
      "si86": 6791,
      "sidx": 6792,
      "8130": 6793,
      "lat": 6794,
      "vali": 6795,
      "8899": 6796,
      "po84": 6797,
      "po85": 6798,
      "po83": 6799,
      "maxtype": 6800,
      "DCGE": 6801,
      "1583": 6802,
      "strs": 6803,
      "struct_": 6804,
      "inspect": 6805,
      "there_": 6806,
      "neq": 6807,
      "fi86": 6808,
      "mo84": 6809,
      "mo85": 6810,
      "mo86": 6811,
      "4491": 6812,
      "224": 6813,
      "countA": 6814,
      "7403": 6815,
      "usted": 6816,
      "bo84": 6817,
      "bo86": 6818,
      "356": 6819,
      "357": 6820,
      "ANGE": 6821,
      "609": 6822,
      "541": 6823,
      "337": 6824,
      "IMAL": 6825,
      "gn86": 6826,
      "gn82": 6827,
      "go83": 6828,
      "go86": 6829,
      "wi85": 6830,
      "wi82": 6831,
      "VALUES": 6832,
      "codes": 6833,
      "3764": 6834,
      "wn84": 6835,
      "wn82": 6836,
      "haha": 6837,
      "706": 6838,
      "linefeed_char": 6839,
      "get_size": 6840,
      "get_kth": 6841,
      "sync": 6842,
      "under": 6843,
      "selection": 6844,
      "mod_priority_queue": 6845,
      "_carry": 6846,
      "wo84": 6847,
      "wo83": 6848,
      "_nodes": 6849,
      "calendar": 6850,
      "498": 6851,
      "AS_STR": 6852,
      "\".\")": 6853,
      "i_char": 6854,
      "signal": 6855,
      "_Add": 6856,
      "vo84": 6857,
      "vo85": 6858,
      "vo83": 6859,
      "GOTO": 6860,
      "INPUT_": 6861,
      "double_sort": 6862,
      "'.')": 6863,
      "delete_all": 6864,
      "CCDDDJ": 6865,
      "zi82": 6866,
      "buffers": 6867,
      "ffree": 6868,
      "zo82": 6869,
      "anten": 6870,
      "AMBIG": 6871,
      "0_rik": 6872,
      "DDDDJCDD": 6873,
      "ec12": 6874,
      "TBD": 6875,
      "matching": 6876,
      "Trgt": 6877,
      "Convert": 6878,
      "event": 6879,
      "little": 6880,
      "ygon": 6881,
      "actually": 6882,
      "hello": 6883,
      "Numbers": 6884,
      "emitword": 6885,
      "hull_size": 6886,
      "PARTI": 6887,
      "FLOOR": 6888,
      "Alloc": 6889,
      "bott": 6890,
      "NUM_AS_STR": 6891,
      "kth_node": 6892,
      "fitness": 6893,
      "expected": 6894,
      "lower_bound": 6895,
      "definitions": 6896,
      "Polygon": 6897,
      "layer": 6898,
      "bracket": 6899,
      "ILLIONS": 6900,
      "SMALL_NUMS": 6901,
      "every": 6902,
      "third": 6903,
      "Product": 6904,
      "machine": 6905,
      "ABCDEFGHIJKLMNOPQRSTUVWXYZ": 6906,
      "After": 6907,
      "there_is_": 6908,
      "get_kth_key": 6909,
      "AMBIGUOUS": 6910,
      "!------------------------------------------------": 6911,
      "'<": 6912,
      "(\",": 6913,
      "2_masks": 6914,
      ">'": 6915,
      "><": 6916,
      "Ack": 6917,
      "BAD": 6918,
      "GR": 6919,
      "GDD": 6920,
      "HIC": 6921,
      "I5": 6922,
      "J1": 6923,
      "Neg": 6924,
      "Ori": 6925,
      "Pla": 6926,
      "Qsort": 6927,
      "Sy": 6928,
      "Square": 6929,
      "WMS": 6930,
      "WED": 6931,
      "_x": 6932,
      "_dim": 6933,
      "_merge_sort": 6934,
      "_rik": 6935,
      "_ARRAY": 6936,
      "_clear_bit": 6937,
      "_attack_check": 6938,
      "ati": 6939,
      "ared": 6940,
      "bubble": 6941,
      "cli": 6942,
      "eum": 6943,
      "f08": 6944,
      "gal": 6945,
      "gum": 6946,
      "hund": 6947,
      "imax": 6948,
      "jum": 6949,
      "kum": 6950,
      "lum": 6951,
      "m_": 6952,
      "mut": 6953,
      "marge": 6954,
      "n_max": 6955,
      "ours": 6956,
      "pum": 6957,
      "pts": 6958,
      "rum": 6959,
      "r93": 6960,
      "s9999": 6961,
      "smerge_sort": 6962,
      "tum": 6963,
      "vum": 6964,
      "xum": 6965,
      "yon": 6966,
      "inverse": 6967,
      "ifier": 6968,
      "ero": 6969,
      "int_kind": 6970,
      "int_infty": 6971,
      "int_value": 6972,
      "0004": 6973,
      "stuff": 6974,
      "set_bit": 6975,
      "itours": 6976,
      "sup": 6977,
      "to86": 6978,
      "to82": 6979,
      "making_": 6980,
      "DDGE": 6981,
      "beginning": 6982,
      "9981": 6983,
      "849": 6984,
      "tag": 6985,
      "85x": 6986,
      "832": 6987,
      "82q": 6988,
      "si84": 6989,
      "si87": 6990,
      "desc": 6991,
      "co86": 6992,
      "87j": 6993,
      "87x": 6994,
      "8786": 6995,
      "9317": 6996,
      "1055": 6997,
      "6417": 6998,
      "di86": 6999,
      "1002": 7000,
      "po86": 7001,
      "po82": 7002,
      "lion": 7003,
      "1682": 7004,
      "DCDF": 7005,
      "lowere": 7006,
      "IFAULT": 7007,
      "ck85": 7008,
      "ck86": 7009,
      "mes": 7010,
      "these": 7011,
      "\",&": 7012,
      "143": 7013,
      "146": 7014,
      "149": 7015,
      "CEDE": 7016,
      "ind_max": 7017,
      "country": 7018,
      "1364": 7019,
      "1315": 7020,
      "internal": 7021,
      "minc": 7022,
      ")')\"": 7023,
      "038": 7024,
      "5577": 7025,
      "mo83": 7026,
      "mo87": 7027,
      "226": 7028,
      "DED": 7029,
      "DEDCDJ": 7030,
      "COM": 7031,
      "237": 7032,
      "newb0": 7033,
      "='';": 7034,
      "number_of": 7035,
      "343": 7036,
      "679": 7037,
      "6720": 7038,
      "fm84": 7039,
      "fm85": 7040,
      "fm86": 7041,
      "fm64": 7042,
      "308": 7043,
      "976": 7044,
      "9781": 7045,
      "6090": 7046,
      "546": 7047,
      "5403": 7048,
      "idx_c": 7049,
      "up84": 7050,
      "up85": 7051,
      "log10": 7052,
      "902": 7053,
      "web": 7054,
      "331": 7055,
      "clear1": 7056,
      "graph_": 7057,
      "buff": 7058,
      "459": 7059,
      "361": 7060,
      "629": 7061,
      "pie": 7062,
      "cp86": 7063,
      "get0": 7064,
      "samples": 7065,
      "get_index": 7066,
      "give": 7067,
      "mod_segment_tree": 7068,
      "strbuf_to_": 7069,
      "wo85": 7070,
      "wo82": 7071,
      "wo_dim": 7072,
      "These": 7073,
      "starts": 7074,
      "7881": 7075,
      "probability": 7076,
      "is_bi": 7077,
      "counter_": 7078,
      "bi86": 7079,
      "5164": 7080,
      "LOTS": 7081,
      "_set_bit": 7082,
      "1_INT8": 7083,
      "osx": 7084,
      "vo86": 7085,
      "vo82": 7086,
      "ABC081": 7087,
      "qualifier": 7088,
      "bit_index_mask": 7089,
      "ReadLn": 7090,
      "highere": 7091,
      "reached": 7092,
      "next_clear_bit": 7093,
      "next_set_bit": 7094,
      "Open": 7095,
      "Options": 7096,
      "******************************************************************": 7097,
      "maximum_capacity": 7098,
      "GET_": 7099,
      "fghijkghighihijhijhijijkijkijkjkljklghijklhijhijijkijk": 7100,
      "stddev": 7101,
      "depending": 7102,
      "POSSIBLE": 7103,
      "stat_": 7104,
      "Exit": 7105,
      "previous_clear_bit": 7106,
      "previous_set_bit": 7107,
      "tainer": 7108,
      "_substring": 7109,
      "flip0": 7110,
      "mod_two_dim": 7111,
      "ghijklhijfghijkghighihijhijhijijkijkhijjklijkghijklhijhijijkijkijkjkljklijkklmjkl": 7112,
      "hijklmijkghijklhijhijijkijkijkjkljklijkklmjklhijklmijkijkjkljkljklklmklmjkllmnklm": 7113,
      "leading": 7114,
      "************************************************************": 7115,
      "WWWW": 7116,
      "........": 7117,
      "defghiefgefgfghfghfghghighifghhijghi": 7118,
      "f_elem": 7119,
      "volume_Con": 7120,
      "LRsorted": 7121,
      "number_of_leading_zeros": 7122,
      "Hash": 7123,
      "ensure_capacity": 7124,
      "allel": 7125,
      "crc32": 7126,
      "shuffle": 7127,
      "partite": 7128,
      "get_keys_list": 7129,
      "MERGE": 7130,
      "_the_": 7131,
      "cdefghdefdefefgefgefgfghfghfghghighi": 7132,
      "COMMON": 7133,
      "simulate": 7134,
      "Time": 7135,
      "making_palindrome": 7136,
      "is_bipartite": 7137,
      "mod_two_dim_merge_sort": 7138,
      "volume_Container": 7139,
      "'|": 7140,
      ",',": 7141,
      ",\",": 7142,
      "2int": 7143,
      "492": 7144,
      "480": 7145,
      "576": 7146,
      "=',": 7147,
      "Anum": 7148,
      "Chr": 7149,
      "DR": 7150,
      "Dem": 7151,
      "ECG": 7152,
      "F0": 7153,
      "GJ": 7154,
      "H1": 7155,
      "Jun": 7156,
      "JDAY": 7157,
      "LZ": 7158,
      "LDIGIT": 7159,
      "NM": 7160,
      "S3": 7161,
      "Sleep": 7162,
      "TENS": 7163,
      "WD": 7164,
      "dra": 7165,
      "dmp": 7166,
      "fur": 7167,
      "k2": 7168,
      "kode": 7169,
      "n3": 7170,
      "nan": 7171,
      "nod": 7172,
      "nis": 7173,
      "qsort_": 7174,
      "rpn": 7175,
      "rswp": 7176,
      "sal": 7177,
      "smax": 7178,
      "tun": 7179,
      "ures": 7180,
      "those": 7181,
      "doc": 7182,
      "altern": 7183,
      "ade": 7184,
      "prog": 7185,
      "9205": 7186,
      "ln82": 7187,
      "ln72": 7188,
      "jk82": 7189,
      "unsigned": 7190,
      "suff": 7191,
      "being": 7192,
      "because": 7193,
      "997": 7194,
      "998": 7195,
      "ti84": 7196,
      "ti85": 7197,
      "84q": 7198,
      "84x": 7199,
      "8481": 7200,
      "8463": 7201,
      "8440": 7202,
      "851": 7203,
      "859": 7204,
      "85j": 7205,
      "85q": 7206,
      "8501": 7207,
      "chos": 7208,
      "('-',": 7209,
      "83q": 7210,
      "83x": 7211,
      "8395": 7212,
      "co85": 7213,
      "co87": 7214,
      "8726": 7215,
      "81q": 7216,
      "di85": 7217,
      "di87": 7218,
      "t_stack": 7219,
      "val3": 7220,
      "8880": 7221,
      "8896": 7222,
      "oftw": 7223,
      "vest": 7224,
      "loe": 7225,
      "ck84": 7226,
      "ck87": 7227,
      "conv": 7228,
      "contest": 7229,
      "152": 7230,
      "178": 7231,
      "2044": 7232,
      "138": 7233,
      "ul84": 7234,
      "ul85": 7235,
      "ul86": 7236,
      "pay": 7237,
      "771": 7238,
      "772": 7239,
      "055": 7240,
      "FORTRAN": 7241,
      "443": 7242,
      "7493": 7243,
      "253": 7244,
      "6599": 7245,
      "_trail": 7246,
      "contains_key": 7247,
      "CDDDS": 7248,
      "lengths": 7249,
      "bo83": 7250,
      ")==-": 7251,
      "ask": 7252,
      "ABC125": 7253,
      "COMPLE": 7254,
      "3500": 7255,
      "671": 7256,
      "move_alloc": 7257,
      "fm83": 7258,
      "fm87": 7259,
      "LAYERS": 7260,
      "309": 7261,
      "9762": 7262,
      "2182": 7263,
      "up83": 7264,
      "up86": 7265,
      "5075": 7266,
      "962": 7267,
      "//'": 7268,
      "vai": 7269,
      "CCDEDD": 7270,
      "goe": 7271,
      "fo85": 7272,
      "fo86": 7273,
      "7095": 7274,
      "get_keys": 7275,
      "get_line_": 7276,
      "compass": 7277,
      "gi83": 7278,
      "gi87": 7279,
      "ast_error": 7280,
      "mod_t_item": 7281,
      "find_c": 7282,
      "bl86": 7283,
      "within": 7284,
      "screen": 7285,
      "via": 7286,
      "vi82": 7287,
      "vi87": 7288,
      "vious": 7289,
      "ieee": 7290,
      "1010": 7291,
      "jo83": 7292,
      "xi84": 7293,
      "xi85": 7294,
      "ji84": 7295,
      "Coun": 7296,
      "bool2int": 7297,
      "zi85": 7298,
      "apple": 7299,
      "calculate_area": 7300,
      "qo84": 7301,
      "qo83": 7302,
      "qi84": 7303,
      "qi83": 7304,
      "zo85": 7305,
      "generation": 7306,
      "pecif": 7307,
      "Anno": 7308,
      "TBL1": 7309,
      "tk_L": 7310,
      "igno": 7311,
      "ractice": 7312,
      "forest": 7313,
      "RedBlackTree_Int": 7314,
      "luhn": 7315,
      "rnion": 7316,
      "member": 7317,
      "DDDCDDDCJ": 7318,
      "insertion": 7319,
      "from_stream": 7320,
      "zzzzzzzz": 7321,
      "Initial": 7322,
      "t_skip_list_map": 7323,
      "radius": 7324,
      "998244353_8": 7325,
      "FACTORS": 7326,
      "VARS": 7327,
      "slide": 7328,
      "string_buffers": 7329,
      "itude": 7330,
      "passed": 7331,
      "intersect": 7332,
      "label": 7333,
      "assemb": 7334,
      "ASCENDING": 7335,
      "LETTER": 7336,
      "bottles": 7337,
      "chosen": 7338,
      "oftware": 7339,
      "get_line_from_stream": 7340,
      "\"]": 7341,
      "$)": 7342,
      "&\")')": 7343,
      "0e": 7344,
      "1st": 7345,
      "2d0": 7346,
      "481": 7347,
      "510": 7348,
      "565": 7349,
      "AZ": 7350,
      "Bra": 7351,
      "Base": 7352,
      "Center": 7353,
      "EMP": 7354,
      "Four": 7355,
      "How": 7356,
      "Idx": 7357,
      "LP": 7358,
      "Lon": 7359,
      "MSTASH": 7360,
      "NN": 7361,
      "Nor": 7362,
      "Res": 7363,
      "TUE": 7364,
      "TString": 7365,
      "W1": 7366,
      "Xu": 7367,
      "YPE": 7368,
      "a93": 7369,
      "bat": 7370,
      "bpos": 7371,
      "ct_": 7372,
      "carry": 7373,
      "equi": 7374,
      "echo": 7375,
      "f93": 7376,
      "f32": 7377,
      "hind": 7378,
      "iR": 7379,
      "iop": 7380,
      "qstr": 7381,
      "tan": 7382,
      "van": 7383,
      "vir": 7384,
      "yel": 7385,
      "z1": 7386,
      "zan": 7387,
      "end_of_": 7388,
      "reco": 7389,
      "request": 7390,
      "erta": 7391,
      "do83": 7392,
      "ality": 7393,
      "rity": 7394,
      "rotation": 7395,
      "stones": 7396,
      "season": 7397,
      "unce": 7398,
      "9174": 7399,
      "hi84": 7400,
      "mate": 7401,
      "DDGC": 7402,
      "ti83": 7403,
      "ti86": 7404,
      "84j": 7405,
      "8586": 7406,
      "83z": 7407,
      "8691": 7408,
      "8693": 7409,
      "82x": 7410,
      "82z": 7411,
      "si83": 7412,
      "deal": 7413,
      "87k": 7414,
      "87v": 7415,
      "8745": 7416,
      "932": 7417,
      "81z": 7418,
      "substring": 7419,
      "ops": 7420,
      "88b": 7421,
      "8894": 7422,
      "li86": 7423,
      "ved": 7424,
      "ROUND": 7425,
      "lo85": 7426,
      "lo86": 7427,
      "ck83": 7428,
      "156": 7429,
      "ISO": 7430,
      "89i": 7431,
      "needed": 7432,
      "1460": 7433,
      "2064": 7434,
      "2032": 7435,
      "2073": 7436,
      "REM": 7437,
      "REPLA": 7438,
      "137": 7439,
      "1394": 7440,
      "mini": 7441,
      "7716": 7442,
      "7763": 7443,
      "051": 7444,
      "dp84": 7445,
      "dp85": 7446,
      "dp86": 7447,
      "035": 7448,
      "036": 7449,
      "4437": 7450,
      "2632": 7451,
      "731": 7452,
      "2584": 7453,
      ")',(": 7454,
      "046": 7455,
      ")/=\"": 7456,
      "bo87": 7457,
      "2799": 7458,
      "asz": 7459,
      "asonic": 7460,
      "bit_count": 7461,
      "bit_need": 7462,
      "sk84": 7463,
      "sk85": 7464,
      "THAT": 7465,
      "ANT": 7466,
      "6766": 7467,
      "saving": 7468,
      "3066": 7469,
      "addr": 7470,
      "parallel": 7471,
      "vm81": 7472,
      "gn81": 7473,
      "so84": 7474,
      "so85": 7475,
      "so86": 7476,
      "go82": 7477,
      "go87": 7478,
      "wi86": 7479,
      "aystack": 7480,
      "fo84": 7481,
      "fo87": 7482,
      "intrinsics": 7483,
      "others": 7484,
      "7082": 7485,
      "7020": 7486,
      "pi84": 7487,
      "pi85": 7488,
      "harvest": 7489,
      "]='.'": 7490,
      "4084": 7491,
      "mize": 7492,
      "get_entry": 7493,
      "fl86": 7494,
      "10000000000": 7495,
      "461": 7496,
      "abc159": 7497,
      "init_heap": 7498,
      "mid1": 7499,
      "q83y": 7500,
      "698": 7501,
      "6974": 7502,
      "q82x": 7503,
      "q82y": 7504,
      "CDCCJCDD": 7505,
      "LOT": 7506,
      "_of_two": 7507,
      "num_dishes": 7508,
      "5955": 7509,
      "jo88": 7510,
      "vo81": 7511,
      "_specif": 7512,
      "xi83": 7513,
      "xi86": 7514,
      "ji88": 7515,
      "jihan": 7516,
      "ki85": 7517,
      "skip_specif": 7518,
      "stepper": 7519,
      "ko84": 7520,
      "ko85": 7521,
      "ishot": 7522,
      "qo85": 7523,
      "qo82": 7524,
      "qi85": 7525,
      "qi82": 7526,
      ".\"),": 7527,
      "ijklmnjkljklklmklmklmlmnlmnijklmnjkljklklmklmklmlmnlmn": 7528,
      "=./": 7529,
      "highest": 7530,
      "urshift0": 7531,
      "urshift1": 7532,
      "Here": 7533,
      "vm_assemb": 7534,
      "Ansi": 7535,
      "n_L": 7536,
      "n_R": 7537,
      "count_digit": 7538,
      "Door": 7539,
      "qm55": 7540,
      "qm54": 7541,
      ")//'": 7542,
      "ensure_there_is_": 7543,
      "ABC133": 7544,
      "ABC136": 7545,
      "RETURNING": 7546,
      "00401": 7547,
      "either": 7548,
      "positions": 7549,
      "right_": 7550,
      "\"#\"": 7551,
      "VERSE": 7552,
      "enough_stack": 7553,
      "ijkklmjkljklklmklm": 7554,
      "normal": 7555,
      "newline_char": 7556,
      "**************************************************************": 7557,
      "pangram": 7558,
      "fghijkghiefghijfghfghghighighihijhijghiijkhijfghijkghighihijhijhijijkijkhijjklijk": 7559,
      "CBL_": 7560,
      "MD5": 7561,
      "COLUMNS": 7562,
      "fghijkghighihijhijhijijkijkijkjkljklghijklhijhijijkijkijkjkljkljklklmklmhijklmijkghijklhijhijijkijkijkjkljklijkklmjklhijklmijkijkjkljkljklklmklmjkllmnklm": 7563,
      "DECK": 7564,
      "ic_character": 7565,
      "jklmnoklmijklmnjkljklklmklmklmlmnlmnklmmnolmnjklmnoklmklmlmnlmn": 7566,
      "ordered": 7567,
      "num_mountain": 7568,
      "numpos": 7569,
      "Negative": 7570,
      "quaternion": 7571,
      "bad_vm_assemb": 7572,
      "RESPONSES": 7573,
      "Allocate": 7574,
      "Original": 7575,
      "COMPLEX": 7576,
      "jihanki": 7577,
      "skip_specific_character": 7578,
      "ensure_there_is_enough_stack": 7579,
      "bad_vm_assembly": 7580,
      "ensure_there_is_enough_stack_data": 7581,
      "!$": 7582,
      ")],": 7583,
      ".)/": 7584,
      "3_8": 7585,
      "450": 7586,
      "476": 7587,
      "520": 7588,
      "Brd": 7589,
      "BAG": 7590,
      "CU": 7591,
      "Date": 7592,
      "EE": 7593,
      "Fill": 7594,
      "GEN": 7595,
      "Long": 7596,
      "MTH": 7597,
      "NCOL": 7598,
      "NAG": 7599,
      "Ord": 7600,
      "PASS": 7601,
      "Que": 7602,
      "Sc": 7603,
      "Vac": 7604,
      "WN": 7605,
      "aum": 7606,
      "dnm": 7607,
      "fnm": 7608,
      "happ": 7609,
      "ible": 7610,
      "jun": 7611,
      "jnm": 7612,
      "qum": 7613,
      "r0": 7614,
      "sdx": 7615,
      "tre": 7616,
      "ust": 7617,
      "uel": 7618,
      "wum": 7619,
      "yum": 7620,
      "yday": 7621,
      "rear": 7622,
      "repla": 7623,
      "do88": 7624,
      "onar": 7625,
      "ro85": 7626,
      "ro86": 7627,
      "stri": 7628,
      "seven": 7629,
      "antile": 7630,
      "least": 7631,
      "),\"": 7632,
      "itself": 7633,
      "itotal": 7634,
      "92a": 7635,
      "ln88": 7636,
      "ln78": 7637,
      "jk88": 7638,
      "union": 7639,
      "hi85": 7640,
      "hi83": 7641,
      "to87": 7642,
      "to81": 7643,
      "ging": 7644,
      "ti82": 7645,
      "INOUT": 7646,
      "84k": 7647,
      "84z": 7648,
      "8482": 7649,
      "853": 7650,
      "85k": 7651,
      "85y": 7652,
      "85z": 7653,
      "8584": 7654,
      "chmax": 7655,
      "83k": 7656,
      "83y": 7657,
      "82y": 7658,
      "dead": 7659,
      "demo": 7660,
      "co84": 7661,
      "cobol": 7662,
      "871": 7663,
      "878": 7664,
      "9313": 7665,
      "1024": 7666,
      "6495": 7667,
      "8123": 7668,
      "8145": 7669,
      "di84": 7670,
      "numval": 7671,
      "numdays": 7672,
      "sub0": 7673,
      "3244": 7674,
      "88e": 7675,
      "po87": 7676,
      "1684": 7677,
      "veal": 7678,
      "maxday": 7679,
      "hijjklijkijkjkljkl": 7680,
      "outx": 7681,
      "outstr": 7682,
      "lo84": 7683,
      "lo87": 7684,
      "1224": 7685,
      "157": 7686,
      "1582": 7687,
      "strtab": 7688,
      "array2": 7689,
      "array_ahead": 7690,
      "8901": 7691,
      "1399": 7692,
      "div0": 7693,
      "pare": 7694,
      "7715": 7695,
      "7753": 7696,
      "dp83": 7697,
      "dp87": 7698,
      "abl": 7699,
      "returns": 7700,
      "556": 7701,
      "shor": 7702,
      "668": 7703,
      "6609": 7704,
      "mo82": 7705,
      "2603": 7706,
      "_inversion": 7707,
      "2405": 7708,
      "252": 7709,
      "quantile": 7710,
      "651": 7711,
      "657": 7712,
      "6534": 7713,
      "959": 7714,
      "9591": 7715,
      "9566": 7716,
      "631": 7717,
      "049": 7718,
      "278": 7719,
      "sk83": 7720,
      "sk86": 7721,
      "676": 7722,
      "moves": 7723,
      "fm82": 7724,
      "add0": 7725,
      "up87": 7726,
      "9083": 7727,
      "9082": 7728,
      "wever": 7729,
      "333": 7730,
      "5027": 7731,
      "9617": 7732,
      "parents": 7733,
      "extract": 7734,
      "vm87": 7735,
      "769": 7736,
      "swallowed": 7737,
      "728": 7738,
      "so83": 7739,
      "so87": 7740,
      "wi81": 7741,
      ",*)'": 7742,
      "3799": 7743,
      "wn85": 7744,
      "wn81": 7745,
      "OUT_STR": 7746,
      "pi83": 7747,
      "pi86": 7748,
      "getfather": 7749,
      "mi85": 7750,
      "mi86": 7751,
      "mihon": 7752,
      "compose": 7753,
      "4605": 7754,
      "swaps": 7755,
      "swapped": 7756,
      "ho84": 7757,
      "ho83": 7758,
      "mod_unweighted_graph": 7759,
      "mod_wavelet_matrix": 7760,
      "mod_t_graph": 7761,
      "sm86": 7762,
      "sm64": 7763,
      "wo86": 7764,
      "q84k": 7765,
      "q84r": 7766,
      "q84x": 7767,
      "q83k": 7768,
      "q83x": 7769,
      "Return": 7770,
      "q85k": 7771,
      "6982": 7772,
      "q82q": 7773,
      "q82z": 7774,
      "my_": 7775,
      "scratchpad": 7776,
      "msort_": 7777,
      "num_day": 7778,
      "num_integers": 7779,
      "i_max": 7780,
      ",\"<": 7781,
      "q81q": 7782,
      "q81y": 7783,
      "q81z": 7784,
      "vo87": 7785,
      "(/\"": 7786,
      "POS1": 7787,
      "ki84": 7788,
      "ki86": 7789,
      "orign": 7790,
      "runast": 7791,
      "zi81": 7792,
      "ko83": 7793,
      "ko86": 7794,
      "monster": 7795,
      ")==\"#\")": 7796,
      "zo81": 7797,
      "xo84": 7798,
      "xo85": 7799,
      "snuke": 7800,
      "DDGDDJ": 7801,
      "TIME": 7802,
      "facnm": 7803,
      "COUNT5": 7804,
      "COUNT7": 7805,
      "Leonar": 7806,
      "RedBlackTree_Char": 7807,
      "RedBlackTree_Find": 7808,
      "RedBlackTree_Get": 7809,
      "RedBlackTree_Init": 7810,
      "RedBlackTree_FixUp": 7811,
      "RedBlackTree_Insert": 7812,
      "hashi": 7813,
      "arit": 7814,
      "ijklmnjkljklklmklmklmlmnlmnjklmnoklmjkllmnklmklmlmnlmnijklmnjkljklklmklmklmlmnlmnjklmnoklmjkllmnklmklmlmnlmn": 7815,
      "Int_SearchTree": 7816,
      "Char_SearchTree": 7817,
      "eve_": 7818,
      "1e18": 7819,
      "permutations": 7820,
      "IOSTAT": 7821,
      "sum_w": 7822,
      "efghijfghfghghighighihijhijhijijkijkfghijkghighihijhijhijijkijkijkjkljkl": 7823,
      "easter": 7824,
      "change_modulus64": 7825,
      "change_modulus32": 7826,
      "neighb": 7827,
      "lmnklmmnolmnklmmnolmn": 7828,
      "_algorithm": 7829,
      "attacking": 7830,
      "different": 7831,
      "klmmnolmnklmmnolmnklmmnolmn": 7832,
      "_behind": 7833,
      "--------------------------": 7834,
      "BLAH": 7835,
      "Delim": 7836,
      "further": 7837,
      "EMPTY": 7838,
      "equival": 7839,
      "2nd": 7840,
      "40000": 7841,
      "570": 7842,
      ":'": 7843,
      ":',": 7844,
      "=[": 7845,
      "?'": 7846,
      "CA": 7847,
      "Crypt": 7848,
      "CITY": 7849,
      "E1": 7850,
      "Eno": 7851,
      "Ent": 7852,
      "FS": 7853,
      "FT": 7854,
      "Foo": 7855,
      "OSP": 7856,
      "Pi": 7857,
      "Practice": 7858,
      "Rol": 7859,
      "Simple": 7860,
      "Total": 7861,
      "Ver": 7862,
      "ZA": 7863,
      "Zero": 7864,
      "]][": 7865,
      "_one": 7866,
      "_full": 7867,
      "atmp": 7868,
      "ative": 7869,
      "cent": 7870,
      "cir": 7871,
      "cnm": 7872,
      "jmp": 7873,
      "lDictionary": 7874,
      "mun": 7875,
      "nC": 7876,
      "nel": 7877,
      "ron": 7878,
      "rng": 7879,
      "tuple": 7880,
      "thor": 7881,
      "along": 7882,
      "intQsort": 7883,
      "rase": 7884,
      "ro84": 7885,
      "ro87": 7886,
      "integer_target": 7887,
      "sti": 7888,
      "anti": 7889,
      "))*(": 7890,
      "proA": 7891,
      "mp84": 7892,
      "mp85": 7893,
      "isprime": 7894,
      "916": 7895,
      "beg": 7896,
      "bead": 7897,
      "enty": 7898,
      "to_bin": 7899,
      "ocke": 7900,
      "0101": 7901,
      "84y": 7902,
      "8447": 7903,
      "taste": 7904,
      "taka": 7905,
      "858": 7906,
      "8534": 7907,
      "chk": 7908,
      "('#": 7909,
      "838": 7910,
      "83v": 7911,
      "8397": 7912,
      "pefully": 7913,
      "8610": 7914,
      "82v": 7915,
      "8235": 7916,
      "sim": 7917,
      "si88": 7918,
      "det": 7919,
      "dest": 7920,
      "ded_": 7921,
      "umm": 7922,
      "872": 7923,
      "10_INT32": 7924,
      "641": 7925,
      "8110": 7926,
      "no84": 7927,
      "no85": 7928,
      "no83": 7929,
      "1005": 7930,
      "329": 7931,
      "exec": 7932,
      "expect": 7933,
      "88f": 7934,
      "po81": 7935,
      "1663": 7936,
      "DCGC": 7937,
      "lo83": 7938,
      "RATIONAL": 7939,
      "151": 7940,
      "idice": 7941,
      "means": 7942,
      "size_heap": 7943,
      "89s": 7944,
      "ntt": 7945,
      "the_key": 7946,
      "sumn": 7947,
      "1354": 7948,
      "fi87": 7949,
      "ul87": 7950,
      "past": 7951,
      "esc": 7952,
      "dp0": 7953,
      "dp82": 7954,
      "about": 7955,
      "abstract": 7956,
      "5581": 7957,
      "6694": 7958,
      "mo88": 7959,
      "4425": 7960,
      "4454": 7961,
      "239": 7962,
      "7376": 7963,
      "751": 7964,
      "ARING": 7965,
      "_tri": 7966,
      "9515": 7967,
      "9520": 7968,
      "randst": 7969,
      "0420": 7970,
      "0467": 7971,
      "newst": 7972,
      "CDDCS": 7973,
      "CDDDCDCCJ": 7974,
      "941": 7975,
      "string_table_t": 7976,
      "ABC163": 7977,
      "ABC169": 7978,
      "ABC126": 7979,
      "3512": 7980,
      "bit_out": 7981,
      "sk82": 7982,
      "BYTE": 7983,
      "adder": 7984,
      "up82": 7985,
      "pickw": 7986,
      "ll86": 7987,
      "gn87": 7988,
      "////": 7989,
      "//============================": 7990,
      "posy": 7991,
      "7286": 7992,
      "so82": 7993,
      "456": 7994,
      "3664": 7995,
      "verify": 7996,
      "WORDS": 7997,
      "fo83": 7998,
      "708": 7999,
      "mi84": 8000,
      "mi87": 8001,
      "get_t": 8002,
      "2992": 8003,
      "abc169": 8004,
      "abc129": 8005,
      "abc133": 8006,
      "5617": 8007,
      "ho85": 8008,
      "ho82": 8009,
      "sp86": 8010,
      "wo81": 8011,
      "4800": 8012,
      "q84h": 8013,
      "q84v": 8014,
      "q83h": 8015,
      "q83q": 8016,
      "q83v": 8017,
      "q85b": 8018,
      "q85r": 8019,
      "q82h": 8020,
      "q82v": 8021,
      "6114": 8022,
      "DDDCS": 8023,
      "2010": 8024,
      "_search": 8025,
      "q86b": 8026,
      "q86r": 8027,
      "ASA": 8028,
      "num_s": 8029,
      "i_to_bin": 8030,
      "EDDE": 8031,
      "xi82": 8032,
      "Comm": 8033,
      "new_strbuf": 8034,
      "ci85": 8035,
      "ci86": 8036,
      "ci87": 8037,
      "ABC086": 8038,
      "ABC095": 8039,
      "uo84": 8040,
      "uo85": 8041,
      "uo86": 8042,
      "calculate_solution": 8043,
      "Field": 8044,
      "ui86": 8045,
      "xo83": 8046,
      "xo86": 8047,
      "records": 8048,
      "power_of_two": 8049,
      "tab_char": 8050,
      "release_bit": 8051,
      "\\\\\\\\": 8052,
      "DCGDDJ": 8053,
      "next_power_of_two": 8054,
      "igned": 8055,
      "_factors": 8056,
      ",:)))": 8057,
      "1158": 8058,
      "sibly": 8059,
      "ToInt": 8060,
      "matmul3": 8061,
      "xuat": 8062,
      "knap": 8063,
      "ABC134": 8064,
      "8860": 8065,
      "2147483": 8066,
      "CURSE": 8067,
      "DDDCJCDD": 8068,
      "DCDDDDDCJ": 8069,
      "ways": 8070,
      "tual": 8071,
      "POSL": 8072,
      "Insertion": 8073,
      "author": 8074,
      "torial": 8075,
      "needle": 8076,
      "VECTOR_1": 8077,
      "ijklmnjklghijklhijhijijkijkijkjkljkljklklmklmhijklmijkijkjkljkl": 8078,
      "allowance": 8079,
      "ast_node_t": 8080,
      "longest": 8081,
      "Pair": 8082,
      "Divide": 8083,
      "bounded_": 8084,
      "license": 8085,
      "new_modint_with": 8086,
      "Item": 8087,
      "Keyword_": 8088,
      "SRT": 8089,
      "quote": 8090,
      "Multiply": 8091,
      "duplicate": 8092,
      "141592653589793": 8093,
      "satisfi": 8094,
      "ROUNDS": 8095,
      "xuly": 8096,
      "style": 8097,
      "adjusted": 8098,
      "tmp_mat": 8099,
      "valiable": 8100,
      "INPUT_LINE": 8101,
      "!-------------------------------------------------": 8102,
      "number_of_trail": 8103,
      "alternate": 8104,
      "forestfi": 8105,
      "TStringList": 8106,
      "virtual": 8107,
      "recogn": 8108,
      "NAGASA": 8109,
      "efghijfghfghghighighihijhijhijijkijkfghijkghighihijhijhijijkijkijkjkljklghijklhijfghijkghighihijhijhijijkijkhijjklijkghijklhijhijijkijkijkjkljklijkklmjkl": 8110,
      "Enough": 8111,
      "_full_string": 8112,
      "the_keys": 8113,
      "randstate": 8114,
      "new_modint_with_num": 8115,
      "number_of_trailing_zeros": 8116,
      "!-*-": 8117,
      "\"+": 8118,
      "'>'": 8119,
      ")])": 8120,
      "023": 8121,
      "470": 8122,
      "560": 8123,
      "590": 8124,
      "Amin": 8125,
      "DKA": 8126,
      "EV": 8127,
      "ETS": 8128,
      "FIF": 8129,
      "LINP": 8130,
      "Over": 8131,
      "OKE": 8132,
      "RP": 8133,
      "SK": 8134,
      "Sin": 8135,
      "Sorted": 8136,
      "T_": 8137,
      "Too": 8138,
      "Vis": 8139,
      "Y2": 8140,
      "YNUM": 8141,
      "ZU": 8142,
      "\\/\\\\\\": 8143,
      "_FILE": 8144,
      "bnm": 8145,
      "f90": 8146,
      "g0": 8147,
      "gel": 8148,
      "haystack": 8149,
      "i93": 8150,
      "knm": 8151,
      "kou": 8152,
      "mnm": 8153,
      "p3": 8154,
      "rnm": 8155,
      "san": 8156,
      "sma": 8157,
      "snm": 8158,
      "tmin": 8159,
      "ink": 8160,
      "tei": 8161,
      "resize": 8162,
      "rever": 8163,
      "ife": 8164,
      "ification": 8165,
      "erman": 8166,
      "dots": 8167,
      "0013": 8168,
      "0003": 8169,
      "00_8": 8170,
      "an_": 8171,
      "))<": 8172,
      "ities": 8173,
      "9243": 8174,
      "mp83": 8175,
      "icious": 8176,
      "un84": 8177,
      "un75": 8178,
      "un74": 8179,
      "uneven": 8180,
      "sug": 8181,
      "suit": 8182,
      "hi86": 8183,
      "hi82": 8184,
      "histo": 8185,
      "elt": 8186,
      "DDCDJ": 8187,
      "9974": 8188,
      "ti87": 8189,
      "mod1": 8190,
      "INSTR": 8191,
      "84v": 8192,
      "8441": 8193,
      "85v": 8194,
      "8592": 8195,
      "8595": 8196,
      "('=": 8197,
      "8315": 8198,
      "ENDDO": 8199,
      "8215": 8200,
      "simu": 8201,
      "co88": 8202,
      "coord": 8203,
      "cobc": 8204,
      "cember": 8205,
      "1092": 8206,
      "1023": 8207,
      "reshape": 8208,
      "648": 8209,
      "649": 8210,
      "6400": 8211,
      "6474": 8212,
      "81y": 8213,
      "8133": 8214,
      "terms": 8215,
      "di88": 8216,
      "note": 8217,
      "no86": 8218,
      "no82": 8219,
      "1003": 8220,
      "op86": 8221,
      "321": 8222,
      "exact": 8223,
      "88r": 8224,
      "1699": 8225,
      "ap85": 8226,
      "ap86": 8227,
      "concaten": 8228,
      "1599": 8229,
      "ketu": 8230,
      "898": 8231,
      "8951": 8232,
      "theta": 8233,
      "147": 8234,
      "1725": 8235,
      "1704": 8236,
      "CES": 8237,
      "2085": 8238,
      "2054": 8239,
      "inding": 8240,
      "1304": 8241,
      "diverta": 8242,
      "776": 8243,
      "7794": 8244,
      "FORE": 8245,
      "5584": 8246,
      "441": 8247,
      "2235": 8248,
      "DECLA": 8249,
      "263": 8250,
      "2690": 8251,
      "2385": 8252,
      "739": 8253,
      "faction": 8254,
      "758": 8255,
      "7514": 8256,
      "MPLE": 8257,
      "1181": 8258,
      "11x11": 8259,
      "953": 8260,
      "958": 8261,
      "9599": 8262,
      "newb1": 8263,
      "STORE": 8264,
      "THU": 8265,
      "ILS": 8266,
      "real64": 8267,
      "fm88": 8268,
      "pq83": 8269,
      "pq82": 8270,
      "607": 8271,
      "CJDDDD": 8272,
      "acci": 8273,
      "first_a": 8274,
      "362": 8275,
      "3601": 8276,
      "3727": 8277,
      "im86": 8278,
      "im55": 8279,
      "pi82": 8280,
      "CHO": 8281,
      "cp87": 8282,
      "3186": 8283,
      "flush": 8284,
      "eff": 8285,
      "561": 8286,
      "define": 8287,
      "5791": 8288,
      "q84b": 8289,
      "q84g": 8290,
      "q84j": 8291,
      "q84l": 8292,
      "q84t": 8293,
      "q84u": 8294,
      "q83g": 8295,
      "q83t": 8296,
      "q83w": 8297,
      "q85g": 8298,
      "q85j": 8299,
      "q85l": 8300,
      "q85u": 8301,
      "is_even": 8302,
      "is_hone": 8303,
      "q82t": 8304,
      "q82w": 8305,
      "CDCCS": 8306,
      "coloring": 8307,
      "l85d": 8308,
      "l85f": 8309,
      "l85h": 8310,
      "l85v": 8311,
      "l85x": 8312,
      "l84h": 8313,
      "l84q": 8314,
      "l84v": 8315,
      "l84x": 8316,
      "l84y": 8317,
      "q86j": 8318,
      "q86l": 8319,
      "yo84": 8320,
      "yo83": 8321,
      "l86d": 8322,
      "l86f": 8323,
      "l83h": 8324,
      "l83q": 8325,
      "l83v": 8326,
      "l83x": 8327,
      "l83y": 8328,
      "calculation": 8329,
      "l87d": 8330,
      "l87f": 8331,
      "5891": 8332,
      "Strings": 8333,
      "9883": 8334,
      "l82q": 8335,
      "l82y": 8336,
      "DCDCDDDDJ": 8337,
      "xi87": 8338,
      "ki83": 8339,
      "ko82": 8340,
      "uo83": 8341,
      "uo87": 8342,
      "qo86": 8343,
      "qi86": 8344,
      "CCDCCJ": 8345,
      "xo82": 8346,
      "gridsize": 8347,
      "blocks": 8348,
      "balance": 8349,
      "BEARING": 8350,
      "BOB": 8351,
      "pairwise": 8352,
      "baketu": 8353,
      "NEETS": 8354,
      "arith": 8355,
      "**********************************************************************": 8356,
      "calculate_num_": 8357,
      "upper_": 8358,
      "ijklmnjkljklklmklmklmlmnlmnjklmnoklmjkllmnklmklmlmnlmnjklmnoklmklmlmnlmnklmmnolmn": 8359,
      "ijklmnjkljklklmklmklmlmnlmnjklmnoklmjkllmnklmklmlmnlmnklmmnolmnklmmnolmnklmmnolmn": 8360,
      "POS2": 8361,
      "stash": 8362,
      "strbuf_t_length": 8363,
      "ternal": 8364,
      "partition": 8365,
      "FACT": 8366,
      "ascending": 8367,
      "Subtract": 8368,
      "December": 8369,
      "list_order": 8370,
      "Divisor": 8371,
      "AAA": 8372,
      "AnswerMain": 8373,
      "radix": 8374,
      "jkllmnklmklmlmnlmn": 8375,
      "ghijklhijfghijkghighihijhijhijijkijkhijjklijkghijklhijhijijkijkhijjklijkijkjkljkl": 8376,
      "ghijklhijhijijkijkijkjkljklhijklmijkhijjklijkijkjkljkljklklmklmijklmnjklijkklmjklhijklmijkijkjkljkljklklmklm": 8377,
      "hijklmijkghijklhijhijijkijkijkjkljklijkklmjklhijklmijkijkjkljklijkklmjkljklklmklm": 8378,
      "FRI": 8379,
      "at_end_of_": 8380,
      "licenses": 8381,
      "I8FMT": 8382,
      "time_total": 8383,
      "rosettacode": 8384,
      "required_time_total": 8385,
      "Distance": 8386,
      "CONSTANT": 8387,
      "instance": 8388,
      "COMPUTATION": 8389,
      "extracted": 8390,
      "fghijkghighihijhijhijijkijkijkjkljklghijklhijhijijkijkfghijkghighihijhijhijijkijkghijklhijghiijkhijhijijkijkijkjkljklhijklmijkhijjklijk": 8391,
      "find_centroids": 8392,
      "Announce": 8393,
      "Longest": 8394,
      "***************************************************************": 8395,
      "Queue": 8396,
      "Vacant": 8397,
      "Leonardone": 8398,
      "Verse": 8399,
      "DKASU": 8400,
      "LINPR": 8401,
      "histogram": 8402,
      "first_ava": 8403,
      "NEETSDKASU": 8404,
      "at_end_of_line": 8405,
      "!----------------": 8406,
      "!-----------------------------------------------------------------------": 8407,
      "'='": 8408,
      ")];": 8409,
      "+}": 8410,
      ".;": 8411,
      "/,": 8412,
      "1999": 8413,
      "2845": 8414,
      "419": 8415,
      "472": 8416,
      "513": 8417,
      "611": 8418,
      "6000": 8419,
      "9C": 8420,
      ":,": 8421,
      "A_": 8422,
      "Ab": 8423,
      "Ano": 8424,
      "AUT": 8425,
      "Any": 8426,
      "App": 8427,
      "CL": 8428,
      "DIC": 8429,
      "ECJCDD": 8430,
      "ELEMENT": 8431,
      "FIB": 8432,
      "GB": 8433,
      "Har": 8434,
      "HIT": 8435,
      "JU": 8436,
      "Lsorted": 8437,
      "Nhap": 8438,
      "Put": 8439,
      "RL_": 8440,
      "SAT": 8441,
      "Using": 8442,
      "Vmax": 8443,
      "Win": 8444,
      "]*(": 8445,
      "_G": 8446,
      "_variety": 8447,
      "_coin": 8448,
      "a6": 8449,
      "a7": 8450,
      "bla": 8451,
      "cen": 8452,
      "equ": 8453,
      "fan": 8454,
      "fcd": 8455,
      "gF": 8456,
      "gT": 8457,
      "hin": 8458,
      "hit": 8459,
      "ima": 8460,
      "lang": 8461,
      "mins": 8462,
      "nstr": 8463,
      "oon": 8464,
      "rcc": 8465,
      "t93": 8466,
      "whe": 8467,
      "w_max": 8468,
      "y4": 8469,
      "zum": 8470,
      "z_algorithm": 8471,
      "instr": 8472,
      "inner": 8473,
      "inality": 8474,
      "encode": 8475,
      "roo": 8476,
      "ro83": 8477,
      "gerous": 8478,
      "still": 8479,
      "secut": 8480,
      "arc0": 8481,
      "write_bishop": 8482,
      "))')": 8483,
      ")))%": 8484,
      "))/=": 8485,
      "9244": 8486,
      "9297": 8487,
      "mp86": 8488,
      "mp82": 8489,
      "isuu": 8490,
      "un85": 8491,
      "un83": 8492,
      "un86": 8493,
      "un73": 8494,
      "un76": 8495,
      "9117": 8496,
      "tol": 8497,
      "topo": 8498,
      "mari": 8499,
      "mod2": 8500,
      "INC": 8501,
      "019": 8502,
      "8499": 8503,
      "pee": 8504,
      "867": 8505,
      "8214": 8506,
      "8217": 8507,
      "8213": 8508,
      "cof": 8509,
      "8704": 8510,
      "9393": 8511,
      "9344": 8512,
      "cei": 8513,
      "1047": 8514,
      "1043": 8515,
      "8154": 8516,
      "iness": 8517,
      "nothing": 8518,
      "TOK": 8519,
      "10001": 8520,
      "opPR": 8521,
      "printast": 8522,
      "val0": 8523,
      "leng": 8524,
      "routines": 8525,
      "1681": 8526,
      "ve_": 8527,
      "ap84": 8528,
      "ap87": 8529,
      "max2": 8530,
      "1800": 8531,
      "1213": 8532,
      "console": 8533,
      "1516": 8534,
      "1526": 8535,
      "ISPRIME": 8536,
      "metic": 8537,
      "1356": 8538,
      "ALICE": 8539,
      "ul83": 8540,
      "divid": 8541,
      "min1": 8542,
      "0504": 8543,
      "('+',": 8544,
      "key2": 8545,
      "shall": 8546,
      "6610": 8547,
      "221": 8548,
      "2215": 8549,
      ")=(/": 8550,
      "word_al": 8551,
      "262": 8552,
      "233": 8553,
      "il86": 8554,
      "738": 8555,
      "7501": 8556,
      "2415": 8557,
      "259": 8558,
      "quake": 8559,
      "1117": 8560,
      "ABD": 8561,
      "9500": 8562,
      "633": 8563,
      "6330": 8564,
      "0493": 8565,
      "newuf": 8566,
      "942": 8567,
      "LATION": 8568,
      "setval1": 8569,
      "setval0": 8570,
      "2781": 8571,
      "2717": 8572,
      "DJDDDD": 8573,
      "ABC166": 8574,
      "ABC043": 8575,
      "358": 8576,
      "3565": 8577,
      "bit_a": 8578,
      "INPD": 8579,
      "sk87": 8580,
      "3466": 8581,
      "pq84": 8582,
      "pque": 8583,
      "addition": 8584,
      "_index_of": 8585,
      "971": 8586,
      "549": 8587,
      "3314": 8588,
      "logical_sort": 8589,
      "clear2": 8590,
      "disabl": 8591,
      "pos3": 8592,
      "7264": 8593,
      "gtk": 8594,
      "378": 8595,
      "3794": 8596,
      "s_bits_per_word": 8597,
      "s_attack_check": 8598,
      "fo88": 8599,
      "im64": 8600,
      "im54": 8601,
      "6216": 8602,
      "pi87": 8603,
      "starter": 8604,
      "mi83": 8605,
      "3199": 8606,
      "get_cycle": 8607,
      "dfs2": 8608,
      "abc110": 8609,
      "abc160": 8610,
      "abc161": 8611,
      "nn83": 8612,
      "DGCEJ": 8613,
      "ho86": 8614,
      "ences": 8615,
      "mod_queue": 8616,
      "mod_skip_list": 8617,
      "mod_fenwick_tree": 8618,
      "mod_bitset": 8619,
      "gcdfs": 8620,
      "index_of": 8621,
      "q84d": 8622,
      "q84n": 8623,
      "q84p": 8624,
      "q84y": 8625,
      "q83n": 8626,
      "q83p": 8627,
      "q83u": 8628,
      "q83z": 8629,
      "probC": 8630,
      "_node_variety": 8631,
      "calar": 8632,
      "q82p": 8633,
      "6113": 8634,
      "4963": 8635,
      "tsdfs": 8636,
      "pow1_1": 8637,
      ")\")\"": 8638,
      "l85j": 8639,
      "l85k": 8640,
      "l85q": 8641,
      "l85y": 8642,
      "l84d": 8643,
      "l84f": 8644,
      "l84k": 8645,
      "l84w": 8646,
      "l84z": 8647,
      "yo85": 8648,
      "yo82": 8649,
      "l86h": 8650,
      "l86j": 8651,
      "l86k": 8652,
      "l86v": 8653,
      "l86x": 8654,
      "hijklmijkijkjkljklijkklmjkl": 8655,
      "i_Fact": 8656,
      "l83w": 8657,
      "l83z": 8658,
      "view": 8659,
      "taskB": 8660,
      "l87j": 8661,
      "q81w": 8662,
      "q81x": 8663,
      "finally": 8664,
      "l82h": 8665,
      "l82v": 8666,
      "l82w": 8667,
      "l82x": 8668,
      "l82z": 8669,
      "ni84": 8670,
      "ni85": 8671,
      "ibdfs": 8672,
      "val_dimension": 8673,
      "val_height": 8674,
      "festi": 8675,
      "_satis": 8676,
      "weights": 8677,
      "GOOD": 8678,
      "DFDC": 8679,
      "gamma": 8680,
      "l88d": 8681,
      "l88f": 8682,
      "ki87": 8683,
      "'.'": 8684,
      "EJDCDD": 8685,
      "l81q": 8686,
      "l81y": 8687,
      "l81z": 8688,
      "_a_": 8689,
      "new_ssa": 8690,
      "running": 8691,
      "ko87": 8692,
      "ABC044": 8693,
      "qo81": 8694,
      "qi81": 8695,
      "000000000000": 8696,
      "train": 8697,
      "delicious": 8698,
      "address_bits_per_word": 8699,
      "...'": 8700,
      "EDGE": 8701,
      "and_not": 8702,
      "loadast": 8703,
      "closed": 8704,
      "next_d": 8705,
      "seg_tree": 8706,
      ")**(": 8707,
      "makeleaf": 8708,
      "ECDE": 8709,
      "matmul1": 8710,
      "2327": 8711,
      "floor_entry": 8712,
      "visit": 8713,
      "init_words": 8714,
      "calculate_gcd": 8715,
      "flip1": 8716,
      "TAU": 8717,
      "ABC156": 8718,
      "hijklmijkfghijkghighihijhijhijijkijkijkjkljklghijklhijhijijkijkfghijkghighihijhijhijijkijkghijklhijghiijkhijhijijkijkijkjkljklhijklmijkhijjklijk": 8719,
      "HTMLT": 8720,
      "letters": 8721,
      "avl_pointer_": 8722,
      "Working": 8723,
      "MainProc": 8724,
      "qary11": 8725,
      "cardinality": 8726,
      "B2ind": 8727,
      "klmnoplmnlmnmnomno": 8728,
      "debug": 8729,
      "KAZU": 8730,
      "ceiling_entry": 8731,
      "mod_tree_map": 8732,
      "sunuke": 8733,
      "vector_int64": 8734,
      "obj_self": 8735,
      "lst_update": 8736,
      "lst_query": 8737,
      "board_rotate": 8738,
      "mark": 8739,
      "fghijkghighihijhijhijijkijkijkjkljklghijklhijhijijkijkijkjkljkljklklmklmhijklmijkghijklhijhijijkijkijkjkljklijkklmjklhijklmijkijkjkljklijkklmjkljklklmklm": 8740,
      "selected_int_kind": 8741,
      "sccdfs1": 8742,
      "sccdfs2": 8743,
      "brick": 8744,
      "dangerous": 8745,
      "failure": 8746,
      "select_ssa": 8747,
      "num_point_all": 8748,
      "predicate": 8749,
      "access_ssa": 8750,
      "Generate": 8751,
      "FINISH": 8752,
      "FOUND": 8753,
      "PARTITION": 8754,
      "Negate": 8755,
      "progname": 8756,
      "viously": 8757,
      "Initialize": 8758,
      "intersects": 8759,
      "knapsack": 8760,
      "AUTHOR": 8761,
      "RL_R": 8762,
      "fcdfs": 8763,
      "topological_sort": 8764,
      "word_aligned": 8765,
      "bit_avaliable": 8766,
      "_satisfaction": 8767,
      "'/)": 8768,
      ")\")')": 8769,
      "388": 8770,
      "499": 8771,
      "488": 8772,
      "474": 8773,
      "6324": 8774,
      ":*)": 8775,
      "=:),": 8776,
      "=(/": 8777,
      ">')": 8778,
      ">\",": 8779,
      "AMO": 8780,
      "A11": 8781,
      "B0": 8782,
      "Call": 8783,
      "CFDD": 8784,
      "CGCCJ": 8785,
      "Fla": 8786,
      "FACE": 8787,
      "Func": 8788,
      "GLE": 8789,
      "GDDJ": 8790,
      "Guess": 8791,
      "KS": 8792,
      "Ke": 8793,
      "Ly": 8794,
      "Large": 8795,
      "Mi": 8796,
      "NER": 8797,
      "Ob": 8798,
      "Oh": 8799,
      "Pas": 8800,
      "Run": 8801,
      "Sk": 8802,
      "Sto": 8803,
      "Syn": 8804,
      "Use": 8805,
      "XX1": 8806,
      "_TEMP": 8807,
      "amin": 8808,
      "aite": 8809,
      "aLen": 8810,
      "burn": 8811,
      "ear": 8812,
      "euc": 8813,
      "gift": 8814,
      "hnm": 8815,
      "i8": 8816,
      "ien": 8817,
      "ide": 8818,
      "jen": 8819,
      "knight": 8820,
      "later": 8821,
      "ncol": 8822,
      "ound": 8823,
      "pnm": 8824,
      "pLen": 8825,
      "q_idx": 8826,
      "rences": 8827,
      "sleep": 8828,
      "tnm": 8829,
      "vnm": 8830,
      "xnm": 8831,
      "yan": 8832,
      "ymax": 8833,
      "redi": 8834,
      "ri86": 8835,
      "ints": 8836,
      "rad_": 8837,
      "rock": 8838,
      "sep": 8839,
      "anno": 8840,
      "archi": 8841,
      "929": 8842,
      "92c": 8843,
      "mpow": 8844,
      "ln81": 8845,
      "ln71": 8846,
      "jk81": 8847,
      "isho": 8848,
      "unic": 8849,
      "und_": 8850,
      "9105": 8851,
      "sur": 8852,
      "tour": 8853,
      "mass": 8854,
      "DDS": 8855,
      "9950": 8856,
      "INW": 8857,
      "8420": 8858,
      "85b": 8859,
      "85e": 8860,
      "8527": 8861,
      "8533": 8862,
      "forward": 8863,
      "8285": 8864,
      "8224": 8865,
      "sie": 8866,
      "sider": 8867,
      "destruct_": 8868,
      "876": 8869,
      "8746": 8870,
      "9332": 8871,
      "81x": 8872,
      "8185": 8873,
      "lable": 8874,
      "no81": 8875,
      "num2": 8876,
      "3294": 8877,
      "88c": 8878,
      "li87": 8879,
      "1683": 8880,
      "ap1": 8881,
      "appe": 8882,
      "maxs": 8883,
      "outfile": 8884,
      "lo88": 8885,
      "RAW": 8886,
      "8909": 8887,
      "1493": 8888,
      "2024": 8889,
      "2036": 8890,
      "summate": 8891,
      "1391": 8892,
      "1355": 8893,
      "fib": 8894,
      "min10": 8895,
      "dp88": 8896,
      "667": 8897,
      "6605": 8898,
      "6619": 8899,
      "4416": 8900,
      "trx": 8901,
      "2240": 8902,
      "1950": 8903,
      "267": 8904,
      "268": 8905,
      "2623": 8906,
      "2399": 8907,
      "2346": 8908,
      "234567": 8909,
      "7387": 8910,
      "759": 8911,
      "7584": 8912,
      "7544": 8913,
      "7573": 8914,
      "7533": 8915,
      "2434": 8916,
      "2460": 8917,
      "258": 8918,
      "2512": 8919,
      "\")\")',": 8920,
      "ARG": 8921,
      "_tree_": 8922,
      "957": 8923,
      "636": 8924,
      "6366": 8925,
      "CDDCCJ": 8926,
      "both": 8927,
      "bo82": 8928,
      "kind11x11": 8929,
      "279": 8930,
      "2703": 8931,
      "ABC124": 8932,
      "3577": 8933,
      "bit_": 8934,
      "ANGLE": 8935,
      "3424": 8936,
      "6714": 8937,
      "pq81": 8938,
      "9705": 8939,
      "9726": 8940,
      "5400": 8941,
      "906": 8942,
      "9086": 8943,
      "336": 8944,
      "3301": 8945,
      "9601": 8946,
      "9673": 8947,
      "eql": 8948,
      "account": 8949,
      "7291": 8950,
      "so88": 8951,
      "CCGC": 8952,
      "goes": 8953,
      "_for_input": 8954,
      "sq86": 8955,
      "628": 8956,
      "702": 8957,
      "3101": 8958,
      "get_next_": 8959,
      "fl87": 8960,
      "2884": 8961,
      "100000000": 8962,
      "2965": 8963,
      "gi82": 8964,
      "gi88": 8965,
      "flag1": 8966,
      "flag2": 8967,
      "ANS1": 8968,
      "nn84": 8969,
      "nn82": 8970,
      "iso_c": 8971,
      "ho81": 8972,
      "span": 8973,
      "q84e": 8974,
      "q84f": 8975,
      "q84m": 8976,
      "q83b": 8977,
      "q83e": 8978,
      "q83r": 8979,
      "q85c": 8980,
      "q85d": 8981,
      "q85e": 8982,
      "q85h": 8983,
      "q85m": 8984,
      "q85x": 8985,
      "7992": 8986,
      "is_open": 8987,
      "q82k": 8988,
      "q82n": 8989,
      "StrToInt": 8990,
      "bi87": 8991,
      "_binding": 8992,
      "l85b": 8993,
      "l85g": 8994,
      "l85l": 8995,
      "l85n": 8996,
      "l85r": 8997,
      "l85w": 8998,
      "l84g": 8999,
      "l84j": 9000,
      "l84n": 9001,
      "q86d": 9002,
      "q86g": 9003,
      "q86k": 9004,
      "yo81": 9005,
      "your": 9006,
      "7192": 9007,
      "l86b": 9008,
      "l86g": 9009,
      "l86l": 9010,
      "l86r": 9011,
      "l83d": 9012,
      "l83f": 9013,
      "l83k": 9014,
      "l83n": 9015,
      "vi81": 9016,
      "vi88": 9017,
      "quickly": 9018,
      "l87b": 9019,
      "l87k": 9020,
      "l87l": 9021,
      "l87r": 9022,
      "ized": 9023,
      "q81h": 9024,
      "q81v": 9025,
      "3882": 9026,
      "ni83": 9027,
      "ni86": 9028,
      "niven": 9029,
      "q87b": 9030,
      "ards": 9031,
      "jo82": 9032,
      "USER": 9033,
      "POKE": 9034,
      "ji83": 9035,
      "l88j": 9036,
      "Comple": 9037,
      "l81h": 9038,
      "l81v": 9039,
      "l81w": 9040,
      "l81x": 9041,
      "original": 9042,
      "ing_box": 9043,
      "----------------------------------------------------------------": 9044,
      "zi86": 9045,
      "CDJCDD": 9046,
      "mondai": 9047,
      "quicksort2": 9048,
      "ui87": 9049,
      "zo86": 9050,
      "deque_node": 9051,
      "xo87": 9052,
      "factors": 9053,
      "backwards": 9054,
      "WAY": 9055,
      "winning": 9056,
      "release_heap": 9057,
      "release_graph": 9058,
      "opening": 9059,
      "size_of_heap": 9060,
      "DIVIDE_TEMP": 9061,
      "ordinary": 9062,
      "trip": 9063,
      "trials": 9064,
      "DEDDDJ": 9065,
      "km55": 9066,
      "km54": 9067,
      "occurrences": 9068,
      "int32_mod": 9069,
      "add_edge": 9070,
      "c_ang": 9071,
      "+++": 9072,
      "Compare": 9073,
      "Compute": 9074,
      "increase_level": 9075,
      "tens": 9076,
      "nopmno": 9077,
      "remains": 9078,
      "namecmax": 9079,
      "6757": 9080,
      "SizeOf": 9081,
      "_constructor": 9082,
      "Rosetta": 9083,
      "follows": 9084,
      "'-')": 9085,
      "since": 9086,
      "INFO": 9087,
      "factorization": 9088,
      "Julian": 9089,
      "!******************************************************************************": 9090,
      "Hopefully": 9091,
      "INTERFACE": 9092,
      "fghijkghighihijhijefghijfghfghghighighihijhijfghijkghifghhijghighihijhijhijijkijkghijklhijghiijkhij": 9093,
      "defghiefgefgfghfghfghghighighihijhijefghijfgh": 9094,
      "vector_int32_mod": 9095,
      "11111111": 9096,
      "HEAD": 9097,
      "^^^^": 9098,
      "val_coordinate_min": 9099,
      "make_internal": 9100,
      "readings": 9101,
      "writing": 9102,
      "Chosen": 9103,
      "osite": 9104,
      "mediate": 9105,
      "vm_code_t": 9106,
      "heapsort_up": 9107,
      "tape_ahead": 9108,
      "defghiefgefgfghfghfghghighifghhijghiefghijfghfghghighighihijhijghiijkhijfghijkghiefghijfghfghghighighihijhijghiijkhijfghijkghighihijhij": 9109,
      "sequential": 9110,
      "RANDOM_NUMBER": 9111,
      "cdefghdefdefefgefgefgfghfghfghghighidefghiefgefgfghfghfghghighighihijhijefghijfgh": 9112,
      "vailable": 9113,
      "ishotb": 9114,
      "happen": 9115,
      "unionfind": 9116,
      "Another": 9117,
      "secutive": 9118,
      "AMOUNT": 9119,
      "get_next_ch": 9120,
      "iso_c_binding": 9121,
      "make_internal_node": 9122,
      "'\"": 9123,
      "'])": 9124,
      "025": 9125,
      "094": 9126,
      "589": 9127,
      "597": 9128,
      "60000": 9129,
      "6163": 9130,
      "90000": 9131,
      ":('": 9132,
      "Are": 9133,
      "AMPLE": 9134,
      "CM": 9135,
      "CAT": 9136,
      "Clas": 9137,
      "DB": 9138,
      "DX": 9139,
      "Dum": 9140,
      "DBLE": 9141,
      "E2": 9142,
      "Ele": 9143,
      "Eof": 9144,
      "F1": 9145,
      "F7": 9146,
      "FCDC": 9147,
      "FPC": 9148,
      "I6": 9149,
      "K1": 9150,
      "L3": 9151,
      "LAR": 9152,
      "MAT": 9153,
      "MIST": 9154,
      "MLINE": 9155,
      "NF": 9156,
      "RL": 9157,
      "Ser": 9158,
      "Sho": 9159,
      "SWA": 9160,
      "Stop": 9161,
      "TEN": 9162,
      "TInt": 9163,
      "V999": 9164,
      "[\"": 9165,
      "_3": 9166,
      "_to": 9167,
      "_weight": 9168,
      "_comm": 9169,
      "_problem": 9170,
      "around": 9171,
      "available": 9172,
      "b_to_": 9173,
      "caddi": 9174,
      "e2": 9175,
      "een": 9176,
      "eth": 9177,
      "eel": 9178,
      "e93": 9179,
      "fon": 9180,
      "fel": 9181,
      "fcolor": 9182,
      "f169": 9183,
      "hen": 9184,
      "hsort": 9185,
      "hnums": 9186,
      "i6": 9187,
      "i10": 9188,
      "imin": 9189,
      "jel": 9190,
      "jpos": 9191,
      "kon": 9192,
      "kan": 9193,
      "kill": 9194,
      "late": 9195,
      "mSort": 9196,
      "made": 9197,
      "nRead": 9198,
      "oin": 9199,
      "oen": 9200,
      "oan": 9201,
      "oto": 9202,
      "oel": 9203,
      "r207": 9204,
      "r_simple": 9205,
      "slen": 9206,
      "scount": 9207,
      "tal": 9208,
      "uin": 9209,
      "uen": 9210,
      "uon": 9211,
      "uage": 9212,
      "wins": 9213,
      "xin": 9214,
      "xan": 9215,
      "z93": 9216,
      "||": 9217,
      "rel": 9218,
      "thub": 9219,
      "door": 9220,
      "do82": 9221,
      "docs": 9222,
      "alindrome": 9223,
      "ri85": 9224,
      "ri87": 9225,
      "int_max": 9226,
      "ro88": 9227,
      "integers_": 9228,
      "sttmp": 9229,
      "stas": 9230,
      "lection": 9231,
      "))>": 9232,
      "reads": 9233,
      "oding": 9234,
      "proced": 9235,
      "92i": 9236,
      "mp87": 9237,
      "mp81": 9238,
      "lname": 9239,
      "9125": 9240,
      "DDDJ": 9241,
      "99612": 9242,
      "INV": 9243,
      "INp": 9244,
      "848": 9245,
      "84e": 9246,
      "85f": 9247,
      "85h": 9248,
      "8555": 9249,
      "chmin": 9250,
      "8385": 9251,
      "8332": 9252,
      "8355": 9253,
      "8304": 9254,
      "869": 9255,
      "8615": 9256,
      "8634": 9257,
      "82h": 9258,
      "sil": 9259,
      "si82": 9260,
      "detail": 9261,
      "8792": 9262,
      "8774": 9263,
      "8794": 9264,
      "9301": 9265,
      "9355": 9266,
      "1025": 9267,
      "1034": 9268,
      "resh": 9269,
      "6414": 9270,
      "')+": 9271,
      "8164": 9272,
      "8174": 9273,
      "t_token": 9274,
      "nok": 9275,
      "no87": 9276,
      "num_nodes": 9277,
      "subtree": 9278,
      "sub_r": 9279,
      "ingredi": 9280,
      "lens": 9281,
      "external": 9282,
      "pose": 9283,
      "ap83": 9284,
      "maxp": 9285,
      "DCDEDD": 9286,
      "tmpi": 9287,
      "1222": 9288,
      "1233": 9289,
      "ck82": 9290,
      "node_A": 9291,
      "1466": 9292,
      "208": 9293,
      "1392": 9294,
      "div_r": 9295,
      "pation": 9296,
      "7777": 9297,
      "7704": 9298,
      "054": 9299,
      "037": 9300,
      "key1": 9301,
      "551": 9302,
      "6684": 9303,
      "6656": 9304,
      "66925": 9305,
      "mo81": 9306,
      "4406": 9307,
      "1987": 9308,
      "1962": 9309,
      "261": 9310,
      "2694": 9311,
      "2634": 9312,
      "2696": 9313,
      "2344": 9314,
      "7345": 9315,
      "fa29": 9316,
      "746": 9317,
      "7400": 9318,
      "7426": 9319,
      "7490": 9320,
      "mdr": 9321,
      ")',-": 9322,
      "ARR": 9323,
      "1191": 9324,
      "1101": 9325,
      "1115": 9326,
      "9533": 9327,
      "6369": 9328,
      "0435": 9329,
      "ATAN": 9330,
      "CDDF": 9331,
      "9415": 9332,
      "length1": 9333,
      "edtmp": 9334,
      "bo88": 9335,
      "sets": 9336,
      "276": 9337,
      "=''": 9338,
      "ABC119": 9339,
      "ABC042": 9340,
      "3547": 9341,
      "ILER": 9342,
      "old_": 9343,
      "3485": 9344,
      "3460": 9345,
      "6784": 9346,
      "say": 9347,
      "8092": 9348,
      "547": 9349,
      "5430": 9350,
      "2115": 9351,
      "9092": 9352,
      "CJDDDC": 9353,
      "3392": 9354,
      "DUP": 9355,
      "parameters": 9356,
      "7692": 9357,
      "7200": 9358,
      "7277": 9359,
      "4582": 9360,
      "go81": 9361,
      "go88": 9362,
      "wi87": 9363,
      "3695": 9364,
      "testing": 9365,
      "wn86": 9366,
      "s_simple": 9367,
      "foo": 9368,
      "pixel": 9369,
      "cp83": 9370,
      "mi88": 9371,
      "3191": 9372,
      "get_ch": 9373,
      "dfs1": 9374,
      "compu": 9375,
      "CTR": 9376,
      "github": 9377,
      "ANSI": 9378,
      "swapc": 9379,
      "hope": 9380,
      "multi": 9381,
      "mul_r": 9382,
      "outputter": 9383,
      "filesize": 9384,
      "sm87": 9385,
      "ip85": 9386,
      "ip86": 9387,
      "wo87": 9388,
      "q84c": 9389,
      "q84o": 9390,
      "q84q": 9391,
      "q84w": 9392,
      "q83m": 9393,
      "q83o": 9394,
      "probB": 9395,
      "bl87": 9396,
      "Real": 9397,
      "q85f": 9398,
      "q85i": 9399,
      "q85o": 9400,
      "q85t": 9401,
      "q85v": 9402,
      "token_name": 9403,
      "is_add": 9404,
      "INED": 9405,
      "q82g": 9406,
      "veling": 9407,
      "biri": 9408,
      "l85o": 9409,
      "l85p": 9410,
      "1_INT16": 9411,
      "l84b": 9412,
      "l84l": 9413,
      "l84o": 9414,
      "l84p": 9415,
      "l84r": 9416,
      "q86c": 9417,
      "q86f": 9418,
      "q86i": 9419,
      "4191": 9420,
      "ASCI": 9421,
      "l86n": 9422,
      "l86o": 9423,
      "num_land": 9424,
      "num_question": 9425,
      "num_integers_": 9426,
      "i_ch": 9427,
      "5963": 9428,
      "l83g": 9429,
      "l83j": 9430,
      "l83p": 9431,
      "xor0": 9432,
      "task_D": 9433,
      "etch": 9434,
      "l87g": 9435,
      "q81p": 9436,
      "l82k": 9437,
      "l82n": 9438,
      "ni82": 9439,
      "q87c": 9440,
      "q87i": 9441,
      "q87r": 9442,
      "_tree_t": 9443,
      "EXCE": 9444,
      "EXAMPLE": 9445,
      "_snu": 9446,
      "POSU": 9447,
      "assign_": 9448,
      "l88b": 9449,
      "l88l": 9450,
      "l88r": 9451,
      "_____": 9452,
[...]
