{
  "version": "1.0",
  "truncation": null,
  "padding": null,
  "added_tokens": [
    {
      "id": 0,
      "content": "<pad>",
      "single_word": false,
      "lstrip": false,
      "rstrip": false,
      "normalized": false,
      "special": true
    },
    {
      "id": 1,
      "content": "<s>",
      "single_word": false,
      "lstrip": false,
      "rstrip": false,
      "normalized": false,
      "special": true
    },
    {
      "id": 2,
      "content": "</s>",
      "single_word": false,
      "lstrip": false,
      "rstrip": false,
      "normalized": false,
      "special": true
    },
    {
      "id": 3,
      "content": "<unk>",
      "single_word": false,
      "lstrip": false,
      "rstrip": false,
      "normalized": false,
      "special": true
    },
    {
      "id": 4,
      "content": "<mask>",
      "single_word": false,
      "lstrip": false,
      "rstrip": false,
      "normalized": false,
      "special": true
    }
  ],
  "normalizer": null,
  "pre_tokenizer": {
    "type": "Whitespace"
  },
  "post_processor": null,
  "decoder": null,
  "model": {
    "type": "BPE",
    "dropout": null,
    "unk_token": null,
    "continuing_subword_prefix": null,
    "end_of_word_suffix": null,
    "fuse_unk": false,
    "byte_fallback": false,
    "ignore_merges": false,
    "vocab": {
      "<pad>": 0,
      "<s>": 1,
      "</s>": 2,
      "<unk>": 3,
      "<mask>": 4,
      "!": 5,
      "\"": 6,
      "#": 7,
      "$": 8,
      "%": 9,
      "&": 10,
      "'": 11,
      "(": 12,
      ")": 13,
      "*": 14,
      "+": 15,
      ",": 16,
      "-": 17,
      ".": 18,
      "/": 19,
      "0": 20,
      "1": 21,
      "2": 22,
      "3": 23,
      "4": 24,
      "5": 25,
      "6": 26,
      "7": 27,
      "8": 28,
      "9": 29,
      ":": 30,
      ";": 31,
      "<": 32,
      "=": 33,
      ">": 34,
      "?": 35,
      "@": 36,
      "A": 37,
      "B": 38,
      "C": 39,
      "D": 40,
      "E": 41,
      "F": 42,
      "G": 43,
      "H": 44,
      "I": 45,
      "J": 46,
      "K": 47,
      "L": 48,
      "M": 49,
      "N": 50,
      "O": 51,
      "P": 52,
      "Q": 53,
      "R": 54,
      "S": 55,
      "T": 56,
      "U": 57,
      "V": 58,
      "W": 59,
      "X": 60,
      "Y": 61,
      "Z": 62,
      "[": 63,
      "\\": 64,
      "]": 65,
      "^": 66,
      "_": 67,
      "`": 68,
      "a": 69,
      "b": 70,
      "c": 71,
      "d": 72,
      "e": 73,
      "f": 74,
      "g": 75,
      "h": 76,
      "i": 77,
      "j": 78,
      "k": 79,
      "l": 80,
      "m": 81,
      "n": 82,
      "o": 83,
      "p": 84,
      "q": 85,
      "r": 86,
      "s": 87,
      "t": 88,
      "u": 89,
      "v": 90,
      "w": 91,
      "x": 92,
      "y": 93,
      "z": 94,
      "{": 95,
      "|": 96,
      "}": 97,
      "~": 98,
      "¡": 99,
      "¢": 100,
      "£": 101,
      "¨": 102,
      "°": 103,
      "±": 104,
      "²": 105,
      "´": 106,
      "·": 107,
      "×": 108,
      "á": 109,
      "ö": 110,
      "÷": 111,
      "ø": 112,
      "π": 113,
      "‑": 114,
      "‘": 115,
      "’": 116,
      "“": 117,
      "”": 118,
      "…": 119,
      "ℤ": 120,
      "≤": 121,
      "─": 122,
      "│": 123,
      "♀": 124,
      "♂": 125,
      "in": 126,
      "te": 127,
      "en": 128,
      "**": 129,
      "er": 130,
      "al": 131,
      "on": 132,
      "st": 133,
      "ar": 134,
      "or": 135,
      "th": 136,
      "re": 137,
      "****": 138,
      "le": 139,
      "--": 140,
      "an": 141,
      "ti": 142,
      "::": 143,
      "se": 144,
      "ou": 145,
      "end": 146,
      "is": 147,
      "de": 148,
      "inte": 149,
      "IN": 150,
      "to": 151,
      "ic": 152,
      "ac": 153,
      "ri": 154,
      "TE": 155,
      "ing": 156,
      "EN": 157,
      "if": 158,
      "tion": 159,
      "ro": 160,
      "at": 161,
      "ter": 162,
      "ch": 163,
      "am": 164,
      "ON": 165,
      "no": 166,
      "un": 167,
      "it": 168,
      "all": 169,
      "co": 170,
      "um": 171,
      "********": 172,
      "the": 173,
      "ger": 174,
      "00": 175,
      "==": 176,
      "----": 177,
      "),": 178,
      "ER": 179,
      "integer": 180,
      "do": 181,
      "nt": 182,
      "str": 183,
      "for": 184,
      "ve": 185,
      "out": 186,
      "mo": 187,
      "su": 188,
      "OR": 189,
      "ay": 190,
      "ad": 191,
      "si": 192,
      "AL": 193,
      "))": 194,
      "pu": 195,
      "ION": 196,
      "ce": 197,
      "ue": 198,
      "ine": 199,
      "val": 200,
      "\",": 201,
      "as": 202,
      "IS": 203,
      "pl": 204,
      "IC": 205,
      "ge": 206,
      "ate": 207,
      "END": 208,
      "01": 209,
      "di": 210,
      "AR": 211,
      "ent": 212,
      "pro": 213,
      "call": 214,
      "int": 215,
      "rite": 216,
      "fi": 217,
      "num": 218,
      "IF": 219,
      "write": 220,
      "ction": 221,
      "of": 222,
      "pe": 223,
      "char": 224,
      "RO": 225,
      "op": 226,
      "*,": 227,
      "ab": 228,
      "ex": 229,
      "SE": 230,
      "RE": 231,
      "ST": 232,
      "lo": 233,
      "len": 234,
      "99": 235,
      "po": 236,
      "par": 237,
      "and": 238,
      "me": 239,
      "ind": 240,
      "gr": 241,
      "move": 242,
      "put": 243,
      "ame": 244,
      "per": 245,
      "value": 246,
      "pic": 247,
      "ur": 248,
      "CT": 249,
      "ty": 250,
      "AT": 251,
      "(*,": 252,
      "PIC": 253,
      "br": 254,
      "****************": 255,
      "TO": 256,
      "fun": 257,
      "tr": 258,
      "im": 259,
      "UN": 260,
      "--------": 261,
      "gram": 262,
      "function": 263,
      "us": 264,
      "\")": 265,
      "ll": 266,
      "intent": 267,
      "form": 268,
      "he": 269,
      "con": 270,
      "')": 271,
      "DI": 272,
      "10": 273,
      "then": 274,
      "bu": 275,
      "ber": 276,
      "INTE": 277,
      "FOR": 278,
      "ma": 279,
      "ne": 280,
      "program": 281,
      "be": 282,
      "ord": 283,
      "by": 284,
      "ation": 285,
      "LE": 286,
      "dis": 287,
      "mp": 288,
      "one": 289,
      "gh": 290,
      "kind": 291,
      "el": 292,
      "t_": 293,
      "outine": 294,
      "ck": 295,
      "acter": 296,
      "DO": 297,
      "wh": 298,
      "RI": 299,
      "ack": 300,
      "====": 301,
      "character": 302,
      "type": 303,
      "play": 304,
      ").": 305,
      "subr": 306,
      "number": 307,
      "ze": 308,
      "subroutine": 309,
      "TH": 310,
      "du": 311,
      "INTEG": 312,
      "',": 313,
      "FORM": 314,
      "id": 315,
      "INTEGER": 316,
      "RA": 317,
      "perform": 318,
      "buf": 319,
      "code": 320,
      "lt": 321,
      "ING": 322,
      "CTION": 323,
      "display": 324,
      "CO": 325,
      "ase": 326,
      "UT": 327,
      "node": 328,
      "age": 329,
      "MO": 330,
      "ol": 331,
      "able": 332,
      "ss": 333,
      "ast": 334,
      "ace": 335,
      "AC": 336,
      "IT": 337,
      "oc": 338,
      "cou": 339,
      "ed": 340,
      "03": 341,
      "05": 342,
      "string": 343,
      "input": 344,
      "line": 345,
      "DIV": 346,
      "__": 347,
      "sp": 348,
      "*>": 349,
      "ins": 350,
      "PRO": 351,
      "'(": 352,
      "VE": 353,
      "wi": 354,
      "MP": 355,
      "nd": 356,
      "vm": 357,
      "ct": 358,
      "rom": 359,
      "AY": 360,
      "_t": 361,
      "size": 362,
      "ameter": 363,
      "pr": 364,
      "TER": 365,
      "strbuf": 366,
      "AN": 367,
      "UE": 368,
      "ISION": 369,
      "*)": 370,
      "file": 371,
      "ment": 372,
      "PER": 373,
      "parameter": 374,
      "ALL": 375,
      "div": 376,
      "ver": 377,
      "ID": 378,
      "ion": 379,
      "else": 380,
      "ME": 381,
      "from": 382,
      "DIVISION": 383,
      "ken": 384,
      "com": 385,
      "cur": 386,
      "not": 387,
      "WRI": 388,
      "err": 389,
      "sult": 390,
      "//": 391,
      "sh": 392,
      "VAL": 393,
      "var": 394,
      "il": 395,
      "ap": 396,
      "WRITE": 397,
      "ted": 398,
      "ass": 399,
      "PL": 400,
      "count": 401,
      "PERFORM": 402,
      "ta": 403,
      "AD": 404,
      "qu": 405,
      "ision": 406,
      "The": 407,
      "case": 408,
      "token": 409,
      "100": 410,
      "INE": 411,
      "SU": 412,
      "dat": 413,
      "pre": 414,
      "ance": 415,
      "ENT": 416,
      "CH": 417,
      "inter": 418,
      "arr": 419,
      "gth": 420,
      "real": 421,
      "result": 422,
      "es": 423,
      "GRA": 424,
      "GE": 425,
      "MOVE": 426,
      "space": 427,
      "ly": 428,
      "unit": 429,
      "add": 430,
      "plic": 431,
      "length": 432,
      "IL": 433,
      "sy": 434,
      "ght": 435,
      "12": 436,
      "ther": 437,
      "VALUE": 438,
      "DE": 439,
      "use": 440,
      "data": 441,
      "CE": 442,
      "----------------": 443,
      "division": 444,
      "with": 445,
      "stack": 446,
      "alloc": 447,
      "li": 448,
      "max": 449,
      "DIS": 450,
      "error": 451,
      "FUN": 452,
      "..": 453,
      "this": 454,
      "AS": 455,
      "bl": 456,
      "are": 457,
      "PLAY": 458,
      "DISPLAY": 459,
      "xt": 460,
      "In": 461,
      "11": 462,
      "FUNCTION": 463,
      "stat": 464,
      "_no": 465,
      "CALL": 466,
      "********************************": 467,
      "read": 468,
      "(\"": 469,
      "adv": 470,
      "UM": 471,
      "GRAM": 472,
      "when": 473,
      "we": 474,
      "sion": 475,
      "plicit": 476,
      "ft": 477,
      "PROGRAM": 478,
      "========": 479,
      "none": 480,
      "WS": 481,
      "LO": 482,
      "dex": 483,
      "col": 484,
      "so": 485,
      "OP": 486,
      "print": 487,
      "Th": 488,
      "ke": 489,
      "implicit": 490,
      "ret": 491,
      "array": 492,
      "UR": 493,
      "ir": 494,
      "32": 495,
      "up": 496,
      "proce": 497,
      "ary": 498,
      "pri": 499,
      "set": 500,
      "BY": 501,
      "ul": 502,
      "Re": 503,
      "word": 504,
      "star": 505,
      "output": 506,
      "\".": 507,
      "COMP": 508,
      "tri": 509,
      "ator": 510,
      "urn": 511,
      "using": 512,
      "20": 513,
      "SUB": 514,
      "(:": 515,
      "\"(": 516,
      "cl": 517,
      "bo": 518,
      "dure": 519,
      "CHAR": 520,
      "ard": 521,
      "index": 522,
      "ow": 523,
      "node_": 524,
      "mt": 525,
      "our": 526,
      "ound": 527,
      "procedure": 528,
      "stor": 529,
      "ort": 530,
      "NUM": 531,
      "name": 532,
      "arg": 533,
      "ile": 534,
      "I0": 535,
      "new": 536,
      "modu": 537,
      "SECTION": 538,
      "blic": 539,
      "US": 540,
      "THEN": 541,
      "ext": 542,
      "DU": 543,
      "day": 544,
      "pos": 545,
      "byte": 546,
      "i_": 547,
      "public": 548,
      "min": 549,
      "left": 550,
      "(*,*)": 551,
      "GO": 552,
      "act": 553,
      "test": 554,
      "FI": 555,
      "OUT": 556,
      "0000": 557,
      "advance": 558,
      "nk": 559,
      "rent": 560,
      "git": 561,
      "conta": 562,
      "ATION": 563,
      "UNT": 564,
      "ple": 565,
      "cord": 566,
      "k_": 567,
      "SI": 568,
      "AGE": 569,
      "return": 570,
      "fer": 571,
      "start": 572,
      "comp": 573,
      "ran": 574,
      "et": 575,
      "ACTER": 576,
      "vari": 577,
      "CHARACTER": 578,
      "lim": 579,
      "wor": 580,
      "contains": 581,
      "men": 582,
      "module": 583,
      "999": 584,
      "PAR": 585,
      "low": 586,
      "FORMAT": 587,
      "____": 588,
      "gn": 589,
      "storage": 590,
      "text": 591,
      "def": 592,
      "log": 593,
      "res": 594,
      "digit": 595,
      ");": 596,
      "CON": 597,
      "XT": 598,
      "SP": 599,
      "ree": 600,
      "lon": 601,
      "ROM": 602,
      "point": 603,
      "allocate": 604,
      "trim": 605,
      "ot": 606,
      ")')": 607,
      "ite": 608,
      "od": 609,
      "lex": 610,
      "AME": 611,
      "next": 612,
      "right": 613,
      ":=": 614,
      "FROM": 615,
      "til": 616,
      "ROUT": 617,
      "current": 618,
      "SUBROUT": 619,
      "SUBROUTINE": 620,
      "=>": 621,
      "ere": 622,
      "ded": 623,
      "ATA": 624,
      "che": 625,
      "_unit": 626,
      "sele": 627,
      "dimen": 628,
      "dimension": 629,
      "ut": 630,
      "ical": 631,
      "that": 632,
      "WOR": 633,
      "ha": 634,
      "DATA": 635,
      "MS": 636,
      "ull": 637,
      "get": 638,
      "88": 639,
      "ence": 640,
      "check": 641,
      "ry": 642,
      "EL": 643,
      "go": 644,
      "work": 645,
      "until": 646,
      "'(\"": 647,
      "16": 648,
      "So": 649,
      "gen": 650,
      "='": 651,
      "NO": 652,
      "date": 653,
      "gin": 654,
      "sum": 655,
      "enti": 656,
      "ld": 657,
      "time": 658,
      "section": 659,
      "logical": 660,
      "bin": 661,
      "stop": 662,
      "class": 663,
      "bytes": 664,
      "ode": 665,
      "fmt": 666,
      "har": 667,
      "fill": 668,
      "iv": 669,
      "get_": 670,
      "ele": 671,
      "LT": 672,
      "sc": 673,
      "PROCE": 674,
      "pointer": 675,
      "ATE": 676,
      "ARY": 677,
      "mod": 678,
      "'.": 679,
      "15": 680,
      "inout": 681,
      "temp": 682,
      "usage": 683,
      "UNTIL": 684,
      "ff": 685,
      "ble": 686,
      "##": 687,
      "64": 688,
      "run": 689,
      "QU": 690,
      "rins": 691,
      "rinsic": 692,
      "rc": 693,
      "ero": 694,
      "tran": 695,
      "MSG": 696,
      "=\"": 697,
      "back": 698,
      "p_": 699,
      "DURE": 700,
      "select": 701,
      "ELSE": 702,
      "PROCEDURE": 703,
      ",\"": 704,
      "intrinsic": 705,
      "MA": 706,
      "av": 707,
      "mat": 708,
      "erator": 709,
      "record": 710,
      "ck_": 711,
      "status": 712,
      "ying": 713,
      "row": 714,
      "list": 715,
      "ish": 716,
      "66": 717,
      "ZE": 718,
      "true": 719,
      "numbers": 720,
      "ACK": 721,
      "13": 722,
      "ress": 723,
      "bol": 724,
      "ize": 725,
      ".\"": 726,
      "CUR": 727,
      "zero": 728,
      "TEXT": 729,
      "sub": 730,
      "chars": 731,
      "Pr": 732,
      "cal": 733,
      "INT": 734,
      "long": 735,
      "element": 736,
      "than": 737,
      "ample": 738,
      "()": 739,
      "ASH": 740,
      "25": 741,
      "rst": 742,
      "IST": 743,
      "non": 744,
      "binary": 745,
      "exit": 746,
      "FILE": 747,
      "other": 748,
      "\",\"": 749,
      "pute": 750,
      "ight": 751,
      "dom": 752,
      "This": 753,
      "eq": 754,
      "STOR": 755,
      "/=": 756,
      "ho": 757,
      "sym": 758,
      "PO": 759,
      "ADD": 760,
      "table": 761,
      "only": 762,
      "address": 763,
      "--------------------------------": 764,
      "('": 765,
      ")\")": 766,
      "\\\\": 767,
      "ant": 768,
      "prime": 769,
      "filler": 770,
      "mas": 771,
      "begin": 772,
      "alse": 773,
      ")))": 774,
      "first": 775,
      "EX": 776,
      "varying": 777,
      "PUT": 778,
      "34": 779,
      "AB": 780,
      "ICATION": 781,
      "key": 782,
      "24": 783,
      "s_": 784,
      "state": 785,
      "found": 786,
      "pt": 787,
      "to_": 788,
      "compute": 789,
      "Co": 790,
      "Str": 791,
      "mon": 792,
      "tk_": 793,
      "sw": 794,
      "atable": 795,
      "IDENT": 796,
      "pec": 797,
      "expr": 798,
      "NE": 799,
      "ok": 800,
      "IFICATION": 801,
      "vm_": 802,
      "IDENTIFICATION": 803,
      "bal": 804,
      "ough": 805,
      "14": 806,
      "================": 807,
      "WORK": 808,
      "STORAGE": 809,
      "bit": 810,
      "any": 811,
      "As": 812,
      "TR": 813,
      "(/": 814,
      "igh": 815,
      "tive": 816,
      "opcode": 817,
      "LINE": 818,
      "OF": 819,
      "pass": 820,
      "rik": 821,
      "au": 822,
      "ms": 823,
      "ang": 824,
      "idx": 825,
      ",*)": 826,
      "qual": 827,
      "allocatable": 828,
      "For": 829,
      "GT": 830,
      "false": 831,
      "ki": 832,
      "cell": 833,
      "open": 834,
      "SIZE": 835,
      "St": 836,
      "dst": 837,
      "ear": 838,
      "\")')": 839,
      "into": 840,
      "sure": 841,
      "REAL": 842,
      "af": 843,
      "identi": 844,
      "ILL": 845,
      "77": 846,
      "_char": 847,
      "ag": 848,
      "nter": 849,
      "i_vm": 850,
      "*),": 851,
      "_t_": 852,
      "mor": 853,
      "TI": 854,
      "my": 855,
      "sort": 856,
      "COMPU": 857,
      "symbol": 858,
      "!!": 859,
      "30": 860,
      "STASH": 861,
      "VARY": 862,
      "cre": 863,
      "eval": 864,
      "mu": 865,
      "VARYING": 866,
      "mul": 867,
      "er_": 868,
      "ASE": 869,
      "ZZ": 870,
      "18": 871,
      "cnt": 872,
      "io": 873,
      "tw": 874,
      "...": 875,
      "fic": 876,
      "ally": 877,
      "sign": 878,
      "FF": 879,
      "cle": 880,
      "000": 881,
      "parse": 882,
      "And": 883,
      "PR": 884,
      "can": 885,
      "has": 886,
      "ws": 887,
      "COMPUTE": 888,
      "ED": 889,
      "LEN": 890,
      "No": 891,
      "pres": 892,
      "AMETER": 893,
      "Print": 894,
      "evalu": 895,
      "NT": 896,
      "ensure": 897,
      "ument": 898,
      "random": 899,
      "ini": 900,
      "spaces": 901,
      "PARAMETER": 902,
      "PE": 903,
      "umn": 904,
      "REC": 905,
      ":)": 906,
      "values": 907,
      "column": 908,
      "02": 909,
      "while": 910,
      "show": 911,
      "*(": 912,
      "RY": 913,
      "_node": 914,
      "variable": 915,
      "avl": 916,
      "''": 917,
      "_line": 918,
      "tions": 919,
      "cont": 920,
      "Inte": 921,
      "ste": 922,
      "ENTRY": 923,
      ")/": 924,
      "GIT": 925,
      "PRI": 926,
      "READ": 927,
      "DIGIT": 928,
      "COL": 929,
      "some": 930,
      "WORKING": 931,
      "evaluate": 932,
      "TA": 933,
      "_size": 934,
      "STOP": 935,
      "buffer": 936,
      "ACE": 937,
      "DAY": 938,
      "FILL": 939,
      "anch": 940,
      "branch": 941,
      "occur": 942,
      "WH": 943,
      "ski": 944,
      "ould": 945,
      "ensure_": 946,
      "If": 947,
      "txt": 948,
      "ated": 949,
      "CTOR": 950,
      "order": 951,
      "FILLER": 952,
      "<=": 953,
      "IX": 954,
      "year": 955,
      "tra": 956,
      "fication": 957,
      "WB": 958,
      "src": 959,
      "board": 960,
      "LA": 961,
      "mess": 962,
      "MAX": 963,
      "Integer": 964,
      "TY": 965,
      "STR": 966,
      "PRIME": 967,
      "done": 968,
      "n_": 969,
      "head": 970,
      "will": 971,
      "Con": 972,
      "ist": 973,
      "ks": 974,
      "tial": 975,
      "ational": 976,
      "(:)": 977,
      "EQ": 978,
      "HT": 979,
      "Pro": 980,
      "pi": 981,
      "main": 982,
      "MOD": 983,
      "AND": 984,
      "identification": 985,
      "/)": 986,
      "31": 987,
      "d0": 988,
      "ety": 989,
      "sol": 990,
      "vi": 991,
      "fortran": 992,
      "argument": 993,
      "ault": 994,
      "((": 995,
      "L2": 996,
      "WC": 997,
      "clo": 998,
      "','": 999,
      "ITE": 1000,
      "ous": 1001,
      "default": 1002,
      "pend": 1003,
      "node_vari": 1004,
      "node_variety": 1005,
      "ven": 1006,
      "env": 1007,
      "anc": 1008,
      "valid": 1009,
      "unit_no": 1010,
      "_kind": 1011,
      "face": 1012,
      "rr": 1013,
      "outp": 1014,
      "19": 1015,
      "De": 1016,
      "OL": 1017,
      "base": 1018,
      "9999": 1019,
      "interface": 1020,
      "message": 1021,
      "_ne": 1022,
      "ater": 1023,
      "vate": 1024,
      "stru": 1025,
      "posi": 1026,
      "py": 1027,
      "dic": 1028,
      "inputter": 1029,
      "private": 1030,
      "actor": 1031,
      "22": 1032,
      "200": 1033,
      "Num": 1034,
      "eof": 1035,
      "ach": 1036,
      "verse": 1037,
      ">=": 1038,
      "(.": 1039,
      "em": 1040,
      "oo": 1041,
      "que": 1042,
      "is_": 1043,
      "occurs": 1044,
      "78": 1045,
      "TRI": 1046,
      "tal": 1047,
      "dow": 1048,
      "entry": 1049,
      "int32": 1050,
      "eld": 1051,
      "USING": 1052,
      "working": 1053,
      "rational": 1054,
      "les": 1055,
      "ouble": 1056,
      "there": 1057,
      ")%": 1058,
      "1_": 1059,
      "FA": 1060,
      "IM": 1061,
      "OC": 1062,
      "eded": 1063,
      "o_": 1064,
      "tree": 1065,
      "t_branch": 1066,
      "area": 1067,
      "(:,": 1068,
      "String": 1069,
      "gre": 1070,
      "p1": 1071,
      "ts": 1072,
      "SET": 1073,
      "RET": 1074,
      "An": 1075,
      "ative": 1076,
      "DATE": 1077,
      "n1": 1078,
      "fix": 1079,
      "NOT": 1080,
      "opcode_": 1081,
      "icode": 1082,
      "IDE": 1083,
      "SPACE": 1084,
      "statement": 1085,
      "TRUE": 1086,
      "ib": 1087,
      "ra": 1088,
      "ub": 1089,
      "counter": 1090,
      "skip_": 1091,
      "SH": 1092,
      "last": 1093,
      "zz": 1094,
      "INDE": 1095,
      "ONE": 1096,
      "dist": 1097,
      "ancing": 1098,
      "BACK": 1099,
      "IV": 1100,
      "factor": 1101,
      "operator": 1102,
      "21": 1103,
      "ain": 1104,
      "dp": 1105,
      "sive": 1106,
      "ARE": 1107,
      "advancing": 1108,
      "spec": 1109,
      "strbuf_t": 1110,
      "++": 1111,
      "BE": 1112,
      "fin": 1113,
      "ART": 1114,
      "File": 1115,
      "cul": 1116,
      "den": 1117,
      "ust": 1118,
      "quence": 1119,
      "interpre": 1120,
      "GET": 1121,
      "60": 1122,
      "UFF": 1123,
      "ci": 1124,
      "way": 1125,
      "ash": 1126,
      "have": 1127,
      "gener": 1128,
      "recur": 1129,
      "token_no": 1130,
      "URN": 1131,
      "####": 1132,
      "TIME": 1133,
      "17": 1134,
      "ensure_storage": 1135,
      "RETURN": 1136,
      "its": 1137,
      "loop": 1138,
      "****************************************************************": 1139,
      "TRIM": 1140,
      "S9": 1141,
      "equal": 1142,
      "over": 1143,
      "ers": 1144,
      "match": 1145,
      ")\",": 1146,
      "LIC": 1147,
      "MON": 1148,
      "Val": 1149,
      "_c": 1150,
      "ax": 1151,
      "here": 1152,
      "tract": 1153,
      "EXIT": 1154,
      ")',": 1155,
      "GIV": 1156,
      "L1": 1157,
      "cond": 1158,
      "const": 1159,
      "_table": 1160,
      "GOBACK": 1161,
      "55": 1162,
      "_address": 1163,
      "mand": 1164,
      "achar": 1165,
      "TEMP": 1166,
      "off": 1167,
      "grap": 1168,
      "ations": 1169,
      "1000": 1170,
      "LOG": 1171,
      "ource": 1172,
      "multi": 1173,
      "two": 1174,
      "graph": 1175,
      "BER": 1176,
      "KE": 1177,
      "ten": 1178,
      "rect": 1179,
      "ity": 1180,
      "MODU": 1181,
      "TYPE": 1182,
      "I2": 1183,
      "LIST": 1184,
      "P1": 1185,
      "inue": 1186,
      "seed": 1187,
      "ount": 1188,
      "total": 1189,
      "50": 1190,
      "IMP": 1191,
      "TRA": 1192,
      "pa": 1193,
      "ps": 1194,
      "rand": 1195,
      "less": 1196,
      "fore": 1197,
      "pow": 1198,
      "_needed": 1199,
      "GIVING": 1200,
      "IG": 1201,
      "find": 1202,
      "sor": 1203,
      "inp": 1204,
      "ORD": 1205,
      "symt": 1206,
      "upon": 1207,
      "compil": 1208,
      "points": 1209,
      "vm_bytes": 1210,
      "solu": 1211,
      "int32_": 1212,
      "symtab": 1213,
      "23": 1214,
      "FAL": 1215,
      "NAME": 1216,
      "iso_": 1217,
      "INPUT": 1218,
      "command": 1219,
      "range": 1220,
      "initial": 1221,
      "MODULE": 1222,
      "FALSE": 1223,
      "CAL": 1224,
      "D0": 1225,
      "On": 1226,
      "fl": 1227,
      "ith": 1228,
      "red": 1229,
      "START": 1230,
      "________": 1231,
      "angle": 1232,
      "much": 1233,
      "ph": 1234,
      "make": 1235,
      "white": 1236,
      "characters": 1237,
      "(:),": 1238,
      "non_": 1239,
      "avl_": 1240,
      "continue": 1241,
      "(*),": 1242,
      "End": 1243,
      "To": 1244,
      "c_": 1245,
      "tex": 1246,
      "now": 1247,
      "write_": 1248,
      "para": 1249,
      "close": 1250,
      "TIMES": 1251,
      "!\"": 1252,
      "CASE": 1253,
      "iter": 1254,
      "strbuf_t_": 1255,
      "vertex": 1256,
      "SUM": 1257,
      "sys": 1258,
      "days": 1259,
      "BLE": 1260,
      "ITH": 1261,
      "ICAL": 1262,
      "month": 1263,
      "LICIT": 1264,
      "IMPLICIT": 1265,
      "paragraph": 1266,
      "But": 1267,
      "NONE": 1268,
      "PH": 1269,
      "i0": 1270,
      "source": 1271,
      "top": 1272,
      "cess": 1273,
      "ply": 1274,
      "UND": 1275,
      "swap": 1276,
      "HTM": 1277,
      "ial": 1278,
      "uff": 1279,
      "unicode": 1280,
      "STAT": 1281,
      "words": 1282,
      "deno": 1283,
      "syserr": 1284,
      "Ex": 1285,
      "gri": 1286,
      "sq": 1287,
      "sample": 1288,
      "tab": 1289,
      "thing": 1290,
      "termin": 1291,
      "format": 1292,
      "old": 1293,
      "whitespace": 1294,
      "Se": 1295,
      "VAN": 1296,
      "emp": 1297,
      "rep": 1298,
      "second": 1299,
      "ERO": 1300,
      "fig": 1301,
      "new_": 1302,
      "masks": 1303,
      "more": 1304,
      "LOGICAL": 1305,
      "Ad": 1306,
      "hull": 1307,
      "(*,'(": 1308,
      "from_": 1309,
      "ADVAN": 1310,
      "DEF": 1311,
      "ircle": 1312,
      "minator": 1313,
      "denominator": 1314,
      "28": 1315,
      "Do": 1316,
      "Fi": 1317,
      "SION": 1318,
      "pop": 1319,
      "sing": 1320,
      "enter": 1321,
      "field": 1322,
      "example": 1323,
      "INTENT": 1324,
      "ild": 1325,
      "error_unit": 1326,
      "OPEN": 1327,
      "bool": 1328,
      "ference": 1329,
      "elemental": 1330,
      "recursive": 1331,
      "56": 1332,
      "incre": 1333,
      "hed": 1334,
      "lex_line": 1335,
      "CURS": 1336,
      "step": 1337,
      "OCCURS": 1338,
      "lex_line_no": 1339,
      "ZERO": 1340,
      "was": 1341,
      "arch": 1342,
      "let": 1343,
      "digits": 1344,
      "Com": 1345,
      "iostat": 1346,
      "WITH": 1347,
      "flo": 1348,
      "p2": 1349,
      "IND": 1350,
      "mean": 1351,
      "where": 1352,
      "should": 1353,
      "balance": 1354,
      "fortran_": 1355,
      "AP": 1356,
      "Id": 1357,
      "MEN": 1358,
      "Un": 1359,
      "_string": 1360,
      "fe": 1361,
      "full": 1362,
      "win": 1363,
      "also": 1364,
      "thr": 1365,
      "ream": 1366,
      "sequence": 1367,
      "righ": 1368,
      "ARRA": 1369,
      "prec": 1370,
      "1234": 1371,
      "NUMBER": 1372,
      "cells": 1373,
      "emit": 1374,
      "ide": 1375,
      "tt": 1376,
      "ory": 1377,
      "but": 1378,
      "OUTPUT": 1379,
      "iso_fortran_": 1380,
      "iso_fortran_env": 1381,
      "):": 1382,
      ")),": 1383,
      "80": 1384,
      "GRE": 1385,
      "RUN": 1386,
      "Sh": 1387,
      "bi": 1388,
      "delim": 1389,
      "Record": 1390,
      "times": 1391,
      "AM": 1392,
      "gt": 1393,
      "giv": 1394,
      "hand": 1395,
      "std": 1396,
      "oun": 1397,
      "INS": 1398,
      "assign": 1399,
      "STACK": 1400,
      "config": 1401,
      "empty": 1402,
      "Count": 1403,
      "MENT": 1404,
      "One": 1405,
      "UL": 1406,
      "om": 1407,
      "pc": 1408,
      "ink": 1409,
      "stream": 1410,
      "lename": 1411,
      "bet": 1412,
      "ollow": 1413,
      "Comp": 1414,
      "iban": 1415,
      "grid": 1416,
      "27": 1417,
      "33": 1418,
      "CK": 1419,
      "PT": 1420,
      "QR": 1421,
      "fa": 1422,
      "tmp": 1423,
      "alg": 1424,
      "exce": 1425,
      "duct": 1426,
      "lexer_": 1427,
      "IR": 1428,
      "Per": 1429,
      "Pri": 1430,
      "SOR": 1431,
      "UP": 1432,
      "Wh": 1433,
      "each": 1434,
      "imove": 1435,
      "tally": 1436,
      "******": 1437,
      "place": 1438,
      "VECTOR": 1439,
      "WORD": 1440,
      ",'": 1441,
      "IO": 1442,
      "Not": 1443,
      "Po": 1444,
      "ward": 1445,
      "need": 1446,
      "THE": 1447,
      "USAGE": 1448,
      "culate": 1449,
      "ARRAY": 1450,
      ",-": 1451,
      "ND": 1452,
      "cor": 1453,
      "follow": 1454,
      "tional": 1455,
      "numerator": 1456,
      "ITEM": 1457,
      ",'(": 1458,
      "LIN": 1459,
      "YE": 1460,
      "ep": 1461,
      "null": 1462,
      "copy": 1463,
      "exp": 1464,
      "DIMEN": 1465,
      "DIVIDE": 1466,
      "ours": 1467,
      "goback": 1468,
      "DIMENSION": 1469,
      ">>": 1470,
      "Line": 1471,
      "MAR": 1472,
      "OT": 1473,
      "ix": 1474,
      "ure": 1475,
      "ick": 1476,
      "nums": 1477,
      "THAN": 1478,
      "to_unicode": 1479,
      "after": 1480,
      "present": 1481,
      "increment": 1482,
      "through": 1483,
      "36": 1484,
      "Err": 1485,
      "Ro": 1486,
      "SQU": 1487,
      "Size": 1488,
      "ULT": 1489,
      "_of": 1490,
      "ob": 1491,
      "oci": 1492,
      "append": 1493,
      "items": 1494,
      "PRINT": 1495,
      "position": 1496,
      "HTML": 1497,
      "sqr": 1498,
      "\"/": 1499,
      "I_": 1500,
      "LIM": 1501,
      "USE": 1502,
      "bound": 1503,
      "tent": 1504,
      "lef": 1505,
      "COUNT": 1506,
      "input_unit": 1507,
      "used": 1508,
      "upper": 1509,
      "CONTA": 1510,
      "offset": 1511,
      "CONTAINS": 1512,
      "=*),": 1513,
      "CL": 1514,
      "FLO": 1515,
      "Len": 1516,
      "Yes": 1517,
      "dl": 1518,
      "dif": 1519,
      "you": 1520,
      "leaf": 1521,
      "uess": 1522,
      "abs": 1523,
      "UNIT": 1524,
      "inser": 1525,
      "40": 1526,
      "BOL": 1527,
      "IAL": 1528,
      "OD": 1529,
      "Op": 1530,
      "SY": 1531,
      "bish": 1532,
      "eff": 1533,
      "ors": 1534,
      "side": 1535,
      "filename": 1536,
      "RESU": 1537,
      "'()')": 1538,
      "iling": 1539,
      "returning": 1540,
      "ishft": 1541,
      "bishop": 1542,
      "RESULT": 1543,
      "Be": 1544,
      "Le": 1545,
      "LON": 1546,
      "NB": 1547,
      "SS": 1548,
      "VER": 1549,
      "der": 1550,
      "hap": 1551,
      "ian": 1552,
      "ore": 1553,
      "CEPT": 1554,
      "2_": 1555,
      "90": 1556,
      "Let": 1557,
      "MT": 1558,
      "Table": 1559,
      "fr": 1560,
      "ie": 1561,
      "sa": 1562,
      "{$": 1563,
      "endif": 1564,
      "stack1": 1565,
      "00000000": 1566,
      "================================": 1567,
      "INDEX": 1568,
      "';": 1569,
      ".)": 1570,
      "26": 1571,
      "ATER": 1572,
      "BASE": 1573,
      "Word": 1574,
      "double": 1575,
      "mer": 1576,
      "may": 1577,
      "enough": 1578,
      "att": 1579,
      "ump": 1580,
      "disp": 1581,
      "ASS": 1582,
      "item": 1583,
      "FACTOR": 1584,
      "flag": 1585,
      "GREATER": 1586,
      ")-": 1587,
      "SO": 1588,
      "_than": 1589,
      "ca": 1590,
      "---": 1591,
      "rol": 1592,
      "associ": 1593,
      "PARA": 1594,
      "vious": 1595,
      ")=": 1596,
      "101": 1597,
      "29": 1598,
      "ECT": 1599,
      "HAR": 1600,
      "Out": 1601,
      "ek": 1602,
      "even": 1603,
      "jmove": 1604,
      "man": 1605,
      "wid": 1606,
      "another": 1607,
      "ice": 1608,
      "acce": 1609,
      "cho": 1610,
      "strings": 1611,
      "wise": 1612,
      "LOOP": 1613,
      "CONT": 1614,
      "666": 1615,
      "non_intrinsic": 1616,
      "Prime": 1617,
      "\"\"": 1618,
      "Op_": 1619,
      "cted": 1620,
      "ln": 1621,
      "tern": 1622,
      "mode": 1623,
      "try": 1624,
      "hel": 1625,
      "GRAPH": 1626,
      "ween": 1627,
      "pression": 1628,
      "random_": 1629,
      "trailing": 1630,
      "specif": 1631,
      "between": 1632,
      "PARAGRAPH": 1633,
      ")*": 1634,
      ":),": 1635,
      "GN": 1636,
      "Sub": 1637,
      "]]": 1638,
      "just": 1639,
      "pha": 1640,
      "ich": 1641,
      "TED": 1642,
      "ENCE": 1643,
      "poly": 1644,
      "oly": 1645,
      "compar": 1646,
      "Input": 1647,
      "************************************************": 1648,
      "newline": 1649,
      "*(*)": 1650,
      "struction": 1651,
      "attack": 1652,
      "0_": 1653,
      "<>": 1654,
      "CLO": 1655,
      "FMT": 1656,
      "ILE": 1657,
      "cy": 1658,
      "link": 1659,
      "deallocate": 1660,
      "rix": 1661,
      "inger": 1662,
      "rook": 1663,
      "ped": 1664,
      "andard": 1665,
      "ned": 1666,
      "ast_node": 1667,
      "CLOSE": 1668,
      "->": 1669,
      "44": 1670,
      "gon": 1671,
      "pp": 1672,
      "rd": 1673,
      "tle": 1674,
      "ting": 1675,
      "eric": 1676,
      "TEST": 1677,
      "come": 1678,
      "integers": 1679,
      "does": 1680,
      "product": 1681,
      "expression": 1682,
      "SELE": 1683,
      "img": 1684,
      "RAN": 1685,
      "lower": 1686,
      "define": 1687,
      "subtract": 1688,
      "mory": 1689,
      "variables": 1690,
      "right_branch": 1691,
      "precision": 1692,
      "VECTOR_": 1693,
      "left_branch": 1694,
      "\"),": 1695,
      ".'": 1696,
      "Al": 1697,
      "P2": 1698,
      "alpha": 1699,
      "ong": 1700,
      "ange": 1701,
      "stack2": 1702,
      "output_unit": 1703,
      "NUM_": 1704,
      "LAST": 1705,
      "less_than": 1706,
      "YEAR": 1707,
      "Error": 1708,
      "LONG": 1709,
      "width": 1710,
      "48": 1711,
      "Mo": 1712,
      "dr": 1713,
      "nfmt": 1714,
      "instruction": 1715,
      "reference": 1716,
      "sed": 1717,
      "ates": 1718,
      "memory": 1719,
      "nodes": 1720,
      "Result": 1721,
      "----------------------------------------------------------------": 1722,
      "WHEN": 1723,
      "greater": 1724,
      "Letter": 1725,
      "\"-": 1726,
      "\":": 1727,
      "CING": 1728,
      "Equal": 1729,
      "Sy": 1730,
      "WER": 1731,
      "bad": 1732,
      "blo": 1733,
      "flow": 1734,
      "ose": 1735,
      "rad": 1736,
      "ser": 1737,
      "tionary": 1738,
      "ERR": 1739,
      "content": 1740,
      "mple": 1741,
      "ACCEPT": 1742,
      "Thus": 1743,
      "good": 1744,
      "holes": 1745,
      "POS": 1746,
      "STRING": 1747,
      "dict": 1748,
      "ADVANCING": 1749,
      "emitbyte": 1750,
      "SORT": 1751,
      ")(": 1752,
      "A1": 1753,
      "Cur": 1754,
      "Ln": 1755,
      "Name": 1756,
      "Sort": 1757,
      "mut": 1758,
      "ning": 1759,
      "nex": 1760,
      "repe": 1761,
      "led": 1762,
      "allow": 1763,
      "parm": 1764,
      "part": 1765,
      "DOM": 1766,
      "Read": 1767,
      "\\\\\\": 1768,
      "ighb": 1769,
      "traverse": 1770,
      "distance": 1771,
      "Value": 1772,
      "TRACT": 1773,
      "next_": 1774,
      "!****************************************************************": 1775,
      "\"'": 1776,
      "NS": 1777,
      "Write": 1778,
      "_a": 1779,
      "_index": 1780,
      "guess": 1781,
      "iz": 1782,
      "ited": 1783,
      "know": 1784,
      "same": 1785,
      "ank": 1786,
      "ichar": 1787,
      "atch": 1788,
      "what": 1789,
      "ast_": 1790,
      "divide": 1791,
      "length_needed": 1792,
      "matrix": 1793,
      "!!!": 1794,
      "MONTH": 1795,
      "&&": 1796,
      "(-": 1797,
      "Par": 1798,
      "Ste": 1799,
      "[[": 1800,
      "card": 1801,
      "ect": 1802,
      "nmove": 1803,
      "army": 1804,
      "root": 1805,
      "gest": 1806,
      "common": 1807,
      "print_": 1808,
      "complex": 1809,
      "limit": 1810,
      "PART": 1811,
      "WHILE": 1812,
      "struct": 1813,
      "Number": 1814,
      "rational_": 1815,
      "block": 1816,
      "1X": 1817,
      "Dim": 1818,
      "EQU": 1819,
      "Get": 1820,
      "IB": 1821,
      "WW": 1822,
      "XND": 1823,
      "ier": 1824,
      "ied": 1825,
      "lar": 1826,
      "rel": 1827,
      "child": 1828,
      "sim": 1829,
      "ALINE": 1830,
      "pul": 1831,
      "pect": 1832,
      "loc": 1833,
      "\")',": 1834,
      "tail": 1835,
      "qui": 1836,
      "liter": 1837,
      "new_size": 1838,
      "Some": 1839,
      "ios": 1840,
      "control": 1841,
      "down": 1842,
      "interpreter": 1843,
      "sorted": 1844,
      "solution": 1845,
      "int32_from_": 1846,
      "terminal": 1847,
      "giving": 1848,
      "ounded": 1849,
      "dl2": 1850,
      "RANDOM": 1851,
      "XNDX": 1852,
      "int32_from_vm_bytes": 1853,
      "Div": 1854,
      "STE": 1855,
      "_sub": 1856,
      "_argument": 1857,
      "circle": 1858,
      "dx": 1859,
      "ive": 1860,
      "ign": 1861,
      "nor": 1862,
      "sx": 1863,
      "ref": 1864,
      "reverse": 1865,
      "ify": 1866,
      "imple": 1867,
      "coded": 1868,
      "COM": 1869,
      "sha": 1870,
      "queue": 1871,
      "LINK": 1872,
      "SQR": 1873,
      "Tr": 1874,
      "_STR": 1875,
      "gap": 1876,
      "ior": 1877,
      "piv": 1878,
      "s1": 1879,
      "INSP": 1880,
      "action": 1881,
      "most": 1882,
      "vert": 1883,
      "comment": 1884,
      "iron": 1885,
      "i_ast": 1886,
      "associated": 1887,
      "Step": 1888,
      "INSPECT": 1889,
      "65": 1890,
      "Dat": 1891,
      "EP": 1892,
      "PP": 1893,
      "ill": 1894,
      "ns": 1895,
      "nx": 1896,
      "x1": 1897,
      "arget": 1898,
      "separ": 1899,
      "ENV": 1900,
      "ENUFF": 1901,
      "simple": 1902,
      "push": 1903,
      "ICHAR": 1904,
      "ARD": 1905,
      "uration": 1906,
      "CODE": 1907,
      "counts": 1908,
      "reading": 1909,
      "SUBTRACT": 1910,
      "calculate": 1911,
      "expr1": 1912,
      "NEXT": 1913,
      "skip_whitespace": 1914,
      "pair": 1915,
      "command_argument": 1916,
      "ironment": 1917,
      "\";": 1918,
      "98": 1919,
      "Ch": 1920,
      "Dis": 1921,
      "ECK": 1922,
      "May": 1923,
      "Ne": 1924,
      "_to_": 1925,
      "ak": 1926,
      "eve": 1927,
      "mber": 1928,
      "ptr": 1929,
      "t1": 1930,
      "ude": 1931,
      "rema": 1932,
      "ses": 1933,
      "neighb": 1934,
      "1000000": 1935,
      "starting": 1936,
      "ABLE": 1937,
      "expr2": 1938,
      "Fortran": 1939,
      "environment": 1940,
      "########": 1941,
      "delimited": 1942,
      "EQUAL": 1943,
      "201": 1944,
      "BIG": 1945,
      "CI": 1946,
      "En": 1947,
      "I1": 1948,
      "LL": 1949,
      "_balance": 1950,
      "d_": 1951,
      "hal": 1952,
      "mar": 1953,
      "ror": 1954,
      "rest": 1955,
      "INIT": 1956,
      "ONMENT": 1957,
      "cob": 1958,
      "pure": 1959,
      "neg": 1960,
      "been": 1961,
      "ast_t": 1962,
      "edge": 1963,
      "ANY": 1964,
      "curl": 1965,
      "Index": 1966,
      "defini": 1967,
      "n_dst": 1968,
      "n_src": 1969,
      "arguments": 1970,
      "fix_balance": 1971,
      "overflow": 1972,
      "power": 1973,
      "Compil": 1974,
      "IRONMENT": 1975,
      "Current": 1976,
      "ENVIRONMENT": 1977,
      "07": 1978,
      "FD": 1979,
      "Gre": 1980,
      "IP": 1981,
      "Ke": 1982,
      "List": 1983,
      "Or": 1984,
      "TS": 1985,
      "Wor": 1986,
      "cs": 1987,
      "cu": 1988,
      "cfmt": 1989,
      "ies": 1990,
      "ption": 1991,
      "s2": 1992,
      "squ": 1993,
      "INARY": 1994,
      "ift": 1995,
      "didate": 1996,
      "expec": 1997,
      "(*,\"(": 1998,
      "INTER": 1999,
      "short": 2000,
      "vartab": 2001,
      "week": 2002,
      "possi": 2003,
      "256": 2004,
      "Star": 2005,
      "RECORD": 2006,
      "constant": 2007,
      "initialize": 2008,
      "seconds": 2009,
      "window": 2010,
      "accept": 2011,
      "SELECT": 2012,
      "literal": 2013,
      "Cre": 2014,
      "E_": 2015,
      "V9": 2016,
      "_value": 2017,
      "edi": 2018,
      "ok_": 2019,
      "suc": 2020,
      "optional": 2021,
      "popul": 2022,
      "ALLY": 2023,
      "arry": 2024,
      "modulo": 2025,
      "again": 2026,
      "parse_": 2027,
      "Program": 2028,
      "KEY": 2029,
      "report": 2030,
      "DEFINE": 2031,
      "sqrt": 2032,
      "SYM": 2033,
      "cause": 2034,
      "linkage": 2035,
      "LINKAGE": 2036,
      "CS": 2037,
      "CAN": 2038,
      "TALLY": 2039,
      "],": 2040,
      "_count": 2041,
      "_SIZE": 2042,
      "est": 2043,
      "sl": 2044,
      "yy": 2045,
      "ert": 2046,
      "org": 2047,
      "andom": 2048,
      "icen": 2049,
      "**************": 2050,
      "004": 2051,
      "-------": 2052,
      "numeric": 2053,
      "codegen": 2054,
      "read_": 2055,
      "mask_": 2056,
      "bits": 2057,
      "letter": 2058,
      "wards": 2059,
      "-*": 2060,
      "BD": 2061,
      "BL": 2062,
      "Ho": 2063,
      "It": 2064,
      "MULT": 2065,
      "WT": 2066,
      "_expr": 2067,
      "fif": 2068,
      "gfortran": 2069,
      "high": 2070,
      "jump": 2071,
      "mm": 2072,
      "turn": 2073,
      "wo": 2074,
      "alu": 2075,
      "orter": 2076,
      "ana": 2077,
      "search": 2078,
      "INF": 2079,
      "INTO": 2080,
      "rim": 2081,
      "ask": 2082,
      "direct": 2083,
      "REE": 2084,
      "look": 2085,
      "TOT": 2086,
      "height": 2087,
      "IDX": 2088,
      "synt": 2089,
      "weight": 2090,
      "POWER": 2091,
      "primes": 2092,
      "s_kind": 2093,
      "to_vm_bytes": 2094,
      "candidate": 2095,
      "OLD": 2096,
      "1_nk": 2097,
      "int32_to_vm_bytes": 2098,
      "STATUS": 2099,
      "Add": 2100,
      "234": 2101,
      "Arr": 2102,
      "EVAL": 2103,
      "FIND": 2104,
      "Is": 2105,
      "SM": 2106,
      "^^": 2107,
      "_check": 2108,
      "bly": 2109,
      "dt": 2110,
      "iand": 2111,
      "many": 2112,
      "target": 2113,
      "y1": 2114,
      "rection": 2115,
      "lete": 2116,
      "ished": 2117,
      "TENT": 2118,
      "sist": 2119,
      "));": 2120,
      "val1": 2121,
      "len_needed": 2122,
      "which": 2123,
      "well": 2124,
      "color": 2125,
      "CONTENT": 2126,
      "getchar": 2127,
      "expon": 2128,
      "haps": 2129,
      "repeat": 2130,
      "_ahead": 2131,
      "TALLYING": 2132,
      "./": 2133,
      "1x": 2134,
      "Day": 2135,
      "Fir": 2136,
      "UST": 2137,
      "UBLE": 2138,
      "_for": 2139,
      "_is_": 2140,
      "c1": 2141,
      "dy": 2142,
      "fd": 2143,
      "fre": 2144,
      "fit": 2145,
      "finger": 2146,
      "glo": 2147,
      "ise": 2148,
      "dec": 2149,
      "acket": 2150,
      "could": 2151,
      "previous": 2152,
      "That": 2153,
      "must": 2154,
      "COLUM": 2155,
      "board_": 2156,
      "SPACES": 2157,
      "SHO": 2158,
      "obj": 2159,
      "-----------------------------------------------------------------------": 2160,
      "pivot": 2161,
      "edited": 2162,
      "-*-": 2163,
      "global": 2164,
      ")+": 2165,
      ".,": 2166,
      "Enter": 2167,
      "MM": 2168,
      "MIN": 2169,
      "car": 2170,
      "eas": 2171,
      "fo": 2172,
      "iachar": 2173,
      "rg": 2174,
      "deck": 2175,
      "coeff": 2176,
      "fier": 2177,
      "oper": 2178,
      "bracket": 2179,
      "t_ast_node": 2180,
      "pointer_": 2181,
      "ZZ9": 2182,
      "LAG": 2183,
      "interpret_ast_node": 2184,
      "float": 2185,
      "Identi": 2186,
      "cycle": 2187,
      "Compilation": 2188,
      "CSV": 2189,
      "syntax": 2190,
      "First": 2191,
      "_for_": 2192,
      "*/": 2193,
      "08": 2194,
      ":\"": 2195,
      "</": 2196,
      "FLAG": 2197,
      "IPL": 2198,
      "IZE": 2199,
      "Lo": 2200,
      "Of": 2201,
      "Random": 2202,
      "_data": 2203,
      "ake": 2204,
      "htt": 2205,
      "lu": 2206,
      "ual": 2207,
      "als": 2208,
      "orted": 2209,
      "thod": 2210,
      "ison": 2211,
      "dir": 2212,
      "ROUND": 2213,
      "abase": 2214,
      "1111": 2215,
      "posit": 2216,
      "scan": 2217,
      "columns": 2218,
      "grees": 2219,
      "raw": 2220,
      "5678": 2221,
      "Perhaps": 2222,
      "correct": 2223,
      "attack_check": 2224,
      "Data": 2225,
      "nxn": 2226,
      "anagram": 2227,
      "s_kindnxn": 2228,
      "35": 2229,
      "45": 2230,
      "Go": 2231,
      "Now": 2232,
      "Other": 2233,
      "_name": 2234,
      "cro": 2235,
      "four": 2236,
      "px": 2237,
      "s9": 2238,
      "reposit": 2239,
      "enddo": 2240,
      "them": 2241,
      "mov": 2242,
      "direction": 2243,
      "assert": 2244,
      "final": 2245,
      "SQUARE": 2246,
      "STEP": 2247,
      "SQRT": 2248,
      "population": 2249,
      "repository": 2250,
      "-(": 2251,
      "/\\\\\\": 2252,
      "97": 2253,
      "AF": 2254,
      "IZ": 2255,
      "Int": 2256,
      "Pre": 2257,
      "Poly": 2258,
      "Var": 2259,
      "YY": 2260,
      "ium": 2261,
      "ient": 2262,
      "i64": 2263,
      "nc": 2264,
      "ratch": 2265,
      "tes": 2266,
      "alind": 2267,
      "answ": 2268,
      "unget_": 2269,
      "REF": 2270,
      "before": 2271,
      "DOUBLE": 2272,
      "version": 2273,
      "comma": 2274,
      "CHECK": 2275,
      "retval": 2276,
      "process": 2277,
      "rank": 2278,
      "get_command_argument": 2279,
      "pending": 2280,
      "INDEEP": 2281,
      "reporter": 2282,
      "lexer_token": 2283,
      "MARCH": 2284,
      "frac": 2285,
      "reporterror": 2286,
      "([": 2287,
      "38": 2288,
      "39": 2289,
      "CD": 2290,
      "ES": 2291,
      "FREE": 2292,
      "I4": 2293,
      "Next": 2294,
      "OUND": 2295,
      "PRE": 2296,
      "RST": 2297,
      "SAM": 2298,
      "_NUM": 2299,
      "crc": 2300,
      "might": 2301,
      "oq": 2302,
      "sm": 2303,
      "vol": 2304,
      "stri": 2305,
      "too": 2306,
      "ries": 2307,
      "rot": 2308,
      "ERENCE": 2309,
      "proper": 2310,
      "writeLn": 2311,
      "len_t": 2312,
      "pers": 2313,
      "DIDATE": 2314,
      "ness": 2315,
      "shuff": 2316,
      "database": 2317,
      "uses": 2318,
      "max_": 2319,
      "trit": 2320,
      "odd": 2321,
      "mask": 2322,
      "_table_t": 2323,
      "configuration": 2324,
      "_of_": 2325,
      "Output": 2326,
      "random_number": 2327,
      "Move": 2328,
      "Create": 2329,
      "CANDIDATE": 2330,
      "SHOW": 2331,
      "300": 2332,
      "68": 2333,
      "Che": 2334,
      "Code": 2335,
      "Gen": 2336,
      "GAP": 2337,
      "I8": 2338,
      "NP": 2339,
      "N_": 2340,
      "SAY": 2341,
      "gned": 2342,
      "lay": 2343,
      "wri": 2344,
      "would": 2345,
      "title": 2346,
      "see": 2347,
      "INtest": 2348,
      "ISINtest": 2349,
      "plit": 2350,
      "ARED": 2351,
      "REDEFINE": 2352,
      "TOP": 2353,
      "shad": 2354,
      "prece": 2355,
      "colour": 2356,
      "There": 2357,
      "home": 2358,
      "ight_": 2359,
      "big": 2360,
      "Length": 2361,
      "UNITS": 2362,
      "sistant": 2363,
      "REDEFINES": 2364,
      "72": 2365,
      ":\",": 2366,
      "://": 2367,
      "BA": 2368,
      "BINARY": 2369,
      "Col": 2370,
      "D2": 2371,
      "])": 2372,
      "lat": 2373,
      "licen": 2374,
      "init": 2375,
      "standard": 2376,
      "set_": 2377,
      "dev": 2378,
      "ERS": 2379,
      "SES": 2380,
      "load": 2381,
      "pose": 2382,
      "inder": 2383,
      "COBOL": 2384,
      "string_": 2385,
      "SIGN": 2386,
      "storage_size": 2387,
      "elements": 2388,
      "factors": 2389,
      "special": 2390,
      "sort_": 2391,
      "compiler": 2392,
      "solutions": 2393,
      "new_storage_size": 2394,
      "handle": 2395,
      "polygon": 2396,
      "Display": 2397,
      "Otherwise": 2398,
      "0d0": 2399,
      "='(": 2400,
      "Cal": 2401,
      "Can": 2402,
      "Just": 2403,
      "POP": 2404,
      "RENT": 2405,
      "VAR": 2406,
      "far": 2407,
      "lf": 2408,
      "p0": 2409,
      "yet": 2410,
      "lect": 2411,
      "tic": 2412,
      "ending": 2413,
      "degrees": 2414,
      "ved": 2415,
      "IONS": 2416,
      "ROW": 2417,
      "ROOT": 2418,
      "pare": 2419,
      "parent": 2420,
      "method": 2421,
      "permut": 2422,
      "height_": 2423,
      "DOW": 2424,
      "10000": 2425,
      "error_": 2426,
      "store": 2427,
      "selected": 2428,
      "score": 2429,
      "CURRENT": 2430,
      "create": 2431,
      "CALC": 2432,
      "single": 2433,
      "feed": 2434,
      "While": 2435,
      "following": 2436,
      "MULTIPL": 2437,
      "alu_": 2438,
      "SMALL": 2439,
      "exponent": 2440,
      "coeffs": 2441,
      "cross": 2442,
      "REFERENCE": 2443,
      "'/": 2444,
      ")'": 2445,
      ",:)": 2446,
      "Char": 2447,
      "EVE": 2448,
      "GIN": 2449,
      "LST": 2450,
      "PTR": 2451,
      "We": 2452,
      "_max": 2453,
      "_from_": 2454,
      "cast": 2455,
      "ner": 2456,
      "palind": 2457,
      "split": 2458,
      "lead": 2459,
      "leep": 2460,
      "seq": 2461,
      "icient": 2462,
      "signed": 2463,
      "UNTER": 2464,
      "construct": 2465,
      "THIS": 2466,
      "COUNTER": 2467,
      "ACARD": 2468,
      "blank": 2469,
      "args": 2470,
      "allocated": 2471,
      "DIGITS": 2472,
      "heading": 2473,
      "queen": 2474,
      "generate": 2475,
      "ithm": 2476,
      "CONTIN": 2477,
      "mark": 2478,
      "INITIAL": 2479,
      "Key": 2480,
      "00401": 2481,
      "Array": 2482,
      "error_message": 2483,
      "feed_char": 2484,
      "\"//": 2485,
      "'*": 2486,
      "(*)": 2487,
      "BIT": 2488,
      "HO": 2489,
      "Me": 2490,
      "MANY": 2491,
      "NC": 2492,
      "NH": 2493,
      "P0": 2494,
      "ful": 2495,
      "free": 2496,
      "pad": 2497,
      "incl": 2498,
      "self": 2499,
      "itted": 2500,
      "they": 2501,
      "SEQU": 2502,
      "SEED": 2503,
      "value_t": 2504,
      "imal": 2505,
      "maken": 2506,
      "quo": 2507,
      "plication": 2508,
      "DELIM": 2509,
      "FIRST": 2510,
      "fail": 2511,
      "Root": 2512,
      "CLASS": 2513,
      "defines": 2514,
      "Start": 2515,
      "success": 2516,
      "directory": 2517,
      "Identifier": 2518,
      "len_trim": 2519,
      "makenode": 2520,
      "\"))": 2521,
      "/\"": 2522,
      "HE": 2523,
      "Hel": 2524,
      "JUST": 2525,
      "L0": 2526,
      "Loc": 2527,
      "Mod": 2528,
      "NL": 2529,
      "Sw": 2530,
      "TABLE": 2531,
      "pan": 2532,
      "r1": 2533,
      "r2": 2534,
      "orary": 2535,
      "redefines": 2536,
      "isors": 2537,
      "rik_": 2538,
      "TEN": 2539,
      "roset": 2540,
      "the_": 2541,
      "such": 2542,
      "exist": 2543,
      "local": 2544,
      "paren": 2545,
      "trouble": 2546,
      "imum": 2547,
      "duplic": 2548,
      "lines": 2549,
      "ready": 2550,
      "LOCAL": 2551,
      "arg_count": 2552,
      "iled": 2553,
      "rypt": 2554,
      "Stack": 2555,
      "symbols": 2556,
      "stem": 2557,
      "ITED": 2558,
      "path": 2559,
      "UPPER": 2560,
      "Point": 2561,
      "I_UNITS": 2562,
      "FLOAT": 2563,
      "comefrom": 2564,
      "ERROR": 2565,
      "separator": 2566,
      "negative": 2567,
      "expected": 2568,
      "answer": 2569,
      "sistants": 2570,
      "CONTINUE": 2571,
      "rik_cast": 2572,
      ",&": 2573,
      "43": 2574,
      "PI": 2575,
      "PREC": 2576,
      "Z9": 2577,
      "hu": 2578,
      "hour": 2579,
      "routine": 2580,
      "rsx": 2581,
      "sli": 2582,
      "x_": 2583,
      "xy": 2584,
      "y2": 2585,
      "in_": 2586,
      "stam": 2587,
      "tim": 2588,
      "delt": 2589,
      "sieve": 2590,
      ")).": 2591,
      "ces": 2592,
      "ENDIF": 2593,
      "writeln": 2594,
      "look_": 2595,
      "indent": 2596,
      "COS": 2597,
      "vm_t": 2598,
      "ALLOC": 2599,
      "ENTS": 2600,
      "without": 2601,
      "ASSIGN": 2602,
      "URCE": 2603,
      "bott": 2604,
      "ATIONAL": 2605,
      "temporary": 2606,
      "backsl": 2607,
      "rows": 2608,
      "255": 2609,
      "ADDENTRY": 2610,
      "vm_code": 2611,
      "(:,:)": 2612,
      "BEST": 2613,
      "Field": 2614,
      "exceed": 2615,
      "SQUARED": 2616,
      "SOURCE": 2617,
      "choice": 2618,
      "allowed": 2619,
      "remainder": 2620,
      "MULTIPLY": 2621,
      "Hello": 2622,
      "PRECISION": 2623,
      "delta": 2624,
      "backslash": 2625,
      ")**": 2626,
      "09": 2627,
      "0D0": 2628,
      "=\",": 2629,
      "By": 2630,
      "CY": 2631,
      "Find": 2632,
      "FNAME": 2633,
      "GTH": 2634,
      "IVE": 2635,
      "Pa": 2636,
      "ding": 2637,
      "gc": 2638,
      "wk": 2639,
      "delete": 2640,
      "ic_": 2641,
      "ONENTS": 2642,
      "dot": 2643,
      "stract": 2644,
      "val2": 2645,
      "ason": 2646,
      "ISH": 2647,
      "entries": 2648,
      "int64": 2649,
      "ROL": 2650,
      "RED": 2651,
      "THER": 2652,
      "line_no": 2653,
      "roman": 2654,
      "//'": 2655,
      "ADJUST": 2656,
      "123": 2657,
      "sole": 2658,
      "Then": 2659,
      "uple": 2660,
      "COMPONENTS": 2661,
      "SIEVE": 2662,
      "fill_": 2663,
      "get_token": 2664,
      "backwards": 2665,
      "nonterminal": 2666,
      "Format": 2667,
      "ZZZZ9": 2668,
      "column_no": 2669,
      "dictionary": 2670,
      "ubound": 2671,
      "matches": 2672,
      "compiler_": 2673,
      "ADVANCE": 2674,
      "Show": 2675,
      "LIMIT": 2676,
      "CONTROL": 2677,
      "known": 2678,
      "norm": 2679,
      "Work": 2680,
      "freq": 2681,
      "AFTER": 2682,
      "ADJUSTL": 2683,
      "42": 2684,
      "46": 2685,
      "95": 2686,
      ":'": 2687,
      "AK": 2688,
      "AU": 2689,
      "ACTION": 2690,
      "CRO": 2691,
      "CLE": 2692,
      "Di": 2693,
      "IA": 2694,
      "KBD": 2695,
      "MD": 2696,
      "MER": 2697,
      "MIT": 2698,
      "Mul": 2699,
      "Max": 2700,
      "SR": 2701,
      "SW": 2702,
      "Ty": 2703,
      "Test": 2704,
      "Wall": 2705,
      "_stack": 2706,
      "_area": 2707,
      "bs": 2708,
      "bind": 2709,
      "draw": 2710,
      "i1": 2711,
      "sen": 2712,
      "tb": 2713,
      "tm": 2714,
      "vance": 2715,
      "inside": 2716,
      "tem": 2717,
      "altern": 2718,
      "tile": 2719,
      "desi": 2720,
      "choo": 2721,
      "===": 2722,
      "dog": 2723,
      "vel": 2724,
      "ORG": 2725,
      "type_kind": 2726,
      "strbuf_to_": 2727,
      "ility": 2728,
      "tape": 2729,
      "reals": 2730,
      "world": 2731,
      "_unit_no": 2732,
      "get_input_unit": 2733,
      "hash": 2734,
      "LENGTH": 2735,
      "2008": 2736,
      "SHUFF": 2737,
      "operators": 2738,
      "finished": 2739,
      "formatted": 2740,
      "Advance": 2741,
      "floor": 2742,
      "omitted": 2743,
      "exception": 2744,
      "merge": 2745,
      "help": 2746,
      "shape": 2747,
      "half": 2748,
      "square": 2749,
      "ratchpad": 2750,
      "Check": 2751,
      "look_up": 2752,
      "exceeds": 2753,
      "compiler_type_kind": 2754,
      "get_input_unit_char": 2755,
      "SHUFFLE": 2756,
      "compiler_type_kinds": 2757,
      ".\")": 2758,
      "52": 2759,
      "500": 2760,
      "BR": 2761,
      "BRA": 2762,
      "DD": 2763,
      "HINT": 2764,
      "Pl": 2765,
      "SD": 2766,
      "Set": 2767,
      "SIDE": 2768,
      "Try": 2769,
      "UATE": 2770,
      "WF": 2771,
      "a2": 2772,
      "bn": 2773,
      "dw": 2774,
      "ee": 2775,
      "hi": 2776,
      "hex": 2777,
      "ime": 2778,
      "night": 2779,
      "x2": 2780,
      "***": 2781,
      "or_": 2782,
      "orithm": 2783,
      "sem": 2784,
      "INP": 2785,
      "term": 2786,
      "change": 2787,
      "dol": 2788,
      "prob": 2789,
      "pole": 2790,
      "parts": 2791,
      "medi": 2792,
      "image": 2793,
      "ITY": 2794,
      "___": 2795,
      "METH": 2796,
      "west": 2797,
      "start_": 2798,
      "names": 2799,
      "FORMATTED": 2800,
      "generator": 2801,
      "MAX_": 2802,
      "positive": 2803,
      "is_prime": 2804,
      "rather": 2805,
      "_table_t_": 2806,
      "make_": 2807,
      "differ": 2808,
      "Begin": 2809,
      "save": 2810,
      "ichar_kind": 2811,
      "relative": 2812,
      "implement": 2813,
      "Greater": 2814,
      "possible": 2815,
      "SYMBOL": 2816,
      "EVALUATE": 2817,
      "LSTNB": 2818,
      "Local": 2819,
      "huge": 2820,
      "backslash_char": 2821,
      "Type": 2822,
      "choose": 2823,
      "47": 2824,
      "54": 2825,
      "70": 2826,
      "DN": 2827,
      "FP": 2828,
      "Mon": 2829,
      "Main": 2830,
      "With": 2831,
      "You": 2832,
      "a1": 2833,
      "gmp": 2834,
      "hor": 2835,
      "hold": 2836,
      "i2": 2837,
      "la": 2838,
      "mid": 2839,
      "mach": 2840,
      "tc": 2841,
      "y_": 2842,
      "}{$": 2843,
      "inst": 2844,
      "reg": 2845,
      "sedol": 2846,
      "no_": 2847,
      "ume": 2848,
      "ISE": 2849,
      "indic": 2850,
      "user": 2851,
      "condi": 2852,
      "ones": 2853,
      "string1": 2854,
      "//\"": 2855,
      "count1": 2856,
      "like": 2857,
      "prim": 2858,
      "lexer": 2859,
      "gettoken": 2860,
      "ISTASH": 2861,
      "POK": 2862,
      "ABC": 2863,
      "keys": 2864,
      "open_for_": 2865,
      "ordered": 2866,
      "skip_non_": 2867,
      "AREA": 2868,
      "here_address": 2869,
      "multiple": 2870,
      "ORDER": 2871,
      "Example": 2872,
      "Sequence": 2873,
      "Less": 2874,
      "specified": 2875,
      "army1": 2876,
      "army2": 2877,
      "reflect": 2878,
      "_NUMS": 2879,
      "POPCOUNT": 2880,
      "DELIMITED": 2881,
      "CYCLE": 2882,
      "skip_non_whitespace": 2883,
      "(\",": 2884,
      "82": 2885,
      "BC": 2886,
      "Cho": 2887,
      "Dic": 2888,
      "EOF": 2889,
      "Fun": 2890,
      "Last": 2891,
      "TW": 2892,
      "a_": 2893,
      "ave": 2894,
      "ail": 2895,
      "dd": 2896,
      "don": 2897,
      "dll": 2898,
      "dence": 2899,
      "ei": 2900,
      "f2008": 2901,
      "ip": 2902,
      "kel": 2903,
      "oid": 2904,
      "rn": 2905,
      "rp": 2906,
      "task": 2907,
      "want": 2908,
      "invalid": 2909,
      "info": 2910,
      "three": 2911,
      "requi": 2912,
      "outer": 2913,
      "isspace": 2914,
      "interest": 2915,
      "access": 2916,
      "ingers": 2917,
      "unstring": 2918,
      "unix": 2919,
      "their": 2920,
      "forth": 2921,
      "vect": 2922,
      "vals": 2923,
      "asci": 2924,
      "assem": 2925,
      "plot": 2926,
      "fire": 2927,
      "STUFF": 2928,
      "**********************": 2929,
      "ush": 2930,
      "');": 2931,
      "ordin": 2932,
      "LET": 2933,
      "LEMENT": 2934,
      "inste": 2935,
      "very": 2936,
      "ENTIAL": 2937,
      "...\"": 2938,
      "starter": 2939,
      "started": 2940,
      "output_": 2941,
      "goal": 2942,
      "iven": 2943,
      "MAIN": 2944,
      "Assistants": 2945,
      "_node_t": 2946,
      "avl_node_t": 2947,
      "DAYNUM": 2948,
      "generic": 2949,
      "________________": 2950,
      "strbuf_t_to_unicode": 2951,
      "Unicode": 2952,
      "fully": 2953,
      "given": 2954,
      "algorithm": 2955,
      "lexer_input": 2956,
      "comparison": 2957,
      "candidates": 2958,
      "56789": 2959,
      "anagrams": 2960,
      "selected_": 2961,
      "'*'": 2962,
      "SEQUENTIAL": 2963,
      "CROAK": 2964,
      "METHOD": 2965,
      "machine": 2966,
      "Dictionary": 2967,
      "ascii": 2968,
      "67": 2969,
      "All": 2970,
      "BN": 2971,
      "I3": 2972,
      "TION": 2973,
      "Text": 2974,
      "URE": 2975,
      "XY": 2976,
      "_ch": 2977,
      "cc": 2978,
      "cri": 2979,
      "f8": 2980,
      "fall": 2981,
      "hn": 2982,
      "ipos": 2983,
      "nil": 2984,
      "pas": 2985,
      "ually": 2986,
      "ince": 2987,
      "teen": 2988,
      "already": 2989,
      "ared": 2990,
      "remove": 2991,
      "level": 2992,
      "outh": 2993,
      "rome": 2994,
      "atus": 2995,
      "************": 2996,
      "asc": 2997,
      "SEQ": 2998,
      "RESP": 2999,
      "FORE": 3000,
      "best": 3001,
      "_tree": 3002,
      "shif": 3003,
      "tain": 3004,
      "intern": 3005,
      "results": 3006,
      "lower_": 3007,
      "check_": 3008,
      "harshad": 3009,
      "trans": 3010,
      "MAG": 3011,
      "zeros": 3012,
      "EXIST": 3013,
      "Standard": 3014,
      "Status": 3015,
      "based": 3016,
      "fixed": 3017,
      "++++": 3018,
      "I2FMT": 3019,
      "compilation": 3020,
      "iteration": 3021,
      "bounds": 3022,
      "rook1_": 3023,
      "bad_": 3024,
      "RANDOM_": 3025,
      "neighbours": 3026,
      "board_reflect": 3027,
      "object": 3028,
      "precedence": 3029,
      "Calculate": 3030,
      "xyz": 3031,
      "desired": 3032,
      "dwStatus": 3033,
      "start_error_message": 3034,
      "no_newline": 3035,
      "unixdict": 3036,
      "instead": 3037,
      "RESPON": 3038,
      "!'": 3039,
      "!\")": 3040,
      ",',": 3041,
      "57": 3042,
      "AV": 3043,
      "Af": 3044,
      "Are": 3045,
      "FB": 3046,
      "LN": 3047,
      "NREC": 3048,
      "Up": 3049,
      "_q": 3050,
      "bounded": 3051,
      "da": 3052,
      "ij": 3053,
      "mis": 3054,
      "nu": 3055,
      "rk": 3056,
      "rnum": 3057,
      "encoded": 3058,
      "lean": 3059,
      "leap": 3060,
      "tical": 3061,
      "timer": 3062,
      "endar": 3063,
      "strs": 3064,
      "simul": 3065,
      "sider": 3066,
      "abc": 3067,
      "exten": 3068,
      "convert": 3069,
      "')'": 3070,
      "FORTRA": 3071,
      "who": 3072,
      "codes": 3073,
      "linefeed_char": 3074,
      "ANGE": 3075,
      "ANIZ": 3076,
      "ily": 3077,
      "predic": 3078,
      "sync": 3079,
      "AS_STR": 3080,
      "arrays": 3081,
      "i_char": 3082,
      "actually": 3083,
      "CONST": 3084,
      "ffree": 3085,
      "180": 3086,
      "signal": 3087,
      "_nodes": 3088,
      "something": 3089,
      "buffers": 3090,
      "skip": 3091,
      "Convert": 3092,
      "there_is_": 3093,
      "_carry": 3094,
      "c_int": 3095,
      "hull_size": 3096,
      "emitword": 3097,
      "Pos": 3098,
      "insert_": 3099,
      "INDEXED": 3100,
      "0_rik": 3101,
      "NUM_AS_STR": 3102,
      "Trgt": 3103,
      "definition": 3104,
      "definitions": 3105,
      "fitness": 3106,
      "Polygon": 3107,
      "oqx": 3108,
      "small": 3109,
      "SMALL_NUMS": 3110,
      "ORGANIZ": 3111,
      "After": 3112,
      "predicate": 3113,
      "ORGANIZATION": 3114,
      "(',": 3115,
      ")\"": 3116,
      "+(": 3117,
      "1A": 3118,
      "><": 3119,
      ">\",": 3120,
      "Ac": 3121,
      "Ack": 3122,
      "AULT": 3123,
      "D1": 3124,
      "FIN": 3125,
      "HIC": 3126,
      "Hash": 3127,
      "IJ": 3128,
      "Item": 3129,
      "LI": 3130,
      "LGT": 3131,
      "PY": 3132,
      "Sc": 3133,
      "Two": 3134,
      "TURE": 3135,
      "Ver": 3136,
      "WE": 3137,
      "WMS": 3138,
      "_val": 3139,
      "_rik": 3140,
      "_ARRAY": 3141,
      "_product": 3142,
      "bre": 3143,
      "fu": 3144,
      "f08": 3145,
      "give": 3146,
      "how": 3147,
      "i3": 3148,
      "j1": 3149,
      "l1": 3150,
      "m2": 3151,
      "n2": 3152,
      "r_": 3153,
      "sun": 3154,
      "s9999": 3155,
      "td": 3156,
      "stuff": 3157,
      "represent": 3158,
      "deg": 3159,
      "decl": 3160,
      "depending": 3161,
      "ached": 3162,
      "itours": 3163,
      "these": 3164,
      "plus": 3165,
      "ARCH": 3166,
      "int_value": 3167,
      "IFAULT": 3168,
      "SEARCH": 3169,
      "pick": 3170,
      "PICTURE": 3171,
      "build": 3172,
      "inspect": 3173,
      "////": 3174,
      "appro": 3175,
      "These": 3176,
      "Ini": 3177,
      "111": 3178,
      "web": 3179,
      "LOTS": 3180,
      "ird": 3181,
      "node_Pr": 3182,
      "GOTO": 3183,
      "calcul": 3184,
      "msg": 3185,
      "(:,:),": 3186,
      "BEGIN": 3187,
      "GET_": 3188,
      "******************************************************************": 3189,
      "_circle": 3190,
      "multiply": 3191,
      "samples": 3192,
      "stddev": 3193,
      "failed": 3194,
      "difference": 3195,
      "Open": 3196,
      "Options": 3197,
      "2_masks": 3198,
      "compare": 3199,
      "************************************************************": 3200,
      "WWWW": 3201,
      "_subtree": 3202,
      "COMMON": 3203,
      "Neg": 3204,
      "################": 3205,
      "http": 3206,
      "crc32": 3207,
      "shuffle": 3208,
      "Gener": 3209,
      "leading": 3210,
      "Multi": 3211,
      "internal": 3212,
      "'|": 3213,
      ",\",": 3214,
      "2int": 3215,
      "400": 3216,
      "CBL": 3217,
      "Double": 3218,
      "Free": 3219,
      "I5": 3220,
      "IW": 3221,
      "Jun": 3222,
      "JDAY": 3223,
      "Lim": 3224,
      "LAY": 3225,
      "LDIGIT": 3226,
      "My": 3227,
      "Sum": 3228,
      "Sleep": 3229,
      "TMP": 3230,
      "WD": 3231,
      "_be": 3232,
      "bb": 3233,
      "bcount": 3234,
      "cat": 3235,
      "fur": 3236,
      "game": 3237,
      "lun": 3238,
      "m1": 3239,
      "nion": 3240,
      "port": 3241,
      "say": 3242,
      "ving": 3243,
      "tend": 3244,
      "those": 3245,
      "reen": 3246,
      "replace": 3247,
      "sequ": 3248,
      "TENS": 3249,
      "unsigned": 3250,
      "cop": 3251,
      "forall": 3252,
      "vest": 3253,
      "suff": 3254,
      "added": 3255,
      "val3": 3256,
      "\",&": 3257,
      "prog": 3258,
      "oftw": 3259,
      "ops": 3260,
      "optim": 3261,
      "REPL": 3262,
      "member": 3263,
      "trac": 3264,
      "usted": 3265,
      "being": 3266,
      "beta": 3267,
      "because": 3268,
      "line_from_": 3269,
      "elseif": 3270,
      "country": 3271,
      "within": 3272,
      "COMPLE": 3273,
      "get_line_from_": 3274,
      "screen": 3275,
      "calendar": 3276,
      "POINTER": 3277,
      "tk_L": 3278,
      "Assign": 3279,
      "via": 3280,
      "aternion": 3281,
      "bool2int": 3282,
      "FLOOR": 3283,
      "insertion": 3284,
      "FACTORS": 3285,
      "random_seed": 3286,
      "ization": 3287,
      "ast_error": 3288,
      "True": 3289,
      "pairs": 3290,
      "rgb": 3291,
      "luhn": 3292,
      "string_buffers": 3293,
      "VARS": 3294,
      "INITIALIZE": 3295,
      "slide": 3296,
      "bottles": 3297,
      "implementation": 3298,
      "rpn": 3299,
      "LETTER": 3300,
      "FORTRAN": 3301,
      "Initial": 3302,
      "CBL_": 3303,
      "LAYERS": 3304,
      "oftware": 3305,
      "get_line_from_stream": 3306,
      "$)": 3307,
      "&\")')": 3308,
      "']": 3309,
      "(*": 3310,
      "49": 3311,
      "69": 3312,
      "600": 3313,
      "81": 3314,
      "=./": 3315,
      "Bu": 3316,
      "Center": 3317,
      "Date": 3318,
      "False": 3319,
      "Gr": 3320,
      "How": 3321,
      "Here": 3322,
      "LD": 3323,
      "MSTASH": 3324,
      "Nor": 3325,
      "OUS": 3326,
      "OTHER": 3327,
      "bpos": 3328,
      "c2": 3329,
      "center": 3330,
      "hind": 3331,
      "ius": 3332,
      "osx": 3333,
      "pth": 3334,
      "pted": 3335,
      "qstr": 3336,
      "rt": 3337,
      "ram": 3338,
      "spe": 3339,
      "snd": 3340,
      "w1": 3341,
      "xx": 3342,
      "x11": 3343,
      "align": 3344,
      "ond": 3345,
      "sty": 3346,
      "reco": 3347,
      "season": 3348,
      "deal": 3349,
      "depth": 3350,
      "ics": 3351,
      "ating": 3352,
      "ittle": 3353,
      "sup": 3354,
      "aystack": 3355,
      "adj": 3356,
      "numpos": 3357,
      "abl": 3358,
      "extract": 3359,
      "bug": 3360,
      "THAT": 3361,
      "ANT": 3362,
      "PLOT": 3363,
      "quaternion": 3364,
      "prev": 3365,
      "addr": 3366,
      "lengths": 3367,
      "120": 3368,
      "DECK": 3369,
      "bot": 3370,
      "box": 3371,
      "ginal": 3372,
      "harvest": 3373,
      "intrinsics": 3374,
      ".\"),": 3375,
      "ABS": 3376,
      "vm_assem": 3377,
      "ensure_there_is_": 3378,
      "positions": 3379,
      "quest": 3380,
      "IMAL": 3381,
      "skip_specif": 3382,
      "generation": 3383,
      "RETURNING": 3384,
      "multiplication": 3385,
      "IGHT": 3386,
      "Door": 3387,
      "stepper": 3388,
      "means": 3389,
      "Idx": 3390,
      "fect": 3391,
      "assignment": 3392,
      "ULL": 3393,
      "000000000000": 3394,
      "enough_stack": 3395,
      "**************************************************************": 3396,
      "newline_char": 3397,
      "_substring": 3398,
      "edges": 3399,
      "TOTAL": 3400,
      "COLUMN": 3401,
      "COLUMNS": 3402,
      "strip": 3403,
      "permutation": 3404,
      "pangram": 3405,
      "ic_character": 3406,
      "MD5": 3407,
      "bad_vm_assem": 3408,
      "RESPONSES": 3409,
      "COMPLEX": 3410,
      "ensure_there_is_enough_stack": 3411,
      "skip_specific_character": 3412,
      "bad_vm_assembly": 3413,
      "ensure_there_is_enough_stack_data": 3414,
      "\"]": 3415,
      "'-": 3416,
      ",\"(": 3417,
      "37": 3418,
      ":-": 3419,
      "Ap": 3420,
      "Base": 3421,
      "BLA": 3422,
      "Brd": 3423,
      "Cop": 3424,
      "GH": 3425,
      "GEN": 3426,
      "GUR": 3427,
      "Ju": 3428,
      "KL": 3429,
      "LY": 3430,
      "MTH": 3431,
      "NCOL": 3432,
      "PASS": 3433,
      "Que": 3434,
      "Sun": 3435,
      "];": 3436,
      "_masks": 3437,
      "bar": 3438,
      "gment": 3439,
      "itotal": 3440,
      "kode": 3441,
      "little": 3442,
      "noun": 3443,
      "omp": 3444,
      "rdp": 3445,
      "sdx": 3446,
      "vin": 3447,
      "demo": 3448,
      "tom": 3449,
      "itself": 3450,
      "cobol": 3451,
      "ummy": 3452,
      "ER_": 3453,
      "strtab": 3454,
      "veal": 3455,
      "outx": 3456,
      "outstr": 3457,
      "numval": 3458,
      "numdays": 3459,
      "exe": 3460,
      "expect": 3461,
      "moves": 3462,
      "brace": 3463,
      "lls": 3464,
      "map": 3465,
      "player": 3466,
      "compose": 3467,
      "VALUES": 3468,
      "maximum": 3469,
      "wever": 3470,
      "array_ahead": 3471,
      "irt": 3472,
      "prior": 3473,
      "Return": 3474,
      "indexed": 3475,
      "test_": 3476,
      "FIGUR": 3477,
      "OUT_STR": 3478,
      "returns": 3479,
      "compass": 3480,
      "CONFIGUR": 3481,
      "scratchpad": 3482,
      "runast": 3483,
      ",\"<": 3484,
      "ized": 3485,
      "tk_E": 3486,
      "swallowed": 3487,
      "clock": 3488,
      "tens": 3489,
      "forest": 3490,
      "swaps": 3491,
      "swapped": 3492,
      "IOSTAT": 3493,
      "Left": 3494,
      "attacking": 3495,
      "radian": 3496,
      "POSIT": 3497,
      "easter": 3498,
      "BAG": 3499,
      "004017": 3500,
      "inclu": 3501,
      "HEAD": 3502,
      "Swap": 3503,
      "Digit": 3504,
      "Function": 3505,
      "_behind": 3506,
      "further": 3507,
      "BLAH": 3508,
      "nounce": 3509,
      "CONFIGURATION": 3510,
      "110": 3511,
      "41": 3512,
      "At": 3513,
      "AMP": 3514,
      "Arg": 3515,
      "BAD": 3516,
      "Crypt": 3517,
      "CITY": 3518,
      "Ent": 3519,
      "FT": 3520,
      "Foo": 3521,
      "Nil": 3522,
      "OSP": 3523,
      "PEND": 3524,
      "RATIONAL": 3525,
      "Su": 3526,
      "Simple": 3527,
      "T_": 3528,
      "W_": 3529,
      "[]]": 3530,
      "_end": 3531,
      "_one": 3532,
      "_full": 3533,
      "_construct": 3534,
      "ati": 3535,
      "cli": 3536,
      "every": 3537,
      "fst": 3538,
      "h1": 3539,
      "h2": 3540,
      "lang": 3541,
      "lDictionary": 3542,
      "past": 3543,
      "tun": 3544,
      "tuple": 3545,
      "virt": 3546,
      "enc": 3547,
      "along": 3548,
      "arsh": 3549,
      "ori": 3550,
      "ths": 3551,
      "remain": 3552,
      "seen": 3553,
      "isprime": 3554,
      "acci": 3555,
      "supp": 3556,
      "ARING": 3557,
      "enty": 3558,
      "proble": 3559,
      "int_kind": 3560,
      "of_t": 3561,
      "pear": 3562,
      "pefully": 3563,
      "ab_char": 3564,
      "posy": 3565,
      "move_": 3566,
      "func": 3567,
      "functions": 3568,
      "consider": 3569,
      "bead": 3570,
      "elt": 3571,
      "string_table_t": 3572,
      "_tab_char": 3573,
      "shift": 3574,
      "adder": 3575,
      "system": 3576,
      "word_": 3577,
      "starts": 3578,
      "texts": 3579,
      "longest": 3580,
      "sumn": 3581,
      "records": 3582,
      "CURSE": 3583,
      "substring": 3584,
      "others": 3585,
      "\\\\\\\\": 3586,
      "opening": 3587,
      "er_of_t": 3588,
      "clear": 3589,
      "ways": 3590,
      "555": 3591,
      "power_of_t": 3592,
      "new_strbuf": 3593,
      "balanced": 3594,
      "right_": 3595,
      "assign_": 3596,
      "WORDS": 3597,
      "needle": 3598,
      "ieee": 3599,
      "olyday": 3600,
      "ast_node_t": 3601,
      "pping": 3602,
      "VECTOR_1": 3603,
      "next_power_of_t": 3604,
      "Enough": 3605,
      "operation": 3606,
      "ROUNDS": 3607,
      "Keyword_": 3608,
      "quote": 3609,
      "the_keys": 3610,
      "duplicate": 3611,
      "ALLOCATE": 3612,
      "Pair": 3613,
      "gcd": 3614,
      "SRT": 3615,
      "alternate": 3616,
      "rng": 3617,
      "XYZ": 3618,
      "bounded_": 3619,
      "Multiply": 3620,
      "style": 3621,
      "recogn": 3622,
      "adjusted": 3623,
      "bottom": 3624,
      "forestfire": 3625,
      "_full_string": 3626,
      "virtual": 3627,
      "next_power_of_two": 3628,
      "!-*-": 3629,
      "())": 3630,
      "/,": 3631,
      "61": 3632,
      "62": 3633,
      ">(": 3634,
      "Ab": 3635,
      "CU": 3636,
      "Clo": 3637,
      "CNT": 3638,
      "EV": 3639,
      "FIF": 3640,
      "GR": 3641,
      "LR": 3642,
      "LZ": 3643,
      "M1": 3644,
      "OIC": 3645,
      "Qu": 3646,
      "RP": 3647,
      "Res": 3648,
      "She": 3649,
      "Sorted": 3650,
      "T1": 3651,
      "TC": 3652,
      "Too": 3653,
      "Time": 3654,
      "VO": 3655,
      "VW": 3656,
      "WN": 3657,
      "YPE": 3658,
      "\\/\\\\\\": 3659,
      "ev": 3660,
      "equi": 3661,
      "foo": 3662,
      "haystack": 3663,
      "lc": 3664,
      "lst": 3665,
      "sine": 3666,
      "she": 3667,
      "saf": 3668,
      "tbl": 3669,
      "ug": 3670,
      "erman": 3671,
      "stash": 3672,
      "stones": 3673,
      "reached": 3674,
      "least": 3675,
      "leted": 3676,
      "anti": 3677,
      "segment": 3678,
      "at_end": 3679,
      "terms": 3680,
      "amma": 3681,
      "note": 3682,
      "und": 3683,
      "itch": 3684,
      "coord": 3685,
      "008": 3686,
      "suit": 3687,
      "ORY": 3688,
      "cember": 3689,
      "did": 3690,
      "abstract": 3691,
      "extrac": 3692,
      "REPOSIT": 3693,
      "and_": 3694,
      "needed": 3695,
      "counting": 3696,
      "CHOIC": 3697,
      "ILS": 3698,
      "DED": 3699,
      "DECL": 3700,
      "11x11": 3701,
      "BYTE": 3702,
      "COMPUT": 3703,
      "STORE": 3704,
      "pts": 3705,
      "angles": 3706,
      "avl_tree": 3707,
      "n_max": 3708,
      "isto": 3709,
      "December": 3710,
      "FACT": 3711,
      "Announce": 3712,
      "BEARING": 3713,
      "closed": 3714,
      "strbuf_t_length": 3715,
      "gtk": 3716,
      "gridsize": 3717,
      "QRST": 3718,
      "LINPR": 3719,
      "_of_line": 3720,
      "VERSE": 3721,
      "Subtract": 3722,
      "locate": 3723,
      "987": 3724,
      "cobc": 3725,
      "fifo": 3726,
      "I8FMT": 3727,
      "licenses": 3728,
      "palindrome": 3729,
      "stamp": 3730,
      "instance": 3731,
      "CONSTANT": 3732,
      "Verse": 3733,
      "sequenti": 3734,
      "***************************************************************": 3735,
      "Copy": 3736,
      "KLM": 3737,
      "Queue": 3738,
      "VWXYZ": 3739,
      "equival": 3740,
      "at_end_of_line": 3741,
      "extracted": 3742,
      "REPOSITORY": 3743,
      "!-----------------------------------------------------------------------": 3744,
      ".(": 3745,
      ".)/": 3746,
      "BO": 3747,
      "Bl": 3748,
      "Dist": 3749,
      "ELEMENT": 3750,
      "Fin": 3751,
      "FOUND": 3752,
      "GROUND": 3753,
      "MAT": 3754,
      "OK": 3755,
      "Ob": 3756,
      "Put": 3757,
      "Sem": 3758,
      "Using": 3759,
      "UVWXYZ": 3760,
      "_file": 3761,
      "_mod": 3762,
      "_FILE": 3763,
      "_factors": 3764,
      "ba": 3765,
      "cent": 3766,
      "carry": 3767,
      "f1": 3768,
      "kl": 3769,
      "pen": 3770,
      "rto": 3771,
      "tac": 3772,
      "wd": 3773,
      "were": 3774,
      "z_": 3775,
      "instr": 3776,
      "encode": 3777,
      "alph": 3778,
      "rem": 3779,
      "ends": 3780,
      "nothing": 3781,
      "001": 3782,
      "))/": 3783,
      "))))": 3784,
      "ashed": 3785,
      "ISPRIME": 3786,
      "five": 3787,
      "opPR": 3788,
      "abel": 3789,
      "lot": 3790,
      "import": 3791,
      "console": 3792,
      "below": 3793,
      "disabl": 3794,
      "divisors": 3795,
      "tag": 3796,
      "lib": 3797,
      "printast": 3798,
      "Rec": 3799,
      "FIB": 3800,
      "contain": 3801,
      "SIG": 3802,
      "scri": 3803,
      "rcc": 3804,
      "avoid": 3805,
      "beginning": 3806,
      "s_attack_check": 3807,
      "agon": 3808,
      "TAU": 3809,
      "Any": 3810,
      "flat": 3811,
      "makeleaf": 3812,
      "avl_pointer_": 3813,
      "write_bishop": 3814,
      "HTMLT": 3815,
      "DEFGH": 3816,
      "insert": 3817,
      "viously": 3818,
      "Allocate": 3819,
      "\"-\"": 3820,
      "larger": 3821,
      "large": 3822,
      "Divide": 3823,
      "letters": 3824,
      "board_rot": 3825,
      "brackets": 3826,
      "loadast": 3827,
      "height_R": 3828,
      "Character": 3829,
      "failure": 3830,
      "routines": 3831,
      "Place": 3832,
      "INPD": 3833,
      "ABCDEFGH": 3834,
      "ascending": 3835,
      "FINISH": 3836,
      "IJKLM": 3837,
      "Negate": 3838,
      "Generate": 3839,
      "progname": 3840,
      "Initialize": 3841,
      "Juli": 3842,
      "move_alloc": 3843,
      "safe": 3844,
      "QRSTUVWXYZ": 3845,
      "board_rotate": 3846,
      "ABCDEFGHIJKLM": 3847,
      "'[": 3848,
      "04": 3849,
      "360": 3850,
      "75": 3851,
      "900": 3852,
      ":*)": 3853,
      "<'": 3854,
      "=:),": 3855,
      "AMO": 3856,
      "DIC": 3857,
      "DLE": 3858,
      "F7": 3859,
      "FACE": 3860,
      "GCD": 3861,
      "LP": 3862,
      "N1": 3863,
      "N2": 3864,
      "NOP": 3865,
      "Node": 3866,
      "Oh": 3867,
      "Push": 3868,
      "Tot": 3869,
      "UB": 3870,
      "Use": 3871,
      "Win": 3872,
      "WAY": 3873,
      "XX": 3874,
      "Y1": 3875,
      "_TEMP": 3876,
      "burn": 3877,
      "btest": 3878,
      "bility": 3879,
      "eth": 3880,
      "fam": 3881,
      "histo": 3882,
      "land": 3883,
      "later": 3884,
      "ncol": 3885,
      "niven": 3886,
      "q_": 3887,
      "ren": 3888,
      "rence": 3889,
      "yr": 3890,
      "arith": 3891,
      "oring": 3892,
      "reshape": 3893,
      "account": 3894,
      "nop": 3895,
      "outfile": 3896,
      "ined": 3897,
      "plan": 3898,
      "01234": 3899,
      "ARG": 3900,
      "num_": 3901,
      "*,'": 3902,
      "exact": 3903,
      "extend": 3904,
      "ATAN": 3905,
      "TOK": 3906,
      "\")\")',": 3907,
      "LESS": 3908,
      "kind11x11": 3909,
      "THOR": 3910,
      "RAW": 3911,
      "verage": 3912,
      "apier": 3913,
      "assum": 3914,
      "100000": 3915,
      "add_": 3916,
      "setta": 3917,
      "trials": 3918,
      "body": 3919,
      "USER": 3920,
      "get_next_": 3921,
      "runtime": 3922,
      "avail": 3923,
      "POKE": 3924,
      ")\")')": 3925,
      "COLOR": 3926,
      "occurrence": 3927,
      "zz9": 3928,
      "factorial": 3929,
      "c_ang": 3930,
      "Compute": 3931,
      "12345": 3932,
      "follows": 3933,
      "DIVIDE_TEMP": 3934,
      "Rosetta": 3935,
      "happen": 3936,
      "hello": 3937,
      "!******************************************************************************": 3938,
      "readings": 3939,
      "remains": 3940,
      "INTERFACE": 3941,
      "Hopefully": 3942,
      "INFO": 3943,
      "^^^^": 3944,
      "11111111": 3945,
      "finalize": 3946,
      "writing": 3947,
      "license": 3948,
      "rosettac": 3949,
      "vm_code_t": 3950,
      "AUTHOR": 3951,
      "MERGE": 3952,
      "binding": 3953,
      "tape_ahead": 3954,
      "mediate": 3955,
      "make_internal": 3956,
      "either": 3957,
      "vector": 3958,
      "RANDOM_NUMBER": 3959,
      "execu": 3960,
      "AMPLE": 3961,
      "original": 3962,
      "problem": 3963,
      "sequential": 3964,
      "Julian": 3965,
      "AMOUNT": 3966,
      "NOPQRSTUVWXYZ": 3967,
      "burning": 3968,
      "histogram": 3969,
      "get_next_ch": 3970,
      "available": 3971,
      "occurrences": 3972,
      "rosettacode": 3973,
      "make_internal_node": 3974,
      "'\"": 3975,
      "'//": 3976,
      ")!": 3977,
      ",\")": 3978,
      ".\".": 3979,
      "85": 3980,
      "92": 3981,
      ">\")": 3982,
      "Ah": 3983,
      "Ano": 3984,
      "Bo": 3985,
      "Boo": 3986,
      "DC": 3987,
      "DER": 3988,
      "DBLE": 3989,
      "Dummy": 3990,
      "Eof": 3991,
      "Finger": 3992,
      "Fingers": 3993,
      "GLE": 3994,
      "I6": 3995,
      "IAN": 3996,
      "MIST": 3997,
      "MLINE": 3998,
      "NF": 3999,
      "Pas": 4000,
      "SC": 4001,
      "Ser": 4002,
      "Tri": 4003,
      "V999": 4004,
      "_literal": 4005,
      "aint": 4006,
      "cate": 4007,
      "cap": 4008,
      "d1": 4009,
      "d5": 4010,
      "f2": 4011,
      "fcolor": 4012,
      "g0": 4013,
      "hnums": 4014,
      "ia": 4015,
      "jz": 4016,
      "jmp": 4017,
      "jpos": 4018,
      "kp": 4019,
      "kes": 4020,
      "mdr": 4021,
      "nRead": 4022,
      "uage": 4023,
      "v_": 4024,
      "vx": 4025,
      "wins": 4026,
      "xel": 4027,
      "||": 4028,
      "alar": 4029,
      "onacci": 4030,
      "still": 4031,
      "around": 4032,
      "lection": 4033,
      "lease": 4034,
      "lement": 4035,
      "annon": 4036,
      "tice": 4037,
      "ties": 4038,
      "del": 4039,
      "detail": 4040,
      "rook_": 4041,
      "under": 4042,
      "coding": 4043,
      "doc": 4044,
      "door": 4045,
      "adjust": 4046,
      "plier": 4047,
      "atest": 4048,
      "dious": 4049,
      "num_nodes": 4050,
      "REM": 4051,
      "99999": 4052,
      "med": 4053,
      "metic": 4054,
      "CTR": 4055,
      "trx": 4056,
      "mage": 4057,
      "t_token": 4058,
      "number_of": 4059,
      "duce": 4060,
      "strings_": 4061,
      "PROG": 4062,
      "ANGLE": 4063,
      "filesize": 4064,
      "parameters": 4065,
      "compu": 4066,
      "token_name": 4067,
      "length1": 4068,
      "DEC": 4069,
      "ASCI": 4070,
      "reads": 4071,
      "(\"-": 4072,
      "Real": 4073,
      "outputter": 4074,
      "node_Not": 4075,
      "node_Greater": 4076,
      "node_Less": 4077,
      "procedures": 4078,
      "i_ch": 4079,
      "testing": 4080,
      "ets": 4081,
      "etch": 4082,
      "_____": 4083,
      "_______": 4084,
      "works": 4085,
      "get_ch": 4086,
      "scalar": 4087,
      "run_": 4088,
      "running": 4089,
      "250": 4090,
      "hope": 4091,
      "EXAMPLE": 4092,
      "s_simple": 4093,
      "switch": 4094,
      "LINES": 4095,
      "passwd": 4096,
      "twenty": 4097,
      "FFFF": 4098,
      "Product": 4099,
      "pixel": 4100,
      "solve": 4101,
      "solved": 4102,
      "Dec": 4103,
      "+++": 4104,
      "CALEND": 4105,
      "_strings": 4106,
      "fullname": 4107,
      "SYNC": 4108,
      "VECTOR_2": 4109,
      "------------------------------------------------------------------": 4110,
      "radius": 4111,
      "WriteLn": 4112,
      "Parameter": 4113,
      "IBAN": 4114,
      "New": 4115,
      "expect_token": 4116,
      "fifo_": 4117,
      "jumping": 4118,
      "Day_of_": 4119,
      "https": 4120,
      "unget_count": 4121,
      "N_ROUNDS": 4122,
      "layer": 4123,
      "seqlen": 4124,
      "HOLE": 4125,
      "rosetta": 4126,
      "normal": 4127,
      "SWAP": 4128,
      "different": 4129,
      "relative_address": 4130,
      "open_for_input": 4131,
      "r_simple": 4132,
      "Limit": 4133,
      "GENER": 4134,
      "language": 4135,
      "ieee_": 4136,
      "Close": 4137,
      "avl_tree_t": 4138,
      "ABCDEFGHIJKLMNOPQRSTUVWXYZ": 4139,
      "ASCII": 4140,
      "Day_of_week": 4141,
      "!************************************************": 4142,
      "\"%": 4143,
      "'\"'": 4144,
      ")//": 4145,
      ".\")')": 4146,
      ":(": 4147,
      ">'": 4148,
      ">\".": 4149,
      "AH": 4150,
      "AST": 4151,
      "Cnt": 4152,
      "DIF": 4153,
      "EMIT": 4154,
      "Guess": 4155,
      "He": 4156,
      "I10": 4157,
      "Mer": 4158,
      "MUN": 4159,
      "NSTASH": 4160,
      "NULL": 4161,
      "Pi": 4162,
      "PVAL": 4163,
      "R2": 4164,
      "SK": 4165,
      "SIN": 4166,
      "Sat": 4167,
      "Since": 4168,
      "Software": 4169,
      "Y2": 4170,
      "_0": 4171,
      "_1": 4172,
      "_p": 4173,
      "_print": 4174,
      "_found": 4175,
      "_search": 4176,
      "ah": 4177,
      "dam": 4178,
      "ef": 4179,
      "east": 4180,
      "eax": 4181,
      "echo": 4182,
      "fetch": 4183,
      "ghe": 4184,
      "gamma": 4185,
      "i5": 4186,
      "ii": 4187,
      "iop": 4188,
      "ibits": 4189,
      "kin": 4190,
      "king": 4191,
      "ml": 4192,
      "mplicit": 4193,
      "nine": 4194,
      "ncop": 4195,
      "napier": 4196,
      "ping": 4197,
      "ron": 4198,
      "sday": 4199,
      "sift": 4200,
      "tcolor": 4201,
      "v1": 4202,
      "your": 4203,
      "yms": 4204,
      "ont": 4205,
      "stashed": 4206,
      "though": 4207,
      "reset": 4208,
      "sec": 4209,
      "des": 4210,
      "INVO": 4211,
      "ified": 4212,
      "not_": 4213,
      "cost": 4214,
      "six": 4215,
      "val_string": 4216,
      "ISON": 4217,
      "plify": 4218,
      "fib": 4219,
      "options": 4220,
      "about": 4221,
      "poten": 4222,
      "102": 4223,
      "made": 4224,
      "never": 4225,
      "necess": 4226,
      "buff": 4227,
      "cour": 4228,
      "spon": 4229,
      "span": 4230,
      "files": 4231,
      "take": 4232,
      "GEST": 4233,
      "127": 4234,
      "blue": 4235,
      "Three": 4236,
      "327": 4237,
      "both": 4238,
      "newNode": 4239,
      "GOOD": 4240,
      "CHARACTERS": 4241,
      "mented": 4242,
      "longer": 4243,
      ")')'": 4244,
      "workPolygon": 4245,
      "150": 4246,
      "rown": 4247,
      "nonyms": 4248,
      "ILLIONS": 4249,
      "ZZZ9": 4250,
      "PRISON": 4251,
      "Note": 4252,
      "statements": 4253,
      "finish": 4254,
      "recursion": 4255,
      "iso_c_": 4256,
      "avl_delete": 4257,
      "iterations": 4258,
      "strbuf_t_set": 4259,
      "strbuf_t_ensure_storage": 4260,
      "strbuf_t_append": 4261,
      "uffle": 4262,
      "Second": 4263,
      "Fill": 4264,
      "Shuffle": 4265,
      "better": 4266,
      "What": 4267,
      "THETA": 4268,
      "MARK": 4269,
      "SizeOf": 4270,
      "diff": 4271,
      "bishop1_": 4272,
      "================================================================": 4273,
      "SOME": 4274,
      "ternary": 4275,
      "Syncop": 4276,
      "Synonyms": 4277,
      "next_vertex": 4278,
      "Writeln": 4279,
      "cards": 4280,
      "print_usage": 4281,
      "blocks": 4282,
      "interpreter_": 4283,
      "Divisors": 4284,
      "calculate_area": 4285,
      "Maybe": 4286,
      "cobweb": 4287,
      "World": 4288,
      "SYMB": 4289,
      "Good": 4290,
      "lexer_token_": 4291,
      "volume": 4292,
      "'/'": 4293,
      "BITS": 4294,
      "highe": 4295,
      "holder": 4296,
      "primary": 4297,
      "lexer_input_t": 4298,
      "rook1_mask_": 4299,
      "abcdef": 4300,
      "approx": 4301,
      "Grab": 4302,
      "NCOLS": 4303,
      "radians": 4304,
      "Total": 4305,
      "arithmetic": 4306,
      "0123456789": 4307,
      "execute": 4308,
      "Another": 4309,
      "Boolean": 4310,
      "Pascal": 4311,
      "INVOKE": 4312,
      "iso_c_binding": 4313,
      "Syncopation": 4314,
      "highest": 4315,
      "\"+": 4316,
      "\"</": 4317,
      "(=": 4318,
      ",')": 4319,
      "1A1": 4320,
      "84": 4321,
      "89": 4322,
      ":,": 4323,
      ":',": 4324,
      "<<": 4325,
      "Bounded": 4326,
      "Cast": 4327,
      "Its": 4328,
      "JUL": 4329,
      "KIND": 4330,
      "LAR": 4331,
      "MID": 4332,
      "NENTRY": 4333,
      "OI": 4334,
      "Oper": 4335,
      "PF": 4336,
      "Run": 4337,
      "Right": 4338,
      "RCI": 4339,
      "T2": 4340,
      "TTEN": 4341,
      "Util": 4342,
      "VN": 4343,
      "WID": 4344,
      "XL": 4345,
      "YD": 4346,
      "[\"": 4347,
      "_str": 4348,
      "_NUM_": 4349,
      "_backwards": 4350,
      "d2": 4351,
      "df": 4352,
      "eb": 4353,
      "f4": 4354,
      "hs": 4355,
      "hit": 4356,
      "had": 4357,
      "hours": 4358,
      "ja": 4359,
      "jo": 4360,
      "jum": 4361,
      "kron": 4362,
      "lord": 4363,
      "march": 4364,
      "mill": 4365,
      "odious": 4366,
      "pins": 4367,
      "rv": 4368,
      "rfrom": 4369,
      "rounded": 4370,
      "tz": 4371,
      "utes": 4372,
      "vy": 4373,
      "wxyz": 4374,
      "thth": 4375,
      "anization": 4376,
      "isbn": 4377,
      "decode": 4378,
      "debug": 4379,
      "INST": 4380,
      "ication": 4381,
      "room": 4382,
      "cos": 4383,
      "umul": 4384,
      "ERY": 4385,
      "domain": 4386,
      "docs": 4387,
      "addi": 4388,
      "sible": 4389,
      "cei": 4390,
      "ISO": 4391,
      "011": 4392,
      "opJ": 4393,
      "STAck": 4394,
      "lenn": 4395,
      "parser": 4396,
      "peri": 4397,
      "perman": 4398,
      "UNSIG": 4399,
      "hether": 4400,
      "dup": 4401,
      "idy": 4402,
      "COPY": 4403,
      "inputbit": 4404,
      "vminterpreter": 4405,
      "WRITTEN": 4406,
      "shannon": 4407,
      "quare": 4408,
      "quick": 4409,
      "tokenize": 4410,
      "presum": 4411,
      "esc": 4412,
      "128": 4413,
      "data_size": 4414,
      "Inser": 4415,
      "up_address": 4416,
      "Reveal": 4417,
      "outputbit": 4418,
      "node_Nil": 4419,
      "i_right": 4420,
      "cording": 4421,
      "compati": 4422,
      "etc": 4423,
      "nextsymbol": 4424,
      "888": 4425,
      "QUO": 4426,
      "QUAD": 4427,
      "QUERY": 4428,
      "NED": 4429,
      "NEG": 4430,
      "TRY": 4431,
      "(/\"": 4432,
      "'''": 4433,
      "''\",": 4434,
      "ENTRYTEXT": 4435,
      "DIGITSUM": 4436,
      "fixup_address": 4437,
      "SHIF": 4438,
      "_cast": 4439,
      "TRAIL": 4440,
      "month31": 4441,
      "Dog": 4442,
      "popcnt": 4443,
      "Compare": 4444,
      "12345678": 4445,
      "Should": 4446,
      "Perform": 4447,
      "Perfect": 4448,
      "after_subtree": 4449,
      "Roll": 4450,
      "FLOYD": 4451,
      "contents": 4452,
      "!**************************************************************************************": 4453,
      "Paren": 4454,
      "largest": 4455,
      "simplify": 4456,
      "skip_whitespace_backwards": 4457,
      "Chr": 4458,
      "organization": 4459,
      "iseven": 4460,
      "easy": 4461,
      "fractions": 4462,
      "oqx1": 4463,
      "writ": 4464,
      "permutations": 4465,
      "sieve_table": 4466,
      "_table_t_look_up": 4467,
      "FPC": 4468,
      "indices": 4469,
      "requires": 4470,
      "selected_int_kind": 4471,
      "passed": 4472,
      "shifted": 4473,
      "simulation": 4474,
      "pickw1": 4475,
      "JDAYN": 4476,
      "REPLACE": 4477,
      "Entry": 4478,
      "RATIONALISE": 4479,
      "alphab": 4480,
      "containing": 4481,
      "avl_pointer_pair": 4482,
      "FINISHED": 4483,
      "family": 4484,
      "caten": 4485,
      "details": 4486,
      "CALENDAR": 4487,
      "!****************************************************": 4488,
      "RCImage": 4489,
      "WIDTH": 4490,
      "INSTALL": 4491,
      "permanent": 4492,
      "UNSIGNED": 4493,
      "after_subtree_address": 4494,
      "!***************************************************************************************": 4495,
      "!$": 4496,
      "\">": 4497,
      "'='": 4498,
      "(+": 4499,
      ")::": 4500,
      ")==": 4501,
      "/(": 4502,
      "/),": 4503,
      "1H": 4504,
      "59": 4505,
      "63": 4506,
      "8_rik": 4507,
      "@@": 4508,
      "A3": 4509,
      "AGRAM": 4510,
      "AILS": 4511,
      "Cl": 4512,
      "DA": 4513,
      "D_": 4514,
      "F0": 4515,
      "Factor": 4516,
      "FGET": 4517,
      "GAS": 4518,
      "GHT": 4519,
      "HU": 4520,
      "Har": 4521,
      "HOR": 4522,
      "IENTRY": 4523,
      "IABLE": 4524,
      "IEVAL": 4525,
      "IMAG": 4526,
      "KN": 4527,
      "NATE": 4528,
      "OU": 4529,
      "PRET": 4530,
      "RS": 4531,
      "SL": 4532,
      "WA": 4533,
      "_to": 4534,
      "_sort": 4535,
      "_in_": 4536,
      "_or_": 4537,
      "_quote": 4538,
      "aa": 4539,
      "cdr": 4540,
      "cumul": 4541,
      "font": 4542,
      "ging": 4543,
      "hol": 4544,
      "holyday": 4545,
      "ler": 4546,
      "ming": 4547,
      "nn": 4548,
      "nth": 4549,
      "qrst": 4550,
      "ru": 4551,
      "rx": 4552,
      "rase": 4553,
      "sin": 4554,
      "swords": 4555,
      "tty": 4556,
      "tMaybe": 4557,
      "uv": 4558,
      "uish": 4559,
      "uint32_from_vm_bytes": 4560,
      "v2": 4561,
      "wr": 4562,
      "ww": 4563,
      "won": 4564,
      "wall": 4565,
      "inf": 4566,
      "infile": 4567,
      "inner": 4568,
      "tered": 4569,
      "ern": 4570,
      "ery": 4571,
      "ertain": 4572,
      "ontal": 4573,
      "stay": 4574,
      "ored": 4575,
      "thor": 4576,
      "rew": 4577,
      "really": 4578,
      "tition": 4579,
      "icated": 4580,
      "icount": 4581,
      "ribu": 4582,
      "rieve": 4583,
      "inguish": 4584,
      "attemp": 4585,
      "ature": 4586,
      "unc": 4587,
      "0001": 4588,
      "),\"": 4589,
      "),'": 4590,
      "),(": 4591,
      "),.": 4592,
      "do_": 4593,
      "outline": 4594,
      "aster": 4595,
      "plau": 4596,
      "ARR": 4597,
      "prod": 4598,
      "fimplicit": 4599,
      "REL": 4600,
      "REPE": 4601,
      "ands": 4602,
      "grou": 4603,
      "ATIVE": 4604,
      "uster": 4605,
      "conver": 4606,
      "ghij": 4607,
      "=======": 4608,
      "types": 4609,
      "',&": 4610,
      "astinterpreter": 4611,
      "linea": 4612,
      "'('": 4613,
      "ANAGRAM": 4614,
      "comb": 4615,
      "quit": 4616,
      "quake": 4617,
      "ENTYPE": 4618,
      "CHREL": 4619,
      "real_kind": 4620,
      "121": 4621,
      "maxval": 4622,
      "bling": 4623,
      "retrieve": 4624,
      "outputPoly": 4625,
      "\".\"": 4626,
      "COMPIL": 4627,
      "i_max": 4628,
      "i_left": 4629,
      "minutes": 4630,
      "FIEL": 4631,
      "gitude": 4632,
      "longitude": 4633,
      "hape": 4634,
      "checked": 4635,
      "goes": 4636,
      "work1": 4637,
      "PROCESS": 4638,
      "ABB": 4639,
      "keys_": 4640,
      "_char_kind": 4641,
      "symbol_table_t": 4642,
      "variable_index": 4643,
      "DAYS": 4644,
      "MAXIM": 4645,
      "PRIMES": 4646,
      "pie": 4647,
      "999999": 4648,
      "GETPRIME": 4649,
      "************************************************************************": 4650,
      "matching": 4651,
      "phone": 4652,
      "phrase": 4653,
      "avl_less_than": 4654,
      "lexer_output": 4655,
      "Posi": 4656,
      "Line3": 4657,
      "Line4": 4658,
      "Line5": 4659,
      "upper_": 4660,
      "ODD": 4661,
      "VERT": 4662,
      "Alas": 4663,
      "dragon": 4664,
      "Sym": 4665,
      "STRINGS": 4666,
      "Value1": 4667,
      "Value2": 4668,
      "\"'\"": 4669,
      "izontal": 4670,
      "simil": 4671,
      "reverse_": 4672,
      "comments": 4673,
      "BIGINT": 4674,
      "possibly": 4675,
      "KEYS": 4676,
      "looking": 4677,
      "fingered": 4678,
      "Look": 4679,
      "Prepare": 4680,
      "lexer_token_t": 4681,
      "PRES": 4682,
      "layout": 4683,
      "VARIABLE": 4684,
      "Mean": 4685,
      "include": 4686,
      "stamps": 4687,
      "Working": 4688,
      "TWO": 4689,
      "kelvin": 4690,
      "selected_real_kind": 4691,
      "lower_case": 4692,
      "AVAILS": 4693,
      "extended": 4694,
      "GET_COMPONENTS": 4695,
      "TMP1": 4696,
      "sufficient": 4697,
      "LYCHREL": 4698,
      "priority": 4699,
      "CITYSTAT": 4700,
      "tuple_t": 4701,
      "supported": 4702,
      "EVIL": 4703,
      "FIFTH": 4704,
      "equivalent": 4705,
      "klm": 4706,
      "nopqrst": 4707,
      "TOKENTYPE": 4708,
      "number_of_strings": 4709,
      "GENERATE": 4710,
      "course": 4711,
      "abcdefghij": 4712,
      "(=)": 4713,
      "written": 4714,
      "INSTALLATION": 4715,
      "FGETC": 4716,
      "GASP": 4717,
      "PRETTY": 4718,
      "uvwxyz": 4719,
      "REPEAT": 4720,
      "FIELD": 4721,
      "keys_count": 4722,
      "MAXIMUM": 4723,
      "avl_less_than_t": 4724,
      "nopqrstuvwxyz": 4725,
      "abcdefghijklm": 4726,
      "'#": 4727,
      "'+": 4728,
      "'----------------": 4729,
      "'>'": 4730,
      ")>": 4731,
      ".\",": 4732,
      "214": 4733,
      "4f8": 4734,
      "83": 4735,
      "93": 4736,
      ">.": 4737,
      "AG": 4738,
      "Am": 4739,
      "Bar": 4740,
      "Back": 4741,
      "BUM": 4742,
      "Bra": 4743,
      "Bill": 4744,
      "Cou": 4745,
      "CCE": 4746,
      "CATE": 4747,
      "DB": 4748,
      "EMP": 4749,
      "FR": 4750,
      "FS": 4751,
      "Fri": 4752,
      "Gun": 4753,
      "H3": 4754,
      "HN": 4755,
      "HAL": 4756,
      "HAS": 4757,
      "II": 4758,
      "JD": 4759,
      "Jan": 4760,
      "LC": 4761,
      "LER": 4762,
      "LSD": 4763,
      "Men": 4764,
      "NV": 4765,
      "ODI": 4766,
      "OMP": 4767,
      "OSI": 4768,
      "PC": 4769,
      "Pres": 4770,
      "Righ": 4771,
      "SOL": 4772,
      "SCAL": 4773,
      "Tue": 4774,
      "Us": 4775,
      "UInt": 4776,
      "WOT": 4777,
      "Z2": 4778,
      "['": 4779,
      "[]": 4780,
      "_min": 4781,
      "_UNIT": 4782,
      "_and_": 4783,
      "ai": 4784,
      "brown": 4785,
      "c3": 4786,
      "dur": 4787,
      "ec": 4788,
      "evol": 4789,
      "fri": 4790,
      "fopen": 4791,
      "hen": 4792,
      "htm": 4793,
      "ig": 4794,
      "iprec": 4795,
      "igoal": 4796,
      "kar": 4797,
      "knight": 4798,
      "ls": 4799,
      "lse": 4800,
      "lt_": 4801,
      "n3": 4802,
      "nint": 4803,
      "nsize": 4804,
      "por": 4805,
      "rs": 4806,
      "rate": 4807,
      "s1_": 4808,
      "s2_": 4809,
      "sleep": 4810,
      "ttable": 4811,
      "wa": 4812,
      "whether": 4813,
      "zy": 4814,
      "’,": 4815,
      "inc": 4816,
      "**(": 4817,
      "erve": 4818,
      "once": 4819,
      "stmt": 4820,
      "arning": 4821,
      "thus": 4822,
      "an_": 4823,
      "annot": 4824,
      "endian": 4825,
      "acro": 4826,
      "ENAME": 4827,
      "notes": 4828,
      "all_": 4829,
      "copi": 4830,
      "005": 4831,
      "ERIC": 4832,
      "))')": 4833,
      "ISB": 4834,
      "ICK": 4835,
      "010": 4836,
      "diameter": 4837,
      "IFN": 4838,
      "urned": 4839,
      "bulls": 4840,
      "mail": 4841,
      "nemon": 4842,
      "beer": 4843,
      "RIGHT": 4844,
      "iday": 4845,
      "ast_t_": 4846,
      "edt": 4847,
      "__gmp": 4848,
      "VEC": 4849,
      "size_kind": 4850,
      "divis": 4851,
      "verify": 4852,
      "commas": 4853,
      "///": 4854,
      "shall": 4855,
      "appear": 4856,
      "1001": 4857,
      "SUCCE": 4858,
      "esca": 4859,
      "DELE": 4860,
      "Invalid": 4861,
      "stats": 4862,
      "reader": 4863,
      "LOC": 4864,
      "OPSTACK": 4865,
      "returned": 4866,
      "sets": 4867,
      "Replace": 4868,
      "COMPOSI": 4869,
      "cluster": 4870,
      "node_Identifier": 4871,
      "storing": 4872,
      "named": 4873,
      "dayof": 4874,
      "mini": 4875,
      "minus": 4876,
      "SIVE": 4877,
      "ferred": 4878,
      "complete": 4879,
      "______": 4880,
      "FROM_": 4881,
      "dedicated": 4882,
      "haab": 4883,
      "checking": 4884,
      "summ": 4885,
      "runs": 4886,
      "MAKE": 4887,
      "aving": 4888,
      "6666": 4889,
      "zeros_": 4890,
      "called": 4891,
      "otherwise": 4892,
      "prime_factors": 4893,
      "tk_R": 4894,
      "bitr": 4895,
      "mult_": 4896,
      "_lines": 4897,
      "_line_from_": 4898,
      "outp_unit_no": 4899,
      "opcode_pr": 4900,
      "distinguish": 4901,
      "finite": 4902,
      "generated": 4903,
      "equal_to": 4904,
      "TEMP1": 4905,
      "powers": 4906,
      "IGN": 4907,
      "find_": 4908,
      "inp_unit_no": 4909,
      "ORDEN": 4910,
      "avl_retrieve": 4911,
      "write_vm_": 4912,
      "write_rook": 4913,
      "write_board_reflect": 4914,
      "!\"),": 4915,
      "terminate": 4916,
      "See": 4917,
      "example_": 4918,
      "examples": 4919,
      "few": 4920,
      "bias": 4921,
      "alg2": 4922,
      "except": 4923,
      "UPON": 4924,
      "Because": 4925,
      "2_mask_": 4926,
      "helper": 4927,
      "GNU": 4928,
      "left_branch_address": 4929,
      "Modu": 4930,
      "instructions": 4931,
      "\":\"": 4932,
      "series": 4933,
      "Values": 4934,
      "GetLast": 4935,
      "ignore": 4936,
      "654": 4937,
      "reading_one": 4938,
      "command_argument_count": 4939,
      "However": 4940,
      "carri": 4941,
      "moving": 4942,
      "Prec": 4943,
      "mask0": 4944,
      "004016": 4945,
      "L0P": 4946,
      "duplicates": 4947,
      "COSINE": 4948,
      "vm_code_t_": 4949,
      "Field1": 4950,
      "hexstr": 4951,
      "termine": 4952,
      "median": 4953,
      "SYMBOL_SIZE": 4954,
      "horizontal": 4955,
      "condition": 4956,
      "conditional": 4957,
      "open_for_output": 4958,
      "Choose": 4959,
      "a_stream": 4960,
      "strbuf_t_to_unicode_substring": 4961,
      "strbuf_t_to_unicode_full_string": 4962,
      "lexer_input_t_": 4963,
      "critical": 4964,
      "missing": 4965,
      "extension": 4966,
      "insert_zeros_": 4967,
      "WEST": 4968,
      "break": 4969,
      "sndx": 4970,
      "alignment": 4971,
      "arshin": 4972,
      "Abstract": 4973,
      "LZW_": 4974,
      "Obviously": 4975,
      "flatte": 4976,
      "ethiop": 4977,
      "ARGUM": 4978,
      "RAWBYTE": 4979,
      "computer": 4980,
      "SKIP": 4981,
      "siftdown": 4982,
      "potential": 4983,
      "BoundedInteger": 4984,
      "XLAT": 4985,
      "Insertion": 4986,
      "SHIFT": 4987,
      "Harshad": 4988,
      "IMAGINARY": 4989,
      "holiday": 4990,
      "VARIABLES": 4991,
      "abcdefghijklmnopqrstuvwxyz": 4992,
      "BUMF": 4993,
      "Counter": 4994,
      "Gunshannon": 4995,
      "ODIOUS": 4996,
      "Righto": 4997,
      "SCALAR": 4998,
      "Usage": 4999,
      "fopenmp": 5000,
      "s1_attack_check": 5001,
      "s2_attack_check": 5002,
      "COMPOSITE": 5003,
      "_line_from_a_stream": 5004,
      "GetLastError": 5005,
      "reading_one_line_from_a_stream": 5006,
      "\"<": 5007,
      "\"',": 5008,
      "-'": 5009,
      ".@": 5010,
      "0e": 5011,
      "199": 5012,
      "51": 5013,
      "58": 5014,
      "601": 5015,
      "96": 5016,
      "A2": 5017,
      "Au": 5018,
      "Ass": 5019,
      "Ali": 5020,
      "BB": 5021,
      "BU": 5022,
      "CB": 5023,
      "Could": 5024,
      "DX": 5025,
      "DAM": 5026,
      "DENCE": 5027,
      "E2": 5028,
      "EK": 5029,
      "FE": 5030,
      "God": 5031,
      "HUND": 5032,
      "More": 5033,
      "NON": 5034,
      "OB": 5035,
      "Over": 5036,
      "Pop": 5037,
      "RAL": 5038,
      "Row": 5039,
      "RD_": 5040,
      "Sp": 5041,
      "Spec": 5042,
      "Siz": 5043,
      "SPLOT": 5044,
      "TAR": 5045,
      "TINDEX": 5046,
      "Take": 5047,
      "YAD": 5048,
      "_TRIM": 5049,
      "_procedures": 5050,
      "away": 5051,
      "average": 5052,
      "cp": 5053,
      "ct_": 5054,
      "d3": 5055,
      "ea": 5056,
      "eous": 5057,
      "ected": 5058,
      "fp": 5059,
      "fine": 5060,
      "fav": 5061,
      "fingers": 5062,
      "gor": 5063,
      "i4": 5064,
      "jy": 5065,
      "l2": 5066,
      "lStack": 5067,
      "ny": 5068,
      "nstr": 5069,
      "npy": 5070,
      "npx": 5071,
      "ot_": 5072,
      "p3": 5073,
      "s3": 5074,
      "tre": 5075,
      "tall": 5076,
      "tut": 5077,
      "ux": 5078,
      "wal": 5079,
      "xor": 5080,
      "encoding": 5081,
      "aly": 5082,
      "always": 5083,
      "sta": 5084,
      "third": 5085,
      "analy": 5086,
      "isPrime": 5087,
      "determin": 5088,
      "decoded": 5089,
      "according": 5090,
      "rid": 5091,
      "ifmt": 5092,
      "root_": 5093,
      "atan": 5094,
      "ONAC": 5095,
      "nom": 5096,
      "ung": 5097,
      "unknown": 5098,
      "forward": 5099,
      "vex_": 5100,
      "sur": 5101,
      "ALPH": 5102,
      "asic": 5103,
      "asing": 5104,
      "ISINTEG": 5105,
      "ISBN": 5106,
      "plain": 5107,
      "plied": 5108,
      "atever": 5109,
      "ENDO": 5110,
      "ENDDO": 5111,
      "intxt": 5112,
      "fid": 5113,
      "fies": 5114,
      "option": 5115,
      "RECUR": 5116,
      "STATE": 5117,
      "len_max": 5118,
      "putc": 5119,
      "\");": 5120,
      "DIRE": 5121,
      "bye": 5122,
      "whom": 5123,
      "whose": 5124,
      "THREAD": 5125,
      "codespace": 5126,
      "acea": 5127,
      "inputs": 5128,
      "spx": 5129,
      "spy": 5130,
      "'(',": 5131,
      "wiki": 5132,
      "ANCE": 5133,
      "ANIMAL": 5134,
      "vers": 5135,
      "vertical": 5136,
      "MEM": 5137,
      "VALID": 5138,
      "apply": 5139,
      "apsed": 5140,
      "tokens": 5141,
      "CHANGE": 5142,
      "intersection": 5143,
      "125": 5144,
      "therland": 5145,
      "use_file": 5146,
      "CEDENCE": 5147,
      "FUNC": 5148,
      "cols": 5149,
      "array_behind": 5150,
      "update": 5151,
      "node_If": 5152,
      "node_Sequence": 5153,
      "NUMB": 5154,
      "NUMERIC": 5155,
      "ples": 5156,
      "CONCATE": 5157,
      "ATABLE": 5158,
      "rypted": 5159,
      "NOTE": 5160,
      "dateinfo": 5161,
      "lists": 5162,
      "subst": 5163,
      "subprogram": 5164,
      "host": 5165,
      "------------------------------------------------": 5166,
      "EXCEPT": 5167,
      "1415": 5168,
      "PRT": 5169,
      "cannot": 5170,
      "LEN_TRIM": 5171,
      "PARAMETERS": 5172,
      "ordering": 5173,
      "years": 5174,
      "Cont": 5175,
      "Const": 5176,
      "Content": 5177,
      "Prov": 5178,
      "Process": 5179,
      "viation": 5180,
      "closing": 5181,
      "Define": 5182,
      "zzz": 5183,
      "zzzz9": 5184,
      "GETREC": 5185,
      "_center": 5186,
      "Only": 5187,
      "continued": 5188,
      "months": 5189,
      "PHY": 5190,
      "terminates": 5191,
      "Seed": 5192,
      "second_ch": 5193,
      "floy": 5194,
      "123456789": 5195,
      "NUMBERS": 5196,
      "270": 5197,
      "SORTED": 5198,
      "corre": 5199,
      "MARGIN": 5200,
      "HTML3": 5201,
      "\"/))": 5202,
      "flags": 5203,
      "accepted": 5204,
      "comes": 5205,
      "ast_node_": 5206,
      "structure": 5207,
      "rational_simplify": 5208,
      "simply": 5209,
      "STEM": 5210,
      "ived": 5211,
      "COMB": 5212,
      "separate": 5213,
      "akes": 5214,
      "halt": 5215,
      "marks": 5216,
      "E_arshin": 5217,
      "succes": 5218,
      "heights": 5219,
      "decimal": 5220,
      "pointer_alpha": 5221,
      "Loop": 5222,
      "ludic": 5223,
      "PRECEDENCE": 5224,
      "rotation": 5225,
      "lat1": 5226,
      "quoted": 5227,
      "paren_expr": 5228,
      "ERROR_UNIT": 5229,
      "ALLOCATABLE": 5230,
      "drawer": 5231,
      "Chosen": 5232,
      "removed": 5233,
      "FOREVER": 5234,
      "rook1_masks": 5235,
      "whole": 5236,
      "representation": 5237,
      "calculation": 5238,
      "rgbimage": 5239,
      "luhntest": 5240,
      "(*))": 5241,
      "tk_EOI": 5242,
      "_constructor": 5243,
      "clip": 5244,
      "RPN": 5245,
      "undred": 5246,
      "COMPUTATIONAL": 5247,
      "fifo_node": 5248,
      "FIBONAC": 5249,
      "script": 5250,
      "UBOUND": 5251,
      "extends": 5252,
      "assumed": 5253,
      "rook_masks": 5254,
      "DECIMAL": 5255,
      "twentyfour": 5256,
      "Merge": 5257,
      "MUNYAD": 5258,
      "damage": 5259,
      "necessary": 5260,
      "approxim": 5261,
      "MIDDLE": 5262,
      "Utils": 5263,
      "million": 5264,
      "addition": 5265,
      "presumed": 5266,
      "avl_pointer_pair_t": 5267,
      "rewind": 5268,
      "group": 5269,
      "piece": 5270,
      "Symbol": 5271,
      "EMPTY": 5272,
      "Menu": 5273,
      "__gmpz_": 5274,
      "SUCCES": 5275,
      "helper_procedures": 5276,
      "ARGUMENT": 5277,
      "HUNDRED": 5278,
      "tutor": 5279,
      "walk": 5280,
      "root_pers": 5281,
      "vex_hull": 5282,
      "ISINTEGRAL": 5283,
      "RECURSIVE": 5284,
      "CONCATENATE": 5285,
      "EXCEPTION": 5286,
      "FIBONACCI": 5287,
      "\"|": 5288,
      "':": 5289,
      "':'": 5290,
      "'<'": 5291,
      "(%": 5292,
      ")//'": 5293,
      ",:": 5294,
      ",$)": 5295,
      "2Var": 5296,
      "73": 5297,
      "74": 5298,
      "700": 5299,
      "A10": 5300,
      "Br": 5301,
      "Call": 5302,
      "Care": 5303,
      "CUS": 5304,
      "CTED": 5305,
      "CARD": 5306,
      "Done": 5307,
      "DONE": 5308,
      "DWord": 5309,
      "Draw": 5310,
      "EC": 5311,
      "EM": 5312,
      "Enum": 5313,
      "EMO": 5314,
      "F6": 5315,
      "F9": 5316,
      "From": 5317,
      "Fib": 5318,
      "GB": 5319,
      "Gnu": 5320,
      "GFORTRAN": 5321,
      "Ha": 5322,
      "HOP": 5323,
      "Hod": 5324,
      "Iter": 5325,
      "IAR": 5326,
      "IAND": 5327,
      "LB": 5328,
      "Long": 5329,
      "Licen": 5330,
      "MW": 5331,
      "Mc": 5332,
      "Ori": 5333,
      "PS": 5334,
      "Rad": 5335,
      "RAT": 5336,
      "Roo": 5337,
      "Rank": 5338,
      "Sing": 5339,
      "Sol": 5340,
      "Sear": 5341,
      "Save": 5342,
      "TP": 5343,
      "Year": 5344,
      "\\//": 5345,
      "_2": 5346,
      "_if": 5347,
      "_by": 5348,
      "_return": 5349,
      "_PRINT": 5350,
      "_LOOP": 5351,
      "_Sort": 5352,
      "_mask_": 5353,
      "_recursion": 5354,
      "aus": 5355,
      "ather": 5356,
      "b1": 5357,
      "bcheck": 5358,
      "bak": 5359,
      "cand": 5360,
      "d7": 5361,
      "dle": 5362,
      "dash": 5363,
      "dump": 5364,
      "epo": 5365,
      "eight": 5366,
      "eps": 5367,
      "email": 5368,
      "gd": 5369,
      "got": 5370,
      "gold": 5371,
      "gman": 5372,
      "her": 5373,
      "hFile": 5374,
      "hHash": 5375,
      "hundred": 5376,
      "i8": 5377,
      "ised": 5378,
      "jected": 5379,
      "lQueue": 5380,
      "nam": 5381,
      "n_lines": 5382,
      "ove": 5383,
      "p4": 5384,
      "page": 5385,
      "q1": 5386,
      "q2": 5387,
      "rfmt": 5388,
      "rub": 5389,
      "rnums": 5390,
      "rpx": 5391,
      "sack": 5392,
      "sted": 5393,
      "tTrue": 5394,
      "tFalse": 5395,
      "uint32_to_vm_bytes": 5396,
      "wp": 5397,
      "xp": 5398,
      "xupper": 5399,
      "yupper": 5400,
      "yond": 5401,
      "zil": 5402,
      "}'": 5403,
      "inv": 5404,
      "enqueue": 5405,
      "aro": 5406,
      "arbitr": 5407,
      "restr": 5408,
      "reform": 5409,
      "rejected": 5410,
      "tis": 5411,
      "ought": 5412,
      "det": 5413,
      "dear": 5414,
      "INCOM": 5415,
      "icnt": 5416,
      "icable": 5417,
      "accumul": 5418,
      "ings": 5419,
      "ifdef": 5420,
      "notice": 5421,
      "it_": 5422,
      "itu": 5423,
      "iting": 5424,
      "itude": 5425,
      "cows": 5426,
      "coder": 5427,
      "uman": 5428,
      "theast": 5429,
      "------": 5430,
      "str2": 5431,
      "moment": 5432,
      "cept": 5433,
      "ARATIVE": 5434,
      "ents": 5435,
      "provi": 5436,
      "numpt": 5437,
      "offic": 5438,
      "pet": 5439,
      "abic": 5440,
      "abab": 5441,
      "ably": 5442,
      "above": 5443,
      "SED": 5444,
      "REMA": 5445,
      "STY": 5446,
      "STRI": 5447,
      "parr": 5448,
      "url": 5449,
      "brick": 5450,
      "trunc": 5451,
      "formfeed_char": 5452,
      "heap": 5453,
      "conf": 5454,
      "concaten": 5455,
      "convex_hull": 5456,
      "103": 5457,
      "buck": 5458,
      "magn": 5459,
      "ones_": 5460,
      "elve": 5461,
      "CODER": 5462,
      "age_return": 5463,
      "olkin": 5464,
      "oct": 5465,
      "__GFORTRAN": 5466,
      "spir": 5467,
      "ctangle": 5468,
      "_tuple": 5469,
      "ANTI": 5470,
      "file_unit": 5471,
      "verbo": 5472,
      "MEAN": 5473,
      "count_": 5474,
      "10001": 5475,
      "real64": 5476,
      "GRAD": 5477,
      "GRAY": 5478,
      "space_char": 5479,
      "units": 5480,
      "plicand": 5481,
      "..,": 5482,
      "thisis": 5483,
      "***********************************": 5484,
      "readinput": 5485,
      "(\"<": 5486,
      "OPTION": 5487,
      "Reverse": 5488,
      "Rectangle": 5489,
      "2020": 5490,
      "cla": 5491,
      "CHARAM": 5492,
      "ower": 5493,
      "node_Integer": 5494,
      "node_String": 5495,
      "USH": 5496,
      "actual": 5497,
      "CONSO": 5498,
      "odd_": 5499,
      "selection": 5500,
      "hail": 5501,
      "matmul": 5502,
      ".\"\")": 5503,
      "INT_ARRAY": 5504,
      "binary_": 5505,
      "POW": 5506,
      "\\\\\\\\\\": 5507,
      "s_in_": 5508,
      "monstr": 5509,
      "tk_G": 5510,
      "(/(": 5511,
      "opened": 5512,
      "mydll": 5513,
      "PRIMEBAG": 5514,
      "Context": 5515,
      "istty": 5516,
      "Proce": 5517,
      "Demo": 5518,
      "2003": 5519,
      "is_safe": 5520,
      "ativeUInt": 5521,
      "raise": 5522,
      "interpret": 5523,
      "cie": 5524,
      "general": 5525,
      "MONIC": 5526,
      "randbetween": 5527,
      "pher": 5528,
      "avl_contains": 5529,
      "Does": 5530,
      "Filename": 5531,
      "Comb": 5532,
      "Comma": 5533,
      "INDER": 5534,
      "mean_": 5535,
      "Ident": 5536,
      "feature": 5537,
      "thru": 5538,
      "stdErr": 5539,
      "273": 5540,
      "alg1": 5541,
      "nullify": 5542,
      "effect": 5543,
      "bishop2_masks": 5544,
      "Before": 5545,
      "NBR": 5546,
      "sawp": 5547,
      "satis": 5548,
      "';'": 5549,
      "265": 5550,
      "1010": 5551,
      "ternal": 5552,
      "GNASH": 5553,
      "0_nk": 5554,
      "linked": 5555,
      "doesn": 5556,
      "defined": 5557,
      "NUM_FOUND": 5558,
      "!********************************************************************": 5559,
      "!***************************************************************************************************": 5560,
      "root1": 5561,
      "print_arr": 5562,
      "north": 5563,
      "calculate_": 5564,
      "NEXTN": 5565,
      "NEXTPRIME": 5566,
      "2014": 5567,
      "Encode": 5568,
      "LLIONS": 5569,
      "Keep": 5570,
      "squared": 5571,
      "DEFINED": 5572,
      "operations": 5573,
      "unget_eof": 5574,
      "FREESTASH": 5575,
      "Nextgen": 5576,
      "SAM01": 5577,
      "SAM03": 5578,
      "shuffles": 5579,
      "max_vertex": 5580,
      "mask1": 5581,
      "_of_input": 5582,
      "N_SUCCES": 5583,
      "homephone": 5584,
      "lat2": 5585,
      "specialize": 5586,
      "height_L": 5587,
      "DOWN": 5588,
      "cross_product": 5589,
      "queen_masks": 5590,
      "marker": 5591,
      "HOME": 5592,
      "free_": 5593,
      "exists": 5594,
      "POK01": 5595,
      "________________________________": 5596,
      "nil_value": 5597,
      "Calculates": 5598,
      "Ackerman": 5599,
      "fusion": 5600,
      "build_subtree": 5601,
      "TMP2": 5602,
      "Build": 5603,
      "DECK_SIZE": 5604,
      "question": 5605,
      "PASSBY": 5606,
      "omp_": 5607,
      "BADC": 5608,
      "remaining": 5609,
      "considered": 5610,
      "sumnsq": 5611,
      "bounded_assign_": 5612,
      "bounded_add_": 5613,
      "CUBE": 5614,
      "TCircle": 5615,
      "lcm": 5616,
      "CHOICE": 5617,
      "DECLARATIVE": 5618,
      "Verse2Var": 5619,
      "Win64": 5620,
      "USERCODE": 5621,
      "Both": 5622,
      "Triangle": 5623,
      "DIFF": 5624,
      "Head": 5625,
      "costs": 5626,
      "bishop1_masks": 5627,
      "jumps": 5628,
      "pinski": 5629,
      "tzolkin": 5630,
      "PRETTY_PRINT": 5631,
      "'-----------------'": 5632,
      "Amicable": 5633,
      "Brazil": 5634,
      "html": 5635,
      "copies": 5636,
      "DELETE": 5637,
      "carriage_return": 5638,
      "Precision": 5639,
      "horizontal_tab_char": 5640,
      "Author": 5641,
      "vertical_tab_char": 5642,
      "CUSIP": 5643,
      "CARDS": 5644,
      "Fibonacci": 5645,
      "HOPE": 5646,
      "Hodgman": 5647,
      "Room": 5648,
      "Single": 5649,
      "Search": 5650,
      "_by_": 5651,
      "baktun": 5652,
      "epoch": 5653,
      "arbitrary": 5654,
      "INCOMING": 5655,
      "office": 5656,
      "REMAINDER": 5657,
      "STRIPE": 5658,
      "magnitude": 5659,
      "ones_index": 5660,
      "__GFORTRAN__": 5661,
      "verbose": 5662,
      "CHARAMT": 5663,
      "CONSOLE": 5664,
      "N_SUCCESSES": 5665,
      "Ackermann": 5666,
      "DECLARATIVES": 5667,
      "Brazilian": 5668,
      "carriage_return_char": 5669,
      "\"#": 5670,
      "\"}": 5671,
      "&'": 5672,
      "'/)": 5673,
      "();": 5674,
      ")]": 5675,
      "06": 5676,
      "2000": 5677,
      "4_rik": 5678,
      "71": 5679,
      "86": 5680,
      "978": 5681,
      ":\")": 5682,
      "?\"": 5683,
      "?'": 5684,
      "AA": 5685,
      "BOR": 5686,
      "BOD": 5687,
      "BTEST": 5688,
      "CF": 5689,
      "CR": 5690,
      "Card": 5691,
      "DWORK": 5692,
      "DSOR": 5693,
      "E1": 5694,
      "EB": 5695,
      "Eval": 5696,
      "Even": 5697,
      "Element": 5698,
      "F4": 5699,
      "FU": 5700,
      "Fre": 5701,
      "Flo": 5702,
      "Grid": 5703,
      "HER": 5704,
      "HAP": 5705,
      "Have": 5706,
      "I9": 5707,
      "IRE": 5708,
      "ITER": 5709,
      "IGRAY": 5710,
      "LF": 5711,
      "LU": 5712,
      "Mi": 5713,
      "MAY": 5714,
      "Might": 5715,
      "MBER": 5716,
      "Nine": 5717,
      "NPART": 5718,
      "Ou": 5719,
      "Off": 5720,
      "Pu": 5721,
      "PAS": 5722,
      "Press": 5723,
      "PMOD": 5724,
      "Please": 5725,
      "Rnd": 5726,
      "Say": 5727,
      "SAN": 5728,
      "SOF": 5729,
      "Sie": 5730,
      "South": 5731,
      "Trim": 5732,
      "TTABLE": 5733,
      "TPoint": 5734,
      "VM": 5735,
      "WK": 5736,
      "Yep": 5737,
      "Z0": 5738,
      "][[": 5739,
      "_B": 5740,
      "_list": 5741,
      "_node_variety": 5742,
      "_int32": 5743,
      "_mode": 5744,
      "_weight": 5745,
      "_sort_": 5746,
      "_error_message": 5747,
      "apu": 5748,
      "bc": 5749,
      "bp": 5750,
      "cr": 5751,
      "cir": 5752,
      "cup": 5753,
      "d4": 5754,
      "d6": 5755,
      "d8": 5756,
      "d9": 5757,
      "duration": 5758,
      "fy": 5759,
      "fast": 5760,
      "fly": 5761,
      "fli": 5762,
      "f90": 5763,
      "gal": 5764,
      "gly": 5765,
      "idi": 5766,
      "i10": 5767,
      "ierr": 5768,
      "ipiv": 5769,
      "jdo": 5770,
      "jsm": 5771,
      "kat": 5772,
      "lad": 5773,
      "lcs": 5774,
      "label": 5775,
      "mv": 5776,
      "mval": 5777,
      "np": 5778,
      "round": 5779,
      "r64": 5780,
      "rprec": 5781,
      "rhs": 5782,
      "rbp": 5783,
      "sn": 5784,
      "since": 5785,
      "south": 5786,
      "t2": 5787,
      "tur": 5788,
      "uit": 5789,
      "uary": 5790,
      "uous": 5791,
      "w3": 5792,
      "xj": 5793,
      "{'": 5794,
      "tell": 5795,
      "ented": 5796,
      "ency": 5797,
      "alle": 5798,
      "almost": 5799,
      "sting": 5800,
      "ares": 5801,
      "arly": 5802,
      "aries": 5803,
      "think": 5804,
      "rev": 5805,
      "resh": 5806,
      "ourite": 5807,
      "isInteger": 5808,
      "dete": 5809,
      "dest": 5810,
      "decon": 5811,
      "decre": 5812,
      "determine": 5813,
      "INOUT": 5814,
      "INQU": 5815,
      "INCL": 5816,
      "ices": 5817,
      "rist": 5818,
      "rot_": 5819,
      "chop": 5820,
      "unexpected": 5821,
      "unformatted": 5822,
      "doors": 5823,
      "sius": 5824,
      "sibility": 5825,
      "ALSO": 5826,
      "))),": 5827,
      "cel": 5828,
      "ISS": 5829,
      "dial": 5830,
      "callback": 5831,
      "int_": 5832,
      "numer": 5833,
      "ofyear": 5834,
      "ROUN": 5835,
      "extra": 5836,
      "pol": 5837,
      "param": 5838,
      "ground": 5839,
      "ATOR": 5840,
      "track": 5841,
      "\")\")')": 5842,
      "heit": 5843,
      "conj": 5844,
      "105": 5845,
      "FORAS": 5846,
      "beyond": 5847,
      "mpt": 5848,
      "mpty": 5849,
      "eling": 5850,
      "t_list": 5851,
      "DOG": 5852,
      "RITE": 5853,
      "dual": 5854,
      "ING_": 5855,
      "ITATION": 5856,
      "*>*": 5857,
      "PROB": 5858,
      "romic": 5859,
      "sizes": 5860,
      "ments": 5861,
      "PLIST": 5862,
      "countf": 5863,
      "taken": 5864,
      "They": 5865,
      "1005": 5866,
      "10000000000": 5867,
      "datum": 5868,
      "prepend": 5869,
      "arrange": 5870,
      "GRAB": 5871,
      "ILIM": 5872,
      "ghtly": 5873,
      "124": 5874,
      "DEMO": 5875,
      "DEPEND": 5876,
      "CESS": 5877,
      "likel": 5878,
      "maxloc": 5879,
      "....,": 5880,
      "ASC": 5881,
      "blah": 5882,
      "115": 5883,
      "stat_mode": 5884,
      "_no_": 5885,
      "weigh": 5886,
      "prints": 5887,
      "SUBSET": 5888,
      "dayname": 5889,
      "FIRE": 5890,
      "000000": 5891,
      "SIBLE": 5892,
      "compile": 5893,
      "various": 5894,
      "worth": 5895,
      "CONVERT": 5896,
      "going": 5897,
      "entire": 5898,
      "pointers": 5899,
      "modify": 5900,
      "1582": 5901,
      "backword": 5902,
      ",\":\",": 5903,
      "calc": 5904,
      "longint": 5905,
      "longcount": 5906,
      "otherfamily": 5907,
      "however": 5908,
      "POLIC": 5909,
      "first_ch": 5910,
      "keyword": 5911,
      "Str1": 5912,
      "tk_Integer": 5913,
      "tk_Ident": 5914,
      "swapu": 5915,
      "(/'": 5916,
      "password": 5917,
      ",*)'": 5918,
      "Std": 5919,
      "identifi": 5920,
      "identifier": 5921,
      "ILLION": 5922,
      "morial": 5923,
      "COMPUTER": 5924,
      "presented": 5925,
      "Prints": 5926,
      "evaluation": 5927,
      "RECL": 5928,
      "buffered": 5929,
      "WHITE": 5930,
      "ensure_node_variety": 5931,
      "n_anagrams": 5932,
      "HTTP": 5933,
      "_neg": 5934,
      "distribu": 5935,
      "BACKGROUND": 5936,
      "finally": 5937,
      "S9V9": 5938,
      "equality": 5939,
      "rectangle": 5940,
      "seeds": 5941,
      "total_weight": 5942,
      "solute": 5943,
      "ToBase": 5944,
      "c_ptr": 5945,
      "write_board_rotate": 5946,
      "daysofyear": 5947,
      "STATIC": 5948,
      "grist": 5949,
      "fields": 5950,
      "Unix": 5951,
      "123456": 5952,
      "delimiter": 5953,
      "fah": 5954,
      "IOUS": 5955,
      "THEAD": 5956,
      "HTMLTHEAD": 5957,
      "Lean": 5958,
      "LONGEST": 5959,
      "derived": 5960,
      "2_nk": 5961,
      "fruit": 5962,
      "trymov": 5963,
      "polynom": 5964,
      "0_dp": 5965,
      "444": 5966,
      "ppm": 5967,
      "SELECTED": 5968,
      "POSSIBLE": 5969,
      "Param": 5970,
      "PARTT": 5971,
      "Division": 5972,
      "codedsymbol": 5973,
      "sha256": 5974,
      "Chug": 5975,
      "neighbor": 5976,
      "curl_": 5977,
      "Gregor": 5978,
      "Lista": 5979,
      "TSquare": 5980,
      "TShape": 5981,
      "Starting": 5982,
      "parse_expression": 5983,
      "Home": 5984,
      "higher": 5985,
      "_is_all_": 5986,
      "Vari": 5987,
      "YYYY": 5988,
      "versions": 5989,
      "rankine": 5990,
      "ESC": 5991,
      "person": 5992,
      "set_tape_ahead": 5993,
      "crossProduct": 5994,
      "palindromic": 5995,
      "constructor": 5996,
      "Swallow": 5997,
      "TENTRY": 5998,
      "existing": 5999,
      "parenthe": 6000,
      "slightly": 6001,
      "bottle": 6002,
      "Byte": 6003,
      "Path": 6004,
      "fill_masks": 6005,
      "MITTED": 6006,
      "bsresult": 6007,
      "strbuf_to_string": 6008,
      "BRICK": 6009,
      "relatives": 6010,
      "DNMW": 6011,
      "TWARE": 6012,
      "required": 6013,
      "ordinates": 6014,
      "starters": 6015,
      "pascal": 6016,
      "Area": 6017,
      "Scratchpad": 6018,
      "_ARRAYS": 6019,
      "gives": 6020,
      "declared": 6021,
      "GET_SUBSET": 6022,
      "################################": 6023,
      "JDAYSHIFT": 6024,
      "North": 6025,
      "speeling": 6026,
      "onds": 6027,
      "stripped": 6028,
      "'-'": 6029,
      "Sunday": 6030,
      "HEADER_": 6031,
      "beads": 6032,
      "lst2": 6033,
      "shell": 6034,
      "DECLARE": 6035,
      "Finished": 6036,
      "Semi": 6037,
      "renheit": 6038,
      "capable": 6039,
      "lections": 6040,
      "document": 6041,
      "adjustl": 6042,
      "strings_temporary": 6043,
      "Decimal": 6044,
      "sponse": 6045,
      "avl_delete_": 6046,
      "=======================================================================": 6047,
      "Goodbye": 6048,
      "Operation": 6049,
      "_NUM_THREAD": 6050,
      "alphabet": 6051,
      "LERP": 6052,
      "OMP_NUM_THREAD": 6053,
      "nemonics": 6054,
      "divisor": 6055,
      "stats_table": 6056,
      "dayofseason": 6057,
      "haab_carry": 6058,
      "Module": 6059,
      "COSINE_": 6060,
      "flattened": 6061,
      "ethiopian": 6062,
      "Align": 6063,
      "TARGET": 6064,
      "favourite": 6065,
      "treat": 6066,
      "McLean": 6067,
      "buckets": 6068,
      "count_prime_factors": 6069,
      "OPTIONAL": 6070,
      "Procedure": 6071,
      "MiLista": 6072,
      "Public": 6073,
      "SANITATION": 6074,
      "SOFTWARE": 6075,
      "glyph": 6076,
      "jdoe": 6077,
      "jsmith": 6078,
      "katun": 6079,
      "INQUIRE": 6080,
      "ROUNDED": 6081,
      "FORASIGN": 6082,
      "DEPENDING": 6083,
      "likely": 6084,
      "weighted": 6085,
      "POLICE": 6086,
      "Gregorian": 6087,
      "OMP_NUM_THREADS": 6088,
      "!\",": 6089,
      "\"*": 6090,
      "\"=>": 6091,
      "&=": 6092,
      ")\",\"": 6093,
      ")*(": 6094,
      "*=======================================================================": 6095,
      ",$": 6096,
      ",*,": 6097,
      "/))": 6098,
      "0x": 6099,
      "1100": 6100,
      "1d0": 6101,
      "2A": 6102,
      "499": 6103,
      "405": 6104,
      "53": 6105,
      "655": 6106,
      "=:": 6107,
      "=[": 6108,
      ">;": 6109,
      "A_": 6110,
      "B1": 6111,
      "B2": 6112,
      "BBR": 6113,
      "CA": 6114,
      "CP": 6115,
      "Cau": 6116,
      "DR": 6117,
      "Dif": 6118,
      "Del": 6119,
      "DLINE": 6120,
      "EAR": 6121,
      "Equ": 6122,
      "F5": 6123,
      "F10": 6124,
      "Four": 6125,
      "Found": 6126,
      "FUL": 6127,
      "Given": 6128,
      "HAND": 6129,
      "HIG": 6130,
      "HORDEN": 6131,
      "Jo": 6132,
      "JECT": 6133,
      "JD2": 6134,
      "JAV": 6135,
      "LS": 6136,
      "Lon": 6137,
      "Lar": 6138,
      "LLIST": 6139,
      "LIGHT": 6140,
      "LFACT": 6141,
      "Label": 6142,
      "M2": 6143,
      "MR": 6144,
      "Ma": 6145,
      "Mat": 6146,
      "MBASE": 6147,
      "Make": 6148,
      "NER": 6149,
      "NIC": 6150,
      "None": 6151,
      "Ord": 6152,
      "OMITTED": 6153,
      "Ph": 6154,
      "SA": 6155,
      "S_": 6156,
      "SIS": 6157,
      "Sele": 6158,
      "Sier": 6159,
      "TJ": 6160,
      "TAS": 6161,
      "Tour": 6162,
      "TBL": 6163,
      "UG": 6164,
      "UIT": 6165,
      "UMP": 6166,
      "WIND": 6167,
      "X1": 6168,
      "X2": 6169,
      "_d": 6170,
      "_div": 6171,
      "_pos": 6172,
      "_test": 6173,
      "_right": 6174,
      "_year": 6175,
      "_command": 6176,
      "_offset": 6177,
      "_jump": 6178,
      "_operators": 6179,
      "_ichar_kind": 6180,
      "a3": 6181,
      "a8": 6182,
      "aq": 6183,
      "aLimit": 6184,
      "bash": 6185,
      "cm": 6186,
      "csize": 6187,
      "cpx": 6188,
      "dge": 6189,
      "esi": 6190,
      "eck": 6191,
      "fn": 6192,
      "fact": 6193,
      "fld": 6194,
      "gif": 6195,
      "hProv": 6196,
      "human": 6197,
      "ik": 6198,
      "ilt": 6199,
      "i12": 6200,
      "ihull": 6201,
      "ject": 6202,
      "jaro": 6203,
      "lwork": 6204,
      "lbound": 6205,
      "macro": 6206,
      "olean": 6207,
      "pci": 6208,
      "pc_": 6209,
      "r3": 6210,
      "rps": 6211,
      "sis": 6212,
      "ssed": 6213,
      "spect": 6214,
      "software": 6215,
      "saving": 6216,
      "ton": 6217,
      "tpec": 6218,
      "usu": 6219,
      "ures": 6220,
      "vt": 6221,
      "vity": 6222,
      "w8": 6223,
      "wrd": 6224,
      "warsh": 6225,
      "x3": 6226,
      "|'": 6227,
      "|\",": 6228,
      "inform": 6229,
      "inline": 6230,
      "invol": 6231,
      "inux": 6232,
      "alen": 6233,
      "onics": 6234,
      "stoo": 6235,
      "arabic": 6236,
      "threads": 6237,
      "rec": 6238,
      "reason": 6239,
      "remarks": 6240,
      "tit": 6241,
      "tices": 6242,
      "sep": 6243,
      "seven": 6244,
      "ender": 6245,
      "iso": 6246,
      "isdigit": 6247,
      "isalpha": 6248,
      "dele": 6249,
      "demonstr": 6250,
      "integr": 6251,
      "INHER": 6252,
      "acing": 6253,
      "ENTER": 6254,
      "ife": 6255,
      "ification": 6256,
      "cover": 6257,
      "==.": 6258,
      "-----": 6259,
      "integer_is_": 6260,
      "doing": 6261,
      "dows": 6262,
      "stron": 6263,
      "ves": 6264,
      "outtxt": 6265,
      "mogen": 6266,
      "sier": 6267,
      "))**": 6268,
      "))\")": 6269,
      "puzz": 6270,
      "ISQR": 6271,
      "entre": 6272,
      "calling": 6273,
      "intArray": 6274,
      "ability": 6275,
      "absolute": 6276,
      "excl": 6277,
      "SEG": 6278,
      "SEP": 6279,
      "RESS": 6280,
      "REWIND": 6281,
      "998": 6282,
      "paralle": 6283,
      "grab": 6284,
      "perfect": 6285,
      "ural": 6286,
      "ursday": 6287,
      "bra": 6288,
      "brary": 6289,
      "trash": 6290,
      "\")),": 6291,
      "lly": 6292,
      "constru": 6293,
      "')\",": 6294,
      "DIM": 6295,
      "109": 6296,
      "neare": 6297,
      "ely": 6298,
      "elapsed": 6299,
      "ackerman": 6300,
      "THING": 6301,
      "THOUS": 6302,
      "duces": 6303,
      "',')": 6304,
      "INTEGER_SIZE": 6305,
      "RABBR": 6306,
      "nodeBefore": 6307,
      "ACHAR": 6308,
      "ITS": 6309,
      "occup": 6310,
      "coun": 6311,
      "edx": 6312,
      "036": 6313,
      "*>================================": 6314,
      "*>->": 6315,
      "'(','": 6316,
      "'(\")\")',": 6317,
      "_tmp": 6318,
      "TERM": 6319,
      "PERNIC": 6320,
      "divi": 6321,
      "versine": 6322,
      "shrun": 6323,
      "countDivisors": 6324,
      "tax": 6325,
      "quib": 6326,
      "Their": 6327,
      "1002": 6328,
      "1003": 6329,
      "prefer": 6330,
      "prepare": 6331,
      "interval": 6332,
      "escri": 6333,
      "DECODER": 6334,
      "DEJAV": 6335,
      "Inter": 6336,
      "116": 6337,
      "LOAD": 6338,
      "LOWEST": 6339,
      "colon": 6340,
      "Thursday": 6341,
      "kept": 6342,
      "keep": 6343,
      "URP": 6344,
      "iry": 6345,
      "321": 6346,
      "32LIMIT": 6347,
      "up_": 6348,
      "Request": 6349,
      "wordfile": 6350,
      "COMPARE": 6351,
      "triangle": 6352,
      "2021": 6353,
      "boolean": 6354,
      "own": 6355,
      "node_And": 6356,
      "node_Equal": 6357,
      "node_Or": 6358,
      "node_Add": 6359,
      "node_While": 6360,
      "node_Mod": 6361,
      "node_Assign": 6362,
      "node_Multiply": 6363,
      "node_Subtract": 6364,
      "node_Divide": 6365,
      "node_Negate": 6366,
      "dayfix": 6367,
      "tests": 6368,
      "FIX": 6369,
      "od1": 6370,
      "od2": 6371,
      "dimensional": 6372,
      "='.": 6373,
      "ivo": 6374,
      "sc1": 6375,
      "QUINT": 6376,
      "backward": 6377,
      "p_ang": 6378,
      "INT_": 6379,
      "long_carry": 6380,
      "ISTANCE": 6381,
      "homogen": 6382,
      "key_data": 6383,
      "tk_Semi": 6384,
      "NEW": 6385,
      "vm_compati": 6386,
      "TIM": 6387,
      "TIENT": 6388,
      "preserve": 6389,
      "uments": 6390,
      "RECS": 6391,
      "shown": 6392,
      "Intexp": 6393,
      "steps": 6394,
      "COLWIDTH": 6395,
      "ensure_integer_is_": 6396,
      "header": 6397,
      "Conco": 6398,
      "Console": 6399,
      "Proper": 6400,
      "ITEST": 6401,
      "validate": 6402,
      "pyram": 6403,
      "1_rik": 6404,
      "green": 6405,
      "opcode_name": 6406,
      "opcode_push": 6407,
      "opcode_jz": 6408,
      "opcode_jmp": 6409,
      "skip_pos": 6410,
      "cipher": 6411,
      "token_no_if": 6412,
      "Valid": 6413,
      "P1OLD": 6414,
      "rand7": 6415,
      "randpos": 6416,
      "STARTING": 6417,
      "phase": 6418,
      "iterator": 6419,
      "SUMF": 6420,
      "unicode_char_kind": 6421,
      "unicode_ichar_kind": 6422,
      "new_code": 6423,
      "new_ast": 6424,
      "DEFER": 6425,
      "Fix": 6426,
      "increasing": 6427,
      "archivo": 6428,
      "Common": 6429,
      "balance_for_": 6430,
      "Unsorted": 6431,
      "fulladder": 6432,
      "winal": 6433,
      "GREG": 6434,
      "stdin": 6435,
      "STACKLIMIT": 6436,
      "Complex": 6437,
      "Compaq": 6438,
      "3333": 6439,
      "Which": 6440,
      "copy_": 6441,
      "to_unicode_substring": 6442,
      "to_unicode_full_string": 6443,
      "boundaries": 6444,
      "left_": 6445,
      "Option": 6446,
      "bishop_masks": 6447,
      "VERSION": 6448,
      "happy": 6449,
      "ieor": 6450,
      "ASSISTANCE": 6451,
      "chosen": 6452,
      "ichor": 6453,
      "rook2_masks": 6454,
      "right_branch_address": 6455,
      "NUM_ARR": 6456,
      "LASTP": 6457,
      "rads": 6458,
      "mutation": 6459,
      "repeated": 6460,
      "\"'',": 6461,
      "ast_nil": 6462,
      "ast_reader": 6463,
      "MONTHNAME": 6464,
      "location": 6465,
      "ignored": 6466,
      "x1y1": 6467,
      "_to_time": 6468,
      "neighbour": 6469,
      "neighbors": 6470,
      "1000000000": 6471,
      "d_warsh": 6472,
      "parse_statement": 6473,
      "yyyy": 6474,
      "read_ast": 6475,
      "dtor": 6476,
      "exponenti": 6477,
      "frequ": 6478,
      "objFPC": 6479,
      "easy_": 6480,
      "isoner": 6481,
      "SQUARES": 6482,
      "unget_ch": 6483,
      "SAM02": 6484,
      "max_peri": 6485,
      "N_SEG": 6486,
      "SAYON": 6487,
      "])==": 6488,
      "sort_me": 6489,
      "Well": 6490,
      "panacea": 6491,
      "TENCE": 6492,
      "ISHFT": 6493,
      "Maximum": 6494,
      "imeter": 6495,
      "DN1": 6496,
      "Month": 6497,
      "lazy": 6498,
      "install": 6499,
      "output_code": 6500,
      "asciiCharacter": 6501,
      "TIONARY": 6502,
      "FOREGROUND": 6503,
      "Upper": 6504,
      "mission": 6505,
      "leapyear": 6506,
      "Scrub": 6507,
      "fuzz": 6508,
      "degree": 6509,
      "declare": 6510,
      "plus_q": 6511,
      "node_Prti": 6512,
      "node_Prts": 6513,
      "node_Prtc": 6514,
      "WWWWWWWW": 6515,
      "'|'": 6516,
      "MySub": 6517,
      "suffice": 6518,
      "optimized": 6519,
      "REPLY": 6520,
      "LETTERS": 6521,
      "ER_INTEGER_SIZE": 6522,
      "included": 6523,
      "Digits": 6524,
      "CURABBR": 6525,
      "Shell": 6526,
      "evil": 6527,
      "coords": 6528,
      "COMPUTATION": 6529,
      "FOUNDIN": 6530,
      "Putc": 6531,
      "DICT": 6532,
      "DICTIONARY": 6533,
      "q_mult_": 6534,
      "finalize_": 6535,
      "'\"')": 6536,
      "aints": 6537,
      "Realexp": 6538,
      "node_NotEqual": 6539,
      "node_GreaterEqual": 6540,
      "node_LessEqual": 6541,
      "32768": 6542,
      "PRISONERS": 6543,
      "Seconds": 6544,
      "interpreter_ast_t": 6545,
      "PF32LIMIT": 6546,
      "isbn13": 6547,
      "debugging": 6548,
      "lenna1": 6549,
      "inputbitcounter": 6550,
      "outputbitcount": 6551,
      "QUOTIENT": 6552,
      "QUADRI": 6553,
      "_table_t_look_up_index": 6554,
      "HORDED": 6555,
      "OUTER": 6556,
      "infty": 6557,
      "attempts": 6558,
      "plausibility": 6559,
      "COMPILER_INTEGER_SIZE": 6560,
      "FRUIT": 6561,
      "distinguish_operators": 6562,
      "DAMM": 6563,
      "Space": 6564,
      "fpk": 6565,
      "determinant": 6566,
      "ENDO2": 6567,
      "DIRECTION": 6568,
      "versal": 6569,
      "hostname": 6570,
      "14159": 6571,
      "floyd_warsh": 6572,
      "Brace": 6573,
      "Careful": 6574,
      "GnuCOBOL": 6575,
      "License": 6576,
      "Radix": 6577,
      "spiral": 6578,
      "273987": 6579,
      "satisfies": 6580,
      "tzolkin_carry": 6581,
      "BORED": 6582,
      "BODY": 6583,
      "INCLU": 6584,
      "bufferedbyte": 6585,
      "curl_easy_": 6586,
      "499273987": 6587,
      "Largest": 6588,
      "TASTE": 6589,
      "gifts": 6590,
      "ihull0": 6591,
      "pc_error": 6592,
      "tpec1": 6593,
      "stooge": 6594,
      "parallel": 6595,
      "construct_": 6596,
      "nearest": 6597,
      "THOUSAND": 6598,
      "PERNICIOUS": 6599,
      "shrunken": 6600,
      "DEJAVU": 6601,
      "homogeneous": 6602,
      "vm_compatible": 6603,
      "ensure_integer_is_vm_compatible": 6604,
      "pyramid": 6605,
      "balance_for_shrunken": 6606,
      "!-": 6607,
      "\"!": 6608,
      "\"\",": 6609,
      "\"\")": 6610,
      "\"...": 6611,
      "\">\",": 6612,
      "''.": 6613,
      "(),": 6614,
      "0D": 6615,
      "1c": 6616,
      "1s": 6617,
      "112": 6618,
      "132": 6619,
      "2file": 6620,
      "314": 6621,
      "76": 6622,
      "800": 6623,
      "897": 6624,
      "94": 6625,
      ":\\": 6626,
      ":))": 6627,
      "=.": 6628,
      "Asc": 6629,
      "B0": 6630,
      "Bull": 6631,
      "Bub": 6632,
      "Bount": 6633,
      "Bush": 6634,
      "Basic": 6635,
      "C1": 6636,
      "C2": 6637,
      "Cle": 6638,
      "CAND": 6639,
      "Dsize": 6640,
      "DRIGHT": 6641,
      "Else": 6642,
      "GNO": 6643,
      "GROW": 6644,
      "HH": 6645,
      "HZ": 6646,
      "IWORK": 6647,
      "IORD": 6648,
      "IERR": 6649,
      "Imple": 6650,
      "IPOS": 6651,
      "IBEST": 6652,
      "KA": 6653,
      "KS": 6654,
      "Kel": 6655,
      "Ly": 6656,
      "MC": 6657,
      "MF": 6658,
      "Mm": 6659,
      "Mu": 6660,
      "NA": 6661,
      "NI": 6662,
      "NEX": 6663,
      "NUG": 6664,
      "OCT": 6665,
      "OOD": 6666,
      "OVER": 6667,
      "P3": 6668,
      "P5": 6669,
      "PUSH": 6670,
      "QQ": 6671,
      "RB": 6672,
      "Sq": 6673,
      "Same": 6674,
      "SPL": 6675,
      "S999": 6676,
      "Sample": 6677,
      "Stop": 6678,
      "Six": 6679,
      "TT": 6680,
      "TAN": 6681,
      "Txt": 6682,
      "Tect": 6683,
      "TRectangle": 6684,
      "Whe": 6685,
      "XIC": 6686,
      "Z1": 6687,
      "]);": 6688,
      "_f": 6689,
      "_DI": 6690,
      "_word": 6691,
      "_left": 6692,
      "_module": 6693,
      "_sum": 6694,
      "_element": 6695,
      "_wri": 6696,
      "_polygon": 6697,
      "_the_": 6698,
      "_addr": 6699,
      "_clock": 6700,
      "a0": 6701,
      "ato": 6702,
      "a20": 6703,
      "aded": 6704,
      "b_": 6705,
      "bum": 6706,
      "bpower": 6707,
      "bird": 6708,
      "ccode": 6709,
      "cIO": 6710,
      "catch": 6711,
      "cbuff": 6712,
      "certain": 6713,
      "dm": 6714,
      "dou": 6715,
      "eigh": 6716,
      "ffer": 6717,
      "fut": 6718,
      "fpc": 6719,
      "f95": 6720,
      "gle": 6721,
      "gure": 6722,
      "gift": 6723,
      "gsl": 6724,
      "hh": 6725,
      "hint": 6726,
      "hard": 6727,
      "ither": 6728,
      "ike": 6729,
      "jm": 6730,
      "kx": 6731,
      "kmax": 6732,
      "karray": 6733,
      "lresult": 6734,
      "lled": 6735,
      "mk": 6736,
      "mit": 6737,
      "md5": 6738,
      "niv": 6739,
      "np1": 6740,
      "nargs": 6741,
      "pse": 6742,
      "pper": 6743,
      "pack": 6744,
      "pile": 6745,
      "pio": 6746,
      "ring": 6747,
      "rwalk": 6748,
      "sma": 6749,
      "s_t": 6750,
      "sche": 6751,
      "sity": 6752,
      "slot": 6753,
      "tn": 6754,
      "tnot": 6755,
      "vable": 6756,
      "v9999": 6757,
      "void": 6758,
      "w2": 6759,
      "w4": 6760,
      "w5": 6761,
      "w6": 6762,
      "w7": 6763,
      "wsize": 6764,
      "warning": 6765,
      "xs": 6766,
      "xdelta": 6767,
      "xml": 6768,
      "yance": 6769,
      "ydelta": 6770,
      "{\"": 6771,
      "~%": 6772,
      "incom": 6773,
      "in_unit": 6774,
      "inblank": 6775,
      "inversions": 6776,
      "indivi": 6777,
      "encoun": 6778,
      "alf": 6779,
      "arily": 6780,
      "arpet": 6781,
      "ores": 6782,
      "thon": 6783,
      "thous": 6784,
      "rever": 6785,
      "remark": 6786,
      "remember": 6787,
      "reveal": 6788,
      "leven": 6789,
      "-->": 6790,
      "ane": 6791,
      "anno": 6792,
      "anted": 6793,
      "anks": 6794,
      "ended": 6795,
      "desc": 6796,
      "deci": 6797,
      "toint": 6798,
      "toler": 6799,
      "icol": 6800,
      "ically": 6801,
      "rious": 6802,
      "rief": 6803,
      "atural": 6804,
      "chr": 6805,
      "chrel": 6806,
      "chrn": 6807,
      "nodup": 6808,
      "uni": 6809,
      "coordinates": 6810,
      "ERE": 6811,
      "ntlen": 6812,
      "out_unit": 6813,
      "molt_": 6814,
      "adi": 6815,
      "silon": 6816,
      "sibly": 6817,
      "))'": 6818,
      "))*": 6819,
      "))\")',": 6820,
      "pur": 6821,
      "pla": 6822,
      "ENDING": 6823,
      "017": 6824,
      "dia": 6825,
      "int_val": 6826,
      "intfunc": 6827,
      "filled": 6828,
      "write2file": 6829,
      "opPUSH": 6830,
      "exha": 6831,
      "external": 6832,
      "SEEN": 6833,
      "SEDO": 6834,
      "posed": 6835,
      "partition": 6836,
      "and_expr": 6837,
      "metr": 6838,
      "perimeter": 6839,
      "ur1": 6840,
      "ur2": 6841,
      "TOUT": 6842,
      "imals": 6843,
      "UNSTRING": 6844,
      "\")\"": 6845,
      "context": 6846,
      "DIX": 6847,
      "DIMAG": 6848,
      "104": 6849,
      "1020": 6850,
      "mati": 6851,
      "makes": 6852,
      "nested": 6853,
      "program_ahead": 6854,
      "beg": 6855,
      "LES": 6856,
      "LEAD": 6857,
      "disk": 6858,
      "whatever": 6859,
      "character_literal": 6860,
      "type_": 6861,
      "players": 6862,
      "iding": 6863,
      "iddle": 6864,
      "INGOOD": 6865,
      "aset": 6866,
      "MOST": 6867,
      "edit_": 6868,
      "spite": 6869,
      "PRODU": 6870,
      "PROUST": 6871,
      "prti": 6872,
      "prnt": 6873,
      "prts": 6874,
      "prtc": 6875,
      "PERSIS": 6876,
      "vertices": 6877,
      "ili": 6878,
      "intersec": 6879,
      "real_cast": 6880,
      "syste": 6881,
      "DEFUN": 6882,
      "DESI": 6883,
      "DECODE": 6884,
      "DEALLOCATE": 6885,
      "datasize": 6886,
      "lie": 6887,
      "library": 6888,
      "maxcount": 6889,
      "maxcols": 6890,
      "114": 6891,
      "117": 6892,
      "(\"+": 6893,
      "(\"</": 6894,
      "colors": 6895,
      "printing": 6896,
      "print_center": 6897,
      "URL": 6898,
      "uler": 6899,
      "ular": 6900,
      "outputPolygon": 6901,
      "triangles": 6902,
      "CHARS": 6903,
      "stored": 6904,
      "stores": 6905,
      "NUMVAL": 6906,
      "arg_str": 6907,
      "pos1": 6908,
      "i_here": 6909,
      "i_right_": 6910,
      "00000": 6911,
      "startn": 6912,
      "limiter": 6913,
      "PARTI": 6914,
      "digitplace": 6915,
      "digit_sum": 6916,
      "XTX": 6917,
      "uts": 6918,
      "having": 6919,
      "88888": 6920,
      "datetime": 6921,
      "fmt1": 6922,
      "fmt2": 6923,
      "'.'": 6924,
      "p_comments": 6925,
      "matkron": 6926,
      "rowA": 6927,
      "rowB": 6928,
      "isholyday": 6929,
      "longmolt_": 6930,
      "/=&": 6931,
      "hole": 6932,
      "POINT": 6933,
      "s_module": 6934,
      "states": 6935,
      "state_in_": 6936,
      "Cobol": 6937,
      "tk_String": 6938,
      "NESS": 6939,
      "anything": 6940,
      "aux": 6941,
      "afresh": 6942,
      "my_": 6943,
      "my_index": 6944,
      "symbol_name": 6945,
      "crete": 6946,
      "twelve": 6947,
      "PRM1": 6948,
      "Print_": 6949,
      "avl_size": 6950,
      "TAPE": 6951,
      "TAXIC": 6952,
      "DAYNAME": 6953,
      "WHACK": 6954,
      "MAXN": 6955,
      "ational_expr": 6956,
      "ancy": 6957,
      "Decl": 6958,
      "_neighb": 6959,
      "7833": 6960,
      "tale": 6961,
      "tsx": 6962,
      "Animals": 6963,
      "opcode_store": 6964,
      "opcode_fetch": 6965,
      "statement_for_": 6966,
      "BEFORE": 6967,
      "GETJD": 6968,
      "GETRAWBYTE": 6969,
      "cia": 6970,
      "here_addr": 6971,
      "5555": 6972,
      "compilers": 6973,
      "_____________": 6974,
      "avl_check": 6975,
      "continued_": 6976,
      "close_quote": 6977,
      "SUMI": 6978,
      "swapcoord": 6979,
      "things": 6980,
      "oldsymbol": 6981,
      "Seven": 6982,
      "Figure": 6983,
      "Compar": 6984,
      "APPEND": 6985,
      "winner": 6986,
      "sequences": 6987,
      "handled": 6988,
      "ULong": 6989,
      "Completed": 6990,
      "ibantoint": 6991,
      "PT_": 6992,
      "needs": 6993,
      "epsilon": 6994,
      "obtain": 6995,
      "Optional": 6996,
      "efficient": 6997,
      "fraction": 6998,
      "maybe": 6999,
      "0_rk": 7000,
      "rook2_mask_": 7001,
      "expressions": 7002,
      "Also": 7003,
      "483": 7004,
      "System": 7005,
      "goodmv": 7006,
      "mutable": 7007,
      "relational_expr": 7008,
      "Dataset": 7009,
      "Chase": 7010,
      "overflows": 7011,
      "INTERM": 7012,
      "constants": 7013,
      "against": 7014,
      "read_character_literal": 7015,
      "weights": 7016,
      "FINDPRIME": 7017,
      "SMITH": 7018,
      "Days": 7019,
      "fox": 7020,
      "food": 7021,
      "coefficient": 7022,
      "Identification": 7023,
      "RandomFlo": 7024,
      "answers": 7025,
      "process1": 7026,
      "SAM00": 7027,
      "stride": 7028,
      "strip_comments": 7029,
      "property": 7030,
      "Chew": 7031,
      "Generic": 7032,
      "Therefore": 7033,
      "latter": 7034,
      "set_pointer_alpha": 7035,
      "string_boundaries": 7036,
      "CURRENT_STR": 7037,
      "create_polygon": 7038,
      "'/')": 7039,
      "palindro": 7040,
      "queens": 7041,
      "(*)),": 7042,
      "SEQUENCE": 7043,
      "FIRSTMAT": 7044,
      "HEIGHT": 7045,
      "in_buffer": 7046,
      "MERTENS": 7047,
      "tbx": 7048,
      "alternative": 7049,
      "SHUFFLED": 7050,
      "nightlord": 7051,
      "MAX_DICTIONARY": 7052,
      "Months": 7053,
      "latit": 7054,
      "POK00": 7055,
      "POK02": 7056,
      "multiples": 7057,
      "ordinate": 7058,
      "ordinary": 7059,
      "lower_hull": 7060,
      "check_numbers": 7061,
      "Possibly": 7062,
      "insert_or_": 7063,
      "predicate_": 7064,
      "Scratch": 7065,
      "////////": 7066,
      "calculations": 7067,
      "Freecell": 7068,
      "says": 7069,
      "replacement": 7070,
      "tk_Lparen": 7071,
      "dealt": 7072,
      "supply": 7073,
      "supplied": 7074,
      "multiplication_expr": 7075,
      "\"]\"": 7076,
      "Append": 7077,
      "LeftParen": 7078,
      "inclusive": 7079,
      "Arguments": 7080,
      "system_clock": 7081,
      "operation_name": 7082,
      "GRIST": 7083,
      "GRUMP": 7084,
      "LZW": 7085,
      "antibase": 7086,
      "undant": 7087,
      "counting_sort_": 7088,
      "Black": 7089,
      "Distance": 7090,
      "Finish": 7091,
      "Semicol": 7092,
      "centre": 7093,
      "exactly": 7094,
      "runtime_": 7095,
      "Serv": 7096,
      "Server": 7097,
      "underscore": 7098,
      "fifo_head": 7099,
      "Closedown": 7100,
      "PRISONER": 7101,
      "lexer_token_precedence": 7102,
      "01234567890123456789": 7103,
      "LARGE": 7104,
      "RightParen": 7105,
      "ISO_": 7106,
      "opJZ": 7107,
      "opJMP": 7108,
      "\">')": 7109,
      "Class": 7110,
      "nthroot": 7111,
      "wrong": 7112,
      "do_op": 7113,
      "converting": 7114,
      "lexer_output_t": 7115,
      "Position": 7116,
      "upper_hull": 7117,
      "PRESENT": 7118,
      "'#'": 7119,
      "'+'": 7120,
      "ecx": 7121,
      "evolve": 7122,
      "knights_t": 7123,
      "annotation": 7124,
      "escape": 7125,
      "OBJECT": 7126,
      "tallying": 7127,
      "ALPHA": 7128,
      "therlandHodgman": 7129,
      "substitu": 7130,
      "--------------------------------------------------------": 7131,
      "corresp": 7132,
      "COMBSORT": 7133,
      "quoted_string": 7134,
      "MergeSort": 7135,
      "addition_expr": 7136,
      "Drawgen": 7137,
      "STYLE": 7138,
      "_tuple_t": 7139,
      "thisisatest": 7140,
      "clause": 7141,
      "26535": 7142,
      "omp_get_": 7143,
      "Offset": 7144,
      "PASSED": 7145,
      "circu": 7146,
      "detected": 7147,
      "....,....,": 7148,
      "equality_expr": 7149,
      "polynomial": 7150,
      "SELECTED_": 7151,
      "65536": 7152,
      "HIGH": 7153,
      "Phone": 7154,
      "deletion": 7155,
      "integral": 7156,
      "INHERITS": 7157,
      "stronom": 7158,
      "exclu": 7159,
      "occupies": 7160,
      "keptdays": 7161,
      "Concocted": 7162,
      "ProperDivisors": 7163,
      "exponentiation": 7164,
      "1415926535": 7165,
      "Bubble": 7166,
      "Bounty": 7167,
      "GNOME": 7168,
      "GROWL": 7169,
      "Kelvin": 7170,
      "Lychrel": 7171,
      "NEXPRM1": 7172,
      "NUGGET": 7173,
      "Tectonics": 7174,
      "_writer": 7175,
      "bumf": 7176,
      "pseu": 7177,
      "individual": 7178,
      "encountered": 7179,
      "intfuncgamma": 7180,
      "SEDOL": 7181,
      "LEADING": 7182,
      "edit_distance": 7183,
      "PRODUCT": 7184,
      "PERSISTENCE": 7185,
      "DESIRED": 7186,
      "print_centers": 7187,
      "i_right_then": 7188,
      "matkronpow": 7189,
      "TAXICAB": 7190,
      "statement_for_predicate_": 7191,
      "ULongInt": 7192,
      "RandomFloat": 7193,
      "FIRSTMATCH": 7194,
      "MAX_DICTIONARY_SIZE": 7195,
      "latitude": 7196,
      "Semicolon": 7197,
      "knights_tour": 7198,
      "!(": 7199,
      "\"[": 7200,
      "\"^": 7201,
      "\"''": 7202,
      "#\",": 7203,
      "'<": 7204,
      "'))": 7205,
      "'..": 7206,
      "'}'": 7207,
      "'{'": 7208,
      "(<": 7209,
      "(//": 7210,
      "+-": 7211,
      ",.": 7212,
      ".-": 7213,
      ".'.": 7214,
      "025": 7215,
      "1D0": 7216,
      "1BC": 7217,
      "299": 7218,
      "210": 7219,
      "2100": 7220,
      "225": 7221,
      "2d0": 7222,
      "301": 7223,
      "350": 7224,
      "5D0": 7225,
      "6d0": 7226,
      "7654": 7227,
      "87": 7228,
      "864": 7229,
      "8bit": 7230,
      "932": 7231,
      "9V9": 7232,
      ":==": 7233,
      "=(": 7234,
      ">,": 7235,
      "A9": 7236,
      "Aug": 7237,
      "Bur": 7238,
      "BFI": 7239,
      "BBN": 7240,
      "Cor": 7241,
      "Cam": 7242,
      "CRE": 7243,
      "DL": 7244,
      "DY": 7245,
      "DING": 7246,
      "DGE": 7247,
      "DWORD": 7248,
      "Dix": 7249,
      "DDOWN": 7250,
      "Descri": 7251,
      "EAT": 7252,
      "East": 7253,
      "Eight": 7254,
      "E23": 7255,
      "Empty": 7256,
      "F3": 7257,
      "F8": 7258,
      "FO": 7259,
      "Fe": 7260,
      "F12": 7261,
      "FLEN": 7262,
      "FFIX": 7263,
      "G0": 7264,
      "GP": 7265,
      "HACK": 7266,
      "IH": 7267,
      "I20": 7268,
      "Ign": 7269,
      "Know": 7270,
      "LH": 7271,
      "Lad": 7272,
      "LUE": 7273,
      "LBASE": 7274,
      "Linux": 7275,
      "March": 7276,
      "MUL": 7277,
      "Match": 7278,
      "Mpower": 7279,
      "NN": 7280,
      "Na": 7281,
      "NUS": 7282,
      "OS": 7283,
      "Oc": 7284,
      "Oct": 7285,
      "PAL": 7286,
      "PAT": 7287,
      "Pass": 7288,
      "QUE": 7289,
      "Round": 7290,
      "RTHETA": 7291,
      "Sm": 7292,
      "Sal": 7293,
      "Send": 7294,
      "Sim": 7295,
      "Sta": 7296,
      "Scan": 7297,
      "SDAY": 7298,
      "Source": 7299,
      "Suff": 7300,
      "Scor": 7301,
      "Stoo": 7302,
      "SNUS": 7303,
      "TZ": 7304,
      "Ter": 7305,
      "TXT": 7306,
      "Trun": 7307,
      "To_": 7308,
      "Tax": 7309,
      "Temp": 7310,
      "TFigure": 7311,
      "UID": 7312,
      "UARY": 7313,
      "VDC": 7314,
      "VLUE": 7315,
      "Wi": 7316,
      "Who": 7317,
      "WARRA": 7318,
      "Will": 7319,
      "West": 7320,
      "XG": 7321,
      "Your": 7322,
      "ZAH": 7323,
      "[-": 7324,
      "][]]": 7325,
      "_A": 7326,
      "_m": 7327,
      "_r": 7328,
      "_int": 7329,
      "_READ": 7330,
      "_TIME": 7331,
      "_exp": 7332,
      "_image": 7333,
      "_MAG": 7334,
      "_routines": 7335,
      "_diameter": 7336,
      "_duplicates": 7337,
      "_break": 7338,
      "_PARAMETERS": 7339,
      "_hole": 7340,
      "a7": 7341,
      "aper": 7342,
      "ains": 7343,
      "aList": 7344,
      "astronom": 7345,
      "bj": 7346,
      "brief": 7347,
      "c0": 7348,
      "cg": 7349,
      "cset": 7350,
      "cpy": 7351,
      "dro": 7352,
      "dble": 7353,
      "esponse": 7354,
      "f3": 7355,
      "fac": 7356,
      "gue": 7357,
      "gled": 7358,
      "gworld": 7359,
      "hra": 7360,
      "hits": 7361,
      "itest": 7362,
      "ilines": 7363,
      "j_max": 7364,
      "ka": 7365,
      "km": 7366,
      "kprime": 7367,
      "lus": 7368,
      "latest": 7369,
      "mal": 7370,
      "mxt": 7371,
      "mish": 7372,
      "n0": 7373,
      "nA": 7374,
      "nmax": 7375,
      "nrow": 7376,
      "nr1": 7377,
      "nr2": 7378,
      "nrows": 7379,
      "nArg": 7380,
      "nfive": 7381,
      "nativeUInt": 7382,
      "odo": 7383,
      "qr": 7384,
      "rup": 7385,
      "rroot1": 7386,
      "ske": 7387,
      "tx": 7388,
      "tin": 7389,
      "tor": 7390,
      "tand": 7391,
      "ution": 7392,
      "uid": 7393,
      "va": 7394,
      "vo": 7395,
      "van": 7396,
      "ware": 7397,
      "xsize": 7398,
      "ysize": 7399,
      "yes": 7400,
      "yold": 7401,
      "z9": 7402,
      "{}": 7403,
      "{('": 7404,
      "’.": 7405,
      "inary": 7406,
      "inite": 7407,
      "enum": 7408,
      "era": 7409,
      "arity": 7410,
      "arithm": 7411,
      "thalf": 7412,
      "*****": 7413,
      "legal": 7414,
      "leaper": 7415,
      "ano": 7416,
      "anan": 7417,
      "tix": 7418,
      "sely": 7419,
      "secu": 7420,
      "endn": 7421,
      "isal": 7422,
      "isat": 7423,
      "isclo": 7424,
      "iswin": 7425,
      "isual": 7426,
      "deco": 7427,
      "dead": 7428,
      "deleted": 7429,
      "descri": 7430,
      "deferred": 7431,
      "INC": 7432,
      "INNER": 7433,
      "tot": 7434,
      "tober": 7435,
      "toise": 7436,
      "ict": 7437,
      "accur": 7438,
      "accrete": 7439,
      "roy": 7440,
      "ropy": 7441,
      "chain": 7442,
      "ambig": 7443,
      "***********": 7444,
      "002": 7445,
      "0010": 7446,
      "==:": 7447,
      "ERT": 7448,
      "ERANGE": 7449,
      "dot_": 7450,
      "str1": 7451,
      "str_val": 7452,
      "strdup": 7453,
      "outprimes": 7454,
      "sian": 7455,
      "))%": 7456,
      "ception": 7457,
      "iness": 7458,
      "asp": 7459,
      "asString": 7460,
      "assistants": 7461,
      "ISGREG": 7462,
      "plo": 7463,
      "ately": 7464,
      "dium": 7465,
      "AResponse": 7466,
      "proto": 7467,
      "prove": 7468,
      "probe": 7469,
      "produce": 7470,
      "IFY": 7471,
      "IFDEF": 7472,
      "writes": 7473,
      "writeStr": 7474,
      "offer": 7475,
      "peg": 7476,
      "ROME": 7477,
      "opOR": 7478,
      "opLE": 7479,
      "opDIV": 7480,
      "opGE": 7481,
      "opSUB": 7482,
      "opLT": 7483,
      "opADD": 7484,
      "opNE": 7485,
      "opGT": 7486,
      "opEQ": 7487,
      "opMOD": 7488,
      "opAND": 7489,
      "opts": 7490,
      "opNOT": 7491,
      "opSTORE": 7492,
      "opNEG": 7493,
      "opHAL": 7494,
      "opMUL": 7495,
      "absum": 7496,
      "abbre": 7497,
      "abprod": 7498,
      "exps": 7499,
      "SETOUT": 7500,
      "REVER": 7501,
      "REPRESENT": 7502,
      "loy": 7503,
      "lowest": 7504,
      "meet": 7505,
      "perative": 7506,
      "percent": 7507,
      "******************************": 7508,
      "tru": 7509,
      "immediate": 7510,
      "imperative": 7511,
      "llion": 7512,
      "forms": 7513,
      "constr": 7514,
      "conven": 7515,
      "confusion": 7516,
      "')\")": 7517,
      "DI4": 7518,
      "108": 7519,
      "1064": 7520,
      "1024": 7521,
      "built": 7522,
      "mag": 7523,
      "mak": 7524,
      "mapping": 7525,
      "nel": 7526,
      "nection": 7527,
      "nesting": 7528,
      "bear": 7529,
      "LEEP": 7530,
      "discri": 7531,
      "ellow": 7532,
      "why": 7533,
      "RAD": 7534,
      "RAKE": 7535,
      "ables": 7536,
      "ACCESS": 7537,
      "string_table_t_": 7538,
      "input_found": 7539,
      "line_break": 7540,
      "'(\"(": 7541,
      "_tri": 7542,
      "sized_": 7543,
      "prisoner": 7544,
      "META": 7545,
      "comput": 7546,
      "shorter": 7547,
      "app": 7548,
      "count_line": 7549,
      "tained": 7550,
      "takes": 7551,
      "query": 7552,
      "SUFFIX": 7553,
      "prefix": 7554,
      "CHA": 7555,
      "ILITY": 7556,
      "DEV": 7557,
      "DETA": 7558,
      "DESC": 7559,
      "allocation": 7560,
      "lipping": 7561,
      "maxout": 7562,
      "maxpos": 7563,
      "errors": 7564,
      "black": 7565,
      "blather": 7566,
      "Init": 7567,
      "Incre": 7568,
      "113": 7569,
      "118": 7570,
      "1101": 7571,
      "============": 7572,
      "LOW": 7573,
      "OPC": 7574,
      "printb": 7575,
      "Represent": 7576,
      "COMPRESS": 7577,
      "triples": 7578,
      "storm": 7579,
      "arglist": 7580,
      "newsymbol": 7581,
      "modulus": 7582,
      "US03": 7583,
      "DUP": 7584,
      "minant": 7585,
      "test_data": 7586,
      "compon": 7587,
      "completed": 7588,
      "complement": 7589,
      "menu": 7590,
      "mence": 7591,
      "999V999": 7592,
      "definite": 7593,
      "logy": 7594,
      "logic": 7595,
      "COND": 7596,
      "SPEC": 7597,
      "lon1": 7598,
      "lon2": 7599,
      "lexical": 7600,
      "currently": 7601,
      "current_hole": 7602,
      "dimensions": 7603,
      "checksum": 7604,
      "goto": 7605,
      "goat": 7606,
      "16LIMIT": 7607,
      "NOTHING": 7608,
      "get_circle": 7609,
      "elem": 7610,
      "modified": 7611,
      "647": 7612,
      "erology": 7613,
      ",\":": 7614,
      "CURDAY": 7615,
      "zeroes": 7616,
      "subscript": 7617,
      "Prti": 7618,
      "Prts": 7619,
      "Prtc": 7620,
      "longnum": 7621,
      "nonsqr": 7622,
      "FILE_": 7623,
      "FILEIN": 7624,
      "FILEHACK": 7625,
      "\",\"))": 7626,
      "hosen": 7627,
      "master": 7628,
      "EXP": 7629,
      "EXPRES": 7630,
      "PUTCODE": 7631,
      "ABILITY": 7632,
      "to_im": 7633,
      "to_radian": 7634,
      "tk_Print": 7635,
      "tk_If": 7636,
      "tk_Sub": 7637,
      "tk_Add": 7638,
      "tk_While": 7639,
      "tk_Putc": 7640,
      "pected": 7641,
      "oking": 7642,
      "oked": 7643,
      "146": 7644,
      "bitwise": 7645,
      "anyway": 7646,
      "Ask": 7647,
      "msrand": 7648,
      "identify": 7649,
      "_t_final": 7650,
      "symbol_index": 7651,
      "symbol_table_t_": 7652,
      "STASHIN": 7653,
      "creative": 7654,
      "mu_max": 7655,
      "185": 7656,
      "...\",": 7657,
      "clean": 7658,
      "029": 7659,
      "variable_table_t": 7660,
      "DIGITAL": 7661,
      "TAIL": 7662,
      "occurred": 7663,
      "WHERE": 7664,
      "orders": 7665,
      "MAXVAL": 7666,
      "Integers": 7667,
      "STRT1": 7668,
      "STRT2": 7669,
      "PRIME16": 7670,
      "n_ang": 7671,
      "Prob": 7672,
      "Probe": 7673,
      "Prompt": 7674,
      "rrand": 7675,
      "Degrees": 7676,
      "bases": 7677,
      "9999999": 7678,
      "messages": 7679,
      "python": 7680,
      "2222": 7681,
      "2002": 7682,
      "Numeric": 7683,
      "is_anagram": 7684,
      "is_palindro": 7685,
      "Ansi": 7686,
      "Anant": 7687,
      "Animal": 7688,
      "DATEGNASH": 7689,
      "SHA1": 7690,
      "SHARED": 7691,
      "distin": 7692,
      "ainv": 7693,
      "AREC": 7694,
      "AREAS": 7695,
      "density": 7696,
      "densely": 7697,
      "GETINPUT": 7698,
      "60d0": 7699,
      "recurse": 7700,
      "loops": 7701,
      "matchdistance": 7702,
      "Vals": 7703,
      "_table_element": 7704,
      "multiplier": 7705,
      "total_value": 7706,
      "forever": 7707,
      "find_factors": 7708,
      "NAMES": 7709,
      "phi": 7710,
      "avl_insert": 7711,
      "End_of_input": 7712,
      "ToDecimal": 7713,
      "sources": 7714,
      "Exception": 7715,
      "new_entry": 7716,
      "Five": 7717,
      "5698": 7718,
      "ZEROES": 7719,
      "wasn": 7720,
      "Commence": 7721,
      "INDROME": 7722,
      "1234d0": 7723,
      "RUN_": 7724,
      "Short": 7725,
      "Shift": 7726,
      "Country": 7727,
      "fairy": 7728,
      "When": 7729,
      "White": 7730,
      "IOCOUNT": 7731,
      "IODEV": 7732,
      "NotEqual": 7733,
      "needspeeling": 7734,
      "followed": 7735,
      ",'(/": 7736,
      "icky": 7737,
      "Rolls": 7738,
      "obviously": 7739,
      "sqr2": 7740,
      "CLIP": 7741,
      "leaf_node": 7742,
      "effNC": 7743,
      "sides": 7744,
      "RESULTS": 7745,
      "HARMONIC": 7746,
      "choices": 7747,
      "PrimeQ": 7748,
      "Primes": 7749,
      "helpers": 7750,
      "trailing_duplicates": 7751,
      "specification": 7752,
      "compared": 7753,
      "right_branch_offset": 7754,
      "VECTOR_DIV": 7755,
      "VECTOR_SUB": 7756,
      "VECTOR_ADD": 7757,
      "VECTOR_MULT": 7758,
      "greater_than": 7759,
      "\"-\",": 7760,
      "POSN": 7761,
      "mutate": 7762,
      "parm1": 7763,
      "Ready": 7764,
      "Value3": 7765,
      "!***************************************************************************": 7766,
      "root2": 7767,
      "print_product": 7768,
      "rational_int": 7769,
      "quire": 7770,
      "Something": 7771,
      "circles": 7772,
      "circle_constructor": 7773,
      "reversed": 7774,
      "Steppers": 7775,
      "EPS": 7776,
      "10000000": 7777,
      "2011": 7778,
      "2018": 7779,
      "BIGWRITE": 7780,
      "BIGUP": 7781,
      "LLION": 7782,
      "halve": 7783,
      "edge_list": 7784,
      "powermax": 7785,
      "Green": 7786,
      "csr": 7787,
      "csv": 7788,
      "squares": 7789,
      "weekend": 7790,
      "E_LOOP": 7791,
      "populated": 7792,
      "parse_parenthe": 7793,
      "fifteen": 7794,
      "highli": 7795,
      "directly": 7796,
      "IsOpen": 7797,
      "fittest": 7798,
      "decrypt": 7799,
      "operands": 7800,
      "pointer_numeric": 7801,
      "pointer_change": 7802,
      "floats": 7803,
      "floating": 7804,
      "FLAGS": 7805,
      "Log": 7806,
      "Lock": 7807,
      "Goto": 7808,
      "unget_buffer": 7809,
      "process0": 7810,
      "fractional": 7811,
      "GAPFUL": 7812,
      "seems": 7813,
      "Calcul": 7814,
      "seqArray": 7815,
      "queens_attack_check": 7816,
      "Method": 7817,
      "NHIT": 7818,
      "P0OLD": 7819,
      "FIRSTLESS": 7820,
      "localLabel": 7821,
      "troublemak": 7822,
      "paths": 7823,
      "Field2": 7824,
      "Field5": 7825,
      ")**(": 7826,
      "delete_": 7827,
      "draw_line": 7828,
      "strbuf_to_int": 7829,
      "strbuf_to_node_variety": 7830,
      "strbuf_to_symbol_index": 7831,
      "tape_pos": 7832,
      "halfadder": 7833,
      "bnn": 7834,
      "make_leaf_node": 7835,
      "GreaterEqual": 7836,
      "Types": 7837,
      "DN2": 7838,
      "midnight": 7839,
      "indicator": 7840,
      "LessEqual": 7841,
      "Func": 7842,
      "vectors": 7843,
      "output_token": 7844,
      "lower_hull_size": 7845,
      "check_isbn13": 7846,
      "transliter": 7847,
      "RANDOM_SEED": 7848,
      "nuth": 7849,
      "CONSTRA": 7850,
      "insert_zeros": 7851,
      "smaller": 7852,
      "Accept": 7853,
      "FINDI4": 7854,
      "pickw": 7855,
      "building": 7856,
      "Negative": 7857,
      "catal": 7858,
      "tk_Lbrace": 7859,
      "Buffer": 7860,
      "LDA": 7861,
      "LDB": 7862,
      "speed": 7863,
      "DoorCount": 7864,
      "'-')": 7865,
      "demo_": 7866,
      "mapped": 7867,
      ",\"<\"": 7868,
      "clockwise": 7869,
      "including": 7870,
      "Attemp": 7871,
      "T_procedure": 7872,
      "encrypt": 7873,
      "encrypted": 7874,
      "beadsort": 7875,
      "recognised": 7876,
      "forestfire_": 7877,
      "Quick": 7878,
      "WNL1": 7879,
      "event": 7880,
      "CHOICE_LOOP": 7881,
      "9876d0": 7882,
      "equivalence": 7883,
      "opPRTI": 7884,
      "opPRTS": 7885,
      "opPRTC": 7886,
      "Anyway": 7887,
      "HTMLTROW": 7888,
      "HTMLTBODY": 7889,
      "DLEFT": 7890,
      "add_item": 7891,
      "USERSTUFF": 7892,
      "1111111111111111": 7893,
      "v_func": 7894,
      "PROGNAME": 7895,
      "run_lexer": 7896,
      "run_density": 7897,
      "FFFFFFFF": 7898,
      "\"%\"": 7899,
      "AHIT": 7900,
      "fibonacci": 7901,
      "JULDAY": 7902,
      "LARGEST": 7903,
      "PF16LIMIT": 7904,
      "VNL1": 7905,
      "join": 7906,
      "lords": 7907,
      "odiousIter": 7908,
      "thththth": 7909,
      "lenna2": 7910,
      "inputbitbuffer": 7911,
      "outputbitbuffer": 7912,
      "compatibility": 7913,
      "QUOTE": 7914,
      "QUADRAT": 7915,
      "fixup_address1": 7916,
      "(+)": 7917,
      "SLURP": 7918,
      "_or_equal_to": 7919,
      "www": 7920,
      "lexer_output_t_": 7921,
      "Positive": 7922,
      "reverse_insert_zeros_": 7923,
      "January": 7924,
      "during": 7925,
      "ast_t_ensure_storage": 7926,
      "FROM_XY": 7927,
      "FROM_RTHETA": 7928,
      "tk_Rparen": 7929,
      "tk_Rbrace": 7930,
      "example_graph": 7931,
      "vm_code_t_length": 7932,
      "vm_code_t_ensure_storage": 7933,
      "missing_": 7934,
      "LZW_SHARED": 7935,
      "BUFLEN": 7936,
      "RD_U": 7937,
      "Special": 7938,
      "analysis": 7939,
      "Control": 7940,
      "ast_node_t_": 7941,
      "successes": 7942,
      "GB82": 7943,
      "auss": 7944,
      "accumulation": 7945,
      "heapsort": 7946,
      "confused": 7947,
      "odd_scalar": 7948,
      "s_in_file": 7949,
      "mean_run_density": 7950,
      "DECK_SIZES": 7951,
      "\"#\"": 7952,
      "Evalu": 7953,
      "HAPPY": 7954,
      "Sieve": 7955,
      "turtoise": 7956,
      "deconv": 7957,
      "decrement": 7958,
      "rot_13": 7959,
      "celsius": 7960,
      "int_rrand": 7961,
      "numerical": 7962,
      "seedsremoved": 7963,
      "fahrenheit": 7964,
      "SwallowStr": 7965,
      "pascal_": 7966,
      "COSINE_SIDE": 7967,
      "favouritefruit": 7968,
      "\"*\"": 7969,
      "CPU": 7970,
      "Equiv": 7971,
      "HANDLE": 7972,
      "Matrix": 7973,
      "S_same": 7974,
      "Sierpinski": 7975,
      "usual": 7976,
      "information": 7977,
      "puzzle": 7978,
      "ISQRT": 7979,
      "*>========================================": 7980,
      "quibbling": 7981,
      "DECODERSTACK": 7982,
      "Intermediate": 7983,
      "COMPARE_ARRAYS": 7984,
      "PRISONERS_LOOP": 7985,
      "897932": 7986,
      "Clear": 7987,
      "Whee": 7988,
      "aneg": 7989,
      "metric": 7990,
      "begins": 7991,
      "systems": 7992,
      "78331005": 7993,
      "Comparison": 7994,
      "runtime_int_kind": 7995,
      "circuiting": 7996,
      "HIGHLIGHT": 7997,
      "exclusive": 7998,
      "1415926535897932": 7999,
      "Camera": 8000,
      "Dixit": 8001,
      "Description": 8002,
      "EATINT": 8003,
      "Mpowern": 8004,
      "NaN": 8005,
      "October": 8006,
      "PALINDROME": 8007,
      "PATH": 8008,
      "Smith": 8009,
      "Sufficient": 8010,
      "Stooge": 8011,
      "SNUSP": 8012,
      "ZAHL": 8013,
      "_MAGIC": 8014,
      "mxtour": 8015,
      "mishap": 8016,
      "nArgs": 8017,
      "nfives": 8018,
      "skew": 8019,
      "ananas": 8020,
      "isatty": 8021,
      "accurac": 8022,
      "dot_product": 8023,
      "opHALT": 8024,
      "SETOUTPUTCODE": 8025,
      "REPRESENTATION": 8026,
      "immediately": 8027,
      "discriminant": 8028,
      "sized_expression": 8029,
      "METAH": 8030,
      "count_lines_in_file": 8031,
      "DETAILS": 8032,
      "current_hole_index": 8033,
      "get_circle_diameter": 8034,
      "GETINPUTCODE": 8035,
      "_table_element_t": 8036,
      "effNChosen": 8037,
      "parse_parenthesized_expression": 8038,
      "odiousIterator": 8039,
      "QUADRATIC": 8040,
      "LZW_SHARED_PARAMETERS": 8041,
      "!--": 8042,
      "!')": 8043,
      "!===": 8044,
      "'%": 8045,
      "'=": 8046,
      "'\\": 8047,
      "'',": 8048,
      "(>=": 8049,
      "((/(": 8050,
      ")<": 8051,
      "+>": 8052,
      "+:=": 8053,
      ",')'": 8054,
      "-.": 8055,
      "/,\"": 8056,
      "/)\")": 8057,
      "020": 8058,
      "1AD": 8059,
      "220": 8060,
      "20000": 8061,
      "3way": 8062,
      "3D1": 8063,
      "3_product": 8064,
      "456": 8065,
      "5000": 8066,
      "5d0": 8067,
      "5weekend": 8068,
      "79": 8069,
      "7483": 8070,
      "8x": 8071,
      "819": 8072,
      "91": 8073,
      "=-": 8074,
      "=<'": 8075,
      "></": 8076,
      "A5": 8077,
      "Ar": 8078,
      "AIN": 8079,
      "Ari": 8080,
      "Apo": 8081,
      "ADIGITS": 8082,
      "ACOS": 8083,
      "BAN": 8084,
      "BUB": 8085,
      "BILLIONS": 8086,
      "Binary": 8087,
      "Cr": 8088,
      "COR": 8089,
      "Case": 8090,
      "Cow": 8091,
      "Crank": 8092,
      "Don": 8093,
      "DST": 8094,
      "Dele": 8095,
      "DYE": 8096,
      "DRAW": 8097,
      "E0": 8098,
      "EA": 8099,
      "EE": 8100,
      "Eu": 8101,
      "Ext": 8102,
      "Each": 8103,
      "E_c": 8104,
      "Easter": 8105,
      "FL": 8106,
      "Fur": 8107,
      "FAD": 8108,
      "Fare": 8109,
      "FINDE": 8110,
      "FND": 8111,
      "FECT": 8112,
      "FRST": 8113,
      "G2": 8114,
      "Gar": 8115,
      "Game": 8116,
      "GID": 8117,
      "GIVE": 8118,
      "Gauss": 8119,
      "HB": 8120,
      "Ham": 8121,
      "Had": 8122,
      "Hex": 8123,
      "Hand": 8124,
      "HASH": 8125,
      "ITO": 8126,
      "Ind": 8127,
      "Iyy": 8128,
      "JAN": 8129,
      "JD1": 8130,
      "Kx": 8131,
      "KNO": 8132,
      "Knuth": 8133,
      "LJ": 8134,
      "Lu": 8135,
      "LSTASH": 8136,
      "LIVE": 8137,
      "Lower": 8138,
      "LUSERCODE": 8139,
      "Map": 8140,
      "Mag": 8141,
      "MENTRY": 8142,
      "Mfactor": 8143,
      "Mail": 8144,
      "MILLIONS": 8145,
      "MISS": 8146,
      "Mnemonics": 8147,
      "NW": 8148,
      "Nth": 8149,
      "NTH": 8150,
      "NING": 8151,
      "Neq": 8152,
      "NTEST": 8153,
      "NIP": 8154,
      "NNP": 8155,
      "Natural": 8156,
      "NGP": 8157,
      "OPER": 8158,
      "ODE": 8159,
      "Pe": 8160,
      "Pur": 8161,
      "Pol": 8162,
      "Ped": 8163,
      "PI2": 8164,
      "Player": 8165,
      "PENAME": 8166,
      "Power": 8167,
      "PPOW": 8168,
      "QP": 8169,
      "QSort": 8170,
      "Red": 8171,
      "Rom": 8172,
      "RND": 8173,
      "RENAME": 8174,
      "Sti": 8175,
      "SAT": 8176,
      "Sup": 8177,
      "Stri": 8178,
      "Ski": 8179,
      "Scre": 8180,
      "Song": 8181,
      "Square": 8182,
      "T0": 8183,
      "Tit": 8184,
      "TOR": 8185,
      "TIC": 8186,
      "Tmp": 8187,
      "TCH": 8188,
      "TInteger": 8189,
      "Tra": 8190,
      "TFP": 8191,
      "UTH": 8192,
      "User": 8193,
      "Uses": 8194,
      "U__GFORTRAN__": 8195,
      "VG": 8196,
      "VI": 8197,
      "V99": 8198,
      "VTOT": 8199,
      "V9999999": 8200,
      "Wend": 8201,
      "Wed": 8202,
      "WED": 8203,
      "Where": 8204,
      "Warning": 8205,
      "ZIL": 8206,
      "_integer": 8207,
      "_len": 8208,
      "_number": 8209,
      "_digit": 8210,
      "_status": 8211,
      "_factor": 8212,
      "_source": 8213,
      "_items": 8214,
      "_i64": 8215,
      "_SHUFFLE": 8216,
      "_EXIST": 8217,
      "_DECK": 8218,
      "_scalar": 8219,
      "_ARR": 8220,
      "_REPRESENTATION": 8221,
      "_DRAW": 8222,
      "ath": 8223,
      "ade": 8224,
      "ahead": 8225,
      "ades": 8226,
      "awa": 8227,
      "b11": 8228,
      "bns": 8229,
      "bung": 8230,
      "bananas": 8231,
      "cmp": 8232,
      "cbuf": 8233,
      "due": 8234,
      "dsp": 8235,
      "dword": 8236,
      "dummy": 8237,
      "dloy": 8238,
      "ecode": 8239,
      "equ": 8240,
      "eatable": 8241,
      "eks": 8242,
      "f12": 8243,
      "fft": 8244,
      "fget": 8245,
      "fpi": 8246,
      "f2018": 8247,
      "gid": 8248,
      "gree": 8249,
      "g77": 8250,
      "gpi": 8251,
      "gmean": 8252,
      "hm": 8253,
      "hare": 8254,
      "huff": 8255,
      "iarg": 8256,
      "itive": 8257,
      "ield": 8258,
      "lp": 8259,
      "lz": 8260,
      "lre": 8261,
      "lPair": 8262,
      "life": 8263,
      "mil": 8264,
      "mix": 8265,
      "mium": 8266,
      "nl": 8267,
      "ndis": 8268,
      "nKx": 8269,
      "pCount": 8270,
      "ppairs": 8271,
      "q9": 8272,
      "qsort_": 8273,
      "rm": 8274,
      "rnd": 8275,
      "sd": 8276,
      "sco": 8277,
      "sgn": 8278,
      "sUtils": 8279,
      "tas": 8280,
      "trow": 8281,
      "tours": 8282,
      "uh": 8283,
      "ui": 8284,
      "ute": 8285,
      "v11": 8286,
      "v21": 8287,
      "v3_product": 8288,
      "went": 8289,
      "w12": 8290,
      "x_tmp": 8291,
      "y3": 8292,
      "yield": 8293,
      "};": 8294,
      "’.)": 8295,
      "infix": 8296,
      "in_circle": 8297,
      "tein": 8298,
      "tesian": 8299,
      "entered": 8300,
      "alge": 8301,
      "alive": 8302,
      "stable": 8303,
      "art": 8304,
      "arded": 8305,
      "repl": 8306,
      "rees": 8307,
      "rely": 8308,
      "reli": 8309,
      "reply": 8310,
      "reconfig": 8311,
      "release": 8312,
      "represented": 8313,
      "ans": 8314,
      "anum": 8315,
      "animal": 8316,
      "tick": 8317,
      "ticle": 8318,
      "sez": 8319,
      "seto": 8320,
      "sect": 8321,
      "seem": 8322,
      "outheast": 8323,
      "isq": 8324,
      "isin": 8325,
      "isation": 8326,
      "isPerfect": 8327,
      "isHarshad": 8328,
      "isbns": 8329,
      "deed": 8330,
      "deven": 8331,
      "deviation": 8332,
      "intext": 8333,
      "INVALID": 8334,
      "toe": 8335,
      "towards": 8336,
      "icho": 8337,
      "acti": 8338,
      "TELP": 8339,
      "ifor": 8340,
      "ros": 8341,
      "chan": 8342,
      "chall": 8343,
      "chance": 8344,
      "amonds": 8345,
      "noon": 8346,
      "nocolumn": 8347,
      "no5weekend": 8348,
      "itor": 8349,
      "itas": 8350,
      "cow": 8351,
      "thehead": 8352,
      "the_nodes": 8353,
      "themati": 8354,
      "006": 8355,
      "==\"": 8356,
      "str3": 8357,
      "stra": 8358,
      "strlen": 8359,
      "fort": 8360,
      "force": 8361,
      "vember": 8362,
      "sium": 8363,
      "sibling": 8364,
      "ALMOST": 8365,
      "))//'": 8366,
      "publ": 8367,
      "IONAME": 8368,
      "uel": 8369,
      "assistant": 8370,
      "ISM": 8371,
      "ISIZE": 8372,
      "ICODE": 8373,
      "atecom": 8374,
      "ENDS": 8375,
      "013": 8376,
      "0100": 8377,
      "diagon": 8378,
      "proc": 8379,
      "cally": 8380,
      "int16": 8381,
      "intArg": 8382,
      "IFROM": 8383,
      "peek": 8384,
      "pedia": 8385,
      "opFE": 8386,
      "*,\"": 8387,
      "exer": 8388,
      "SECOND": 8389,
      "REVERSE": 8390,
      "loaded": 8391,
      "len_source": 8392,
      "andon": 8393,
      "urandom": 8394,
      "traction": 8395,
      "ima": 8396,
      "imin": 8397,
      "improper": 8398,
      "improve": 8399,
      "consecu": 8400,
      "')')": 8401,
      "DIAN": 8402,
      "106": 8403,
      "FORALL": 8404,
      "maps": 8405,
      "net": 8406,
      "nearly": 8407,
      "program_behind": 8408,
      "beli": 8409,
      "LECT": 8410,
      "disc": 8411,
      "discover": 8412,
      "elf": 8413,
      "t_tail": 8414,
      "character_kind": 8415,
      "subrand": 8416,
      "THR": 8417,
      "THREE": 8418,
      "RADIX": 8419,
      "ltp": 8420,
      "INGS": 8421,
      "displays": 8422,
      "displaying": 8423,
      "displayed": 8424,
      "UTIONS": 8425,
      "oling": 8426,
      "ITCH": 8427,
      "ocx": 8428,
      "0368": 8429,
      "stringoffset": 8430,
      "spring": 8431,
      "PROV": 8432,
      "MPART": 8433,
      "_trees": 8434,
      "prange": 8435,
      "prt_list": 8436,
      "TERMIN": 8437,
      "ANK": 8438,
      "ANUM": 8439,
      "ANSI": 8440,
      "mentDigit": 8441,
      "PERFECT": 8442,
      "ALLWORDS": 8443,
      "dividing": 8444,
      "combin": 8445,
      "combs": 8446,
      "curse": 8447,
      "sho": 8448,
      "shtein": 8449,
      "api": 8450,
      "apples": 8451,
      "PLAN": 8452,
      "PLAIN": 8453,
      "tau": 8454,
      "quakes": 8455,
      "token_t": 8456,
      "100000000000000": 8457,
      "press": 8458,
      "pretty": 8459,
      "intermediate": 8460,
      "intersect": 8461,
      "GRASP": 8462,
      "1223": 8463,
      "with_found": 8464,
      "living": 8465,
      "maxima": 8466,
      "1184": 8467,
      "readline": 8468,
      "(\"\",\"": 8469,
      "(\"|\",": 8470,
      "advant": 8471,
      "weeks": 8472,
      "plicity": 8473,
      "LOWER": 8474,
      "LOPT_": 8475,
      "colours": 8476,
      "col72": 8477,
      "collections": 8478,
      "OPTABLE": 8479,
      "OPTIM": 8480,
      "printme": 8481,
      "Third": 8482,
      "arraysize": 8483,
      "irror": 8484,
      "prise": 8485,
      "setting": 8486,
      "Repe": 8487,
      "Rearrange": 8488,
      "Retreat": 8489,
      "tribu": 8490,
      "tries": 8491,
      "SUBC": 8492,
      "CHARCODE": 8493,
      "newunit": 8494,
      "pos2": 8495,
      "minIndex": 8496,
      "teststring": 8497,
      "OUTN": 8498,
      "000045": 8499,
      "SIX": 8500,
      "compound": 8501,
      "compiled": 8502,
      "logarithm": 8503,
      "resource": 8504,
      "SPBD": 8505,
      "point_constructor": 8506,
      "ody": 8507,
      "oddeven": 8508,
      "WORLD": 8509,
      "check_is_all_": 8510,
      "rytran": 8511,
      "work2": 8512,
      "date_and_": 8513,
      "sum1": 8514,
      "sum2": 8515,
      "sumsq": 8516,
      "sum_digit": 8517,
      "get_pixel": 8518,
      "get_heights": 8519,
      "eleven": 8520,
      "scoring": 8521,
      "modification": 8522,
      "154": 8523,
      "tempstr": 8524,
      "###": 8525,
      "QUIT": 8526,
      "rcname": 8527,
      "backing": 8528,
      "p_up_": 8529,
      "selector": 8530,
      ",\"\")": 8531,
      "avg": 8532,
      "mat_print": 8533,
      "66666": 8534,
      "131": 8535,
      "134": 8536,
      ".\"//": 8537,
      "CURLOPT_": 8538,
      "zero_items": 8539,
      "long_year": 8540,
      "binaryNumber": 8541,
      "binary_search": 8542,
      "FILETY": 8543,
      "\",\"\")": 8544,
      "eqv": 8545,
      "ADDPART": 8546,
      "tables": 8547,
      "('/": 8548,
      "('<": 8549,
      ")))/": 8550,
      "varying_string": 8551,
      "ABCD": 8552,
      "keyboard": 8553,
      "245": 8554,
      "24405": 8555,
      "s_ang": 8556,
      "s_and_": 8557,
      "s_squared": 8558,
      "Coll": 8559,
      "tk_And": 8560,
      "tk_Not": 8561,
      "tk_Div": 8562,
      "tk_Or": 8563,
      "tk_Mod": 8564,
      "tk_Mul": 8565,
      "tk_Assign": 8566,
      "tk_Comma": 8567,
      "tk_Neq": 8568,
      "swallow": 8569,
      "expr3": 8570,
      "NEW_": 8571,
      "147": 8572,
      "====================": 8573,
      "(/,\"": 8574,
      "OF_": 8575,
      "surely": 8576,
      "identity": 8577,
      "agm": 8578,
      "morph": 8579,
      "my_stack": 8580,
      "twiddle": 8581,
      "PRBRA": 8582,
      "Nothing": 8583,
      "November": 8584,
      "NTYPE": 8585,
      "variableoffset": 8586,
      "avl_trees": 8587,
      "'';": 8588,
      "''')": 8589,
      "sterious": 8590,
      "step_up_": 8591,
      ")/(": 8592,
      ")/)": 8593,
      "COLLECT": 8594,
      "WHAT": 8595,
      "traversal": 8596,
      "MAX_NUM": 8597,
      "n_vals": 8598,
      "Conver": 8599,
      "Conversion": 8600,
      "Consider": 8601,
      "solvable": 8602,
      "ancake": 8603,
      "1900": 8604,
      "1969": 8605,
      "Degree": 8606,
      "posite": 8607,
      "achie": 8608,
      "emplo": 8609,
      "is_rt": 8610,
      "is_ltp": 8611,
      "is_long_year": 8612,
      "TRILLIONS": 8613,
      "SETRAWBYTE": 8614,
      "IDESOL": 8615,
      "ubs": 8616,
      "counters": 8617,
      "last_one": 8618,
      "zzzzzz9": 8619,
      "factorsum": 8620,
      "finity": 8621,
      "interpreted": 8622,
      "cise": 8623,
      "cities": 8624,
      "Val1": 8625,
      "Val2": 8626,
      "_cf": 8627,
      "_cdf": 8628,
      "_carpet": 8629,
      "offspring": 8630,
      "multifactorial": 8631,
      "paper": 8632,
      "pause": 8633,
      "psq": 8634,
      "rand5": 8635,
      "randgen": 8636,
      "INPUT_FILE": 8637,
      "angle_to_time": 8638,
      "makeItem": 8639,
      "avl_insertion": 8640,
      "c_double": 8641,
      "strbuf_t_character_kind": 8642,
      "SUMM": 8643,
      "SUMBFI": 8644,
      "Exps": 8645,
      "sample_data": 8646,
      "tabl": 8647,
      "Sep": 8648,
      "Adjust": 8649,
      "284": 8650,
      "Domain": 8651,
      "Fire": 8652,
      "increase": 8653,
      "archive": 8654,
      "APING": 8655,
      "Until": 8656,
      "Units": 8657,
      "winning": 8658,
      "OUTPUT_FILE": 8659,
      "807": 8660,
      "handler": 8661,
      "Counting": 8662,
      "ULATION": 8663,
      "ibans": 8664,
      "ibanSize": 8665,
      "333": 8666,
      "IRP": 8667,
      "IRFRST": 8668,
      "Primorial": 8669,
      "*******": 8670,
      "IOUNITS": 8671,
      "THE_status": 8672,
      "YEA": 8673,
      "appended": 8674,
      "I_TENS": 8675,
      "I_HUNDRED": 8676,
      "I_QUINT": 8677,
      "I_QUADRI": 8678,
      "I_THOUSAND": 8679,
      "I_BILLIONS": 8680,
      "I_MILLIONS": 8681,
      "I_TRILLIONS": 8682,
      "LIMITED": 8683,
      "CONTAINS_ARR": 8684,
      "dlList": 8685,
      "inserted": 8686,
      "BOLISM": 8687,
      "bishop2_mask_": 8688,
      "bishop_mask_": 8689,
      "Beware": 8690,
      "said": 8691,
      "================================================": 8692,
      "meridi": 8693,
      "ASSERT": 8694,
      "FACTORED": 8695,
      "associative": 8696,
      "1011": 8697,
      "evenp": 8698,
      "even_scalar": 8699,
      "Op_not": 8700,
      "Op_add": 8701,
      "Op_less": 8702,
      "Op_assign": 8703,
      "Op_subtract": 8704,
      "Op_greater": 8705,
      "Op_divide": 8706,
      "]]\")')": 8707,
      "]]));": 8708,
      "polymorph": 8709,
      "comparing": 8710,
      "cyan": 8711,
      "TESTV": 8712,
      "define_cf": 8713,
      "drum": 8714,
      "\"-\"//": 8715,
      "SysUtils": 8716,
      "serv": 8717,
      "STRING_REPRESENTATION": 8718,
      "parm2": 8719,
      "[[[[": 8720,
      "commons": 8721,
      "print_sorted": 8722,
      "GetProperDivisors": 8723,
      "norow": 8724,
      "norths": 8725,
      "implemented": 8726,
      "gapidx": 8727,
      "StepSize": 8728,
      "calculate_circle": 8729,
      "Chop": 8730,
      "Christ": 8731,
      "Neither": 8732,
      "100000000": 8733,
      "2012": 8734,
      "2019": 8735,
      "purefib": 8736,
      "Currently": 8737,
      "cube": 8738,
      "weekends": 8739,
      "possib": 8740,
      "RECORDS": 8741,
      "accepts": 8742,
      "Creative": 8743,
      "BLANK": 8744,
      "POWER_": 8745,
      "IsPrime": 8746,
      "repeats": 8747,
      "fresh": 8748,
      "objfpc": 8749,
      "operand": 8750,
      "syntax_error_message": 8751,
      "Load": 8752,
      "Of2": 8753,
      "Randomize": 8754,
      "scanning": 8755,
      "45D0": 8756,
      "Goback": 8757,
      "movl": 8758,
      "tested": 8759,
      "alindrome": 8760,
      "process_node": 8761,
      "lexer_token_string": 8762,
      "CDIC": 8763,
      "len_target": 8764,
      "shuffled": 8765,
      "max_chars": 8766,
      "_of_n": 8767,
      "CANDIDATES": 8768,
      "homedir": 8769,
      "bigger": 8770,
      "biggest": 8771,
      "selected_char_kind": 8772,
      "CURRENT_DRAW": 8773,
      "Chars": 8774,
      "headings": 8775,
      "queen_mask_": 8776,
      "INITIALISE": 8777,
      "Mess": 8778,
      "successful": 8779,
      "the_column": 8780,
      "Points": 8781,
      "ERRORWORDS": 8782,
      "x_floor": 8783,
      "indentation": 8784,
      "Field3": 8785,
      "solely": 8786,
      "FormatNum": 8787,
      "AUG": 8788,
      "MITTELP": 8789,
      "MaxLad": 8790,
      "SWITCH": 8791,
      "inside_image": 8792,
      "tape_behind": 8793,
      "helpful": 8794,
      "square_area": 8795,
      "Checkdigit": 8796,
      "SHUFFLE_ARRAY": 8797,
      "BRAOPEN": 8798,
      "BRAZIL": 8799,
      "Plan": 8800,
      "INPDATE": 8801,
      "MAX_NUMBER": 8802,
      "horde": 8803,
      "horner": 8804,
      "y_module": 8805,
      "primcount": 8806,
      "output_ast_node_": 8807,
      "bestv": 8808,
      "shift_tail": 8809,
      "check_heights": 8810,
      "transfer": 8811,
      "LNL1": 8812,
      "UpPower": 8813,
      "ANGED": 8814,
      "sund": 8815,
      "representable": 8816,
      "declar": 8817,
      "SEARCHING": 8818,
      "LOTSADIGITS": 8819,
      "lunh": 8820,
      "tk_Lss": 8821,
      "tk_Leq": 8822,
      "insertion_search": 8823,
      "CBL_DELETE": 8824,
      "CBL_CRE": 8825,
      "']'": 8826,
      "DateTime": 8827,
      "centers": 8828,
      "seasonnum": 8829,
      "extractmin": 8830,
      "prevents": 8831,
      "MD5LEN": 8832,
      "GEN_DECK": 8833,
      "compasspoint": 8834,
      ",\"<\")": 8835,
      "tk_Eq": 8836,
      "tk_Else": 8837,
      "support": 8838,
      "otherslen": 8839,
      "\\\\\\\\\\\\\\\\\\": 8840,
      "right_side": 8841,
      "recognize": 8842,
      "Blank": 8843,
      "baz": 8844,
      "rtod": 8845,
      "important": 8846,
      "num_threads": 8847,
      "assumes": 8848,
      "DERANGED": 8849,
      "rook_mask_": 8850,
      "underflow": 8851,
      "Parameters": 8852,
      "IBANRepresent": 8853,
      "effort": 8854,
      "eastwest": 8855,
      "bishop1_mask_": 8856,
      "execute_command": 8857,
      "Operator": 8858,
      "joined": 8859,
      "odiousNumber": 8860,
      "period": 8861,
      "ENTRYTEXTCHAR": 8862,
      "largest_factor": 8863,
      "alphabe": 8864,
      "RCImageBasic": 8865,
      "SLIDESOL": 8866,
      "rule": 8867,
      "rules": 8868,
      "plausible": 8869,
      "COMPILER": 8870,
      "ABBRITE": 8871,
      "Lookup": 8872,
      "2147483": 8873,
      "AGM": 8874,
      "Background": 8875,
      "HALF": 8876,
      "SOLUTIONS": 8877,
      "an_numbers": 8878,
      "appears": 8879,
      "escaped": 8880,
      "ReplacementDigit": 8881,
      "summary": 8882,
      "find_convex_hull": 8883,
      "avl_retrieve_recursion": 8884,
      "sndxchar": 8885,
      "Insertion_Sort": 8886,
      "COMPOSITES": 8887,
      "DXE": 8888,
      "NONSQUARE": 8889,
      "RD_V": 8890,
      "s3_product": 8891,
      "static": 8892,
      "Continue": 8893,
      "successive": 8894,
      "twentyfoursolve": 8895,
      "approximation": 8896,
      "tutorial": 8897,
      "EMIRP": 8898,
      "EMBOLISM": 8899,
      "Haversine": 8900,
      "Original": 8901,
      "Rankine": 8902,
      "Solve": 8903,
      "\\//\\\\\\": 8904,
      "\\///\\\\\\": 8905,
      "restric": 8906,
      "provided": 8907,
      "truncatable": 8908,
      "concatenate": 8909,
      "tk_Gtr": 8910,
      "tk_Geq": 8911,
      "avl_contains_recursion": 8912,
      "effects": 8913,
      "calculate_rectangle": 8914,
      "calculate_square_area": 8915,
      "free_the_nodes": 8916,
      "bounded_assign_bi": 8917,
      "CUSIPCHECK": 8918,
      "_by_length": 8919,
      "_by_zero": 8920,
      "EBCDIC": 8921,
      "Freitas": 8922,
      "ITERATION": 8923,
      "LUHN": 8924,
      "cruel": 8925,
      "ING_BITS": 8926,
      "GRABSTASH": 8927,
      "_no_second_ch": 8928,
      "CONVERTING": 8929,
      "HTTPServer": 8930,
      "distribute": 8931,
      "delimiters": 8932,
      "LONGESTNUMBER": 8933,
      "ESCAPING": 8934,
      "documentation": 8935,
      "avl_delete_with_found": 8936,
      "Diff": 8937,
      "Delim": 8938,
      "Longest": 8939,
      "Maprange": 8940,
      "demonstrate": 8941,
      "',')','": 8942,
      "INT_KIND": 8943,
      "token_no_if_no_second_ch": 8944,
      "Commons": 8945,
      "fuzziness": 8946,
      "evilCount": 8947,
      "floyd_warshall": 8948,
      "INCLUDE": 8949,
      "curl_easy_seto": 8950,
      "B0Y": 8951,
      "Sqrt": 8952,
      "_DIR": 8953,
      "atoi": 8954,
      "cIOUnits": 8955,
      "gsl_cdf": 8956,
      "scheme": 8957,
      "incoming": 8958,
      "reversing": 8959,
      "unique": 8960,
      "plaintext": 8961,
      "partition3way": 8962,
      "intersecPoint": 8963,
      "foodbox": 8964,
      "coefficients": 8965,
      "ISO_1064": 8966,
      "SELECTED_INT_KIND": 8967,
      "deletion_search": 8968,
      "BubbleSort": 8969,
      "GNOMESORT": 8970,
      "\"''\")')": 8971,
      "'..'": 8972,
      "86400": 8973,
      "QUEST": 8974,
      "RoundUpPower": 8975,
      "Score": 8976,
      "Trunc": 8977,
      "drop": 8978,
      "guessed": 8979,
      "tixi_": 8980,
      "isclos": 8981,
      "ambiguous": 8982,
      "'(\"(\",": 8983,
      "Increase": 8984,
      "SPECIAL": 8985,
      "creativecommons": 8986,
      "SHA1LEN": 8987,
      "AREASL": 8988,
      "fairytale": 8989,
      "troublemakers": 8990,
      "transliteration": 8991,
      "catalan_numbers": 8992,
      "Stoogesort": 8993,
      "accuracy_module": 8994,
      "8x8": 8995,
      "Arith": 8996,
      "BUBBLE": 8997,
      "E_cm": 8998,
      "FADE": 8999,
      "Farewell": 9000,
      "FINDELEMENT": 9001,
      "Garcia": 9002,
      "GIVEOVER": 9003,
      "Hamming": 9004,
      "Handle": 9005,
      "Iyyy": 9006,
      "KNOWN": 9007,
      "MailItem": 9008,
      "MISSING_BITS": 9009,
      "OPERATOR": 9010,
      "Pedro": 9011,
      "RNDINT": 9012,
      "Title": 9013,
      "fgetc": 9014,
      "iargc": 9015,
      "lpd": 9016,
      "lrecl": 9017,
      "ndisks": 9018,
      "nKxAc": 9019,
      "rnd_val": 9020,
      "algebra": 9021,
      "replacing": 9022,
      "reconfigure": 9023,
      "ichoose": 9024,
      "opFETCH": 9025,
      "consecutive": 9026,
      "PERFECT_SHUFFLE": 9027,
      "GRASPPRIMEBAG": 9028,
      "advantage": 9029,
      "check_is_all_digits": 9030,
      "date_and_time": 9031,
      "sum_digits_squared": 9032,
      "FILETYPENAME": 9033,
      "NEW_LINE": 9034,
      "NTYPES": 9035,
      "is_rtp": 9036,
      "avl_insertion_t": 9037,
      "I_HUNDREDS": 9038,
      "I_QUINTILLIONS": 9039,
      "I_QUADRILLIONS": 9040,
      "I_THOUSANDS": 9041,
      "meridian": 9042,
      "print_sorted_by_length": 9043,
      "northsouth": 9044,
      "calculate_circle_area": 9045,
      "MaxLadies": 9046,
      "BRAZILIAN": 9047,
      "output_ast_node_flattened": 9048,
      "CBL_CREATE": 9049,
      "IBANRepresentation": 9050,
      "execute_command_line": 9051,
      "SLIDESOLVE": 9052,
      "ABBRITEM": 9053,
      "calculate_rectangle_area": 9054,
      "curl_easy_setopt": 9055,
      "gsl_cdf_ch": 9056,
      "ISO_10646": 9057,
      "RoundUpPowerOf2": 9058,
      "!)": 9059,
      "!,": 9060,
      "!';": 9061,
      "!================================================================": 9062,
      "\"&": 9063,
      "\"***": 9064,
      "\"[\"": 9065,
      "\"?\"": 9066,
      "#-->": 9067,
      "$\"": 9068,
      "$,": 9069,
      "$\",": 9070,
      "'));": 9071,
      "'!'": 9072,
      "'),'": 9073,
      "((/": 9074,
      ")?": 9075,
      ")^": 9076,
      ")}": 9077,
      ")','": 9078,
      ")//\"": 9079,
      "*))": 9080,
      "+=": 9081,
      ",...": 9082,
      ",};": 9083,
      "-:=": 9084,
      ".>": 9085,
      "/!": 9086,
      "/'": 9087,
      "/.": 9088,
      "/\")": 9089,
      "/\\\\\\\\\\": 9090,
      "0A": 9091,
      "0d": 9092,
      "188": 9093,
      "2a": 9094,
      "2c": 9095,
      "230": 9096,
      "3H": 9097,
      "399": 9098,
      "334": 9099,
      "4th": 9100,
      "4000": 9101,
      "4D0": 9102,
      "4036": 9103,
      "512": 9104,
      "502": 9105,
      "603": 9106,
      "602": 9107,
      "617": 9108,
      "743": 9109,
      "9X": 9110,
      "901": 9111,
      "922": 9112,
      ":\".": 9113,
      ";\\": 9114,
      "=*)": 9115,
      "=\"(": 9116,
      "=(/": 9117,
      ">)": 9118,
      "??": 9119,
      "A6": 9120,
      "A7": 9121,
      "A8": 9122,
      "AZ": 9123,
      "Ag": 9124,
      "Apri": 9125,
      "A13": 9126,
      "A30": 9127,
      "APRI": 9128,
      "Att": 9129,
      "BI": 9130,
      "BS": 9131,
      "Ben": 9132,
      "Ban": 9133,
      "BAL": 9134,
      "BUT": 9135,
      "BAS": 9136,
      "BLO": 9137,
      "Bound": 9138,
      "BABB": 9139,
      "Cy": 9140,
      "Cat": 9141,
      "CIS": 9142,
      "Choles": 9143,
      "Carry": 9144,
      "CISS": 9145,
      "Centre": 9146,
      "Clipping": 9147,
      "DRO": 9148,
      "Doc": 9149,
      "Dir": 9150,
      "DNAME": 9151,
      "EEL": 9152,
      "EUL": 9153,
      "Every": 9154,
      "Eleven": 9155,
      "FH": 9156,
      "FRA": 9157,
      "FIT": 9158,
      "Full": 9159,
      "Follow": 9160,
      "FULL": 9161,
      "Feb": 9162,
      "GL": 9163,
      "G_": 9164,
      "Gn": 9165,
      "Gan": 9166,
      "GRI": 9167,
      "Give": 9168,
      "Gamma": 9169,
      "HA": 9170,
      "HC": 9171,
      "HEN": 9172,
      "High": 9173,
      "HERO": 9174,
      "HDR": 9175,
      "I7": 9176,
      "IE": 9177,
      "IME": 9178,
      "IVAL": 9179,
      "Isort": 9180,
      "IBLE": 9181,
      "IEB": 9182,
      "IACHAR": 9183,
      "JJ": 9184,
      "JUN": 9185,
      "Jump": 9186,
      "JDay": 9187,
      "King": 9188,
      "KMP": 9189,
      "KPRODUCT": 9190,
      "LX": 9191,
      "LIF": 9192,
      "LUS": 9193,
      "LAB": 9194,
      "Link": 9195,
      "LMAR": 9196,
      "Like": 9197,
      "MJ": 9198,
      "ML": 9199,
      "Mad": 9200,
      "MUM": 9201,
      "Mary": 9202,
      "MNE": 9203,
      "Mob": 9204,
      "NAR": 9205,
      "NAN": 9206,
      "NBEST": 9207,
      "NativeUInt": 9208,
      "O0": 9209,
      "OST": 9210,
      "Odd": 9211,
      "PK": 9212,
      "P_": 9213,
      "Pic": 9214,
      "PACK": 9215,
      "Pleapyear": 9216,
      "Pancake": 9217,
      "Palindrome": 9218,
      "RINS": 9219,
      "Range": 9220,
      "RSORT": 9221,
      "Rather": 9222,
      "S1": 9223,
      "S2": 9224,
      "SRE": 9225,
      "SUN": 9226,
      "SACK": 9227,
      "Sigh": 9228,
      "Sure": 9229,
      "Soci": 9230,
      "SCAN": 9231,
      "Shape": 9232,
      "S999999": 9233,
      "TF": 9234,
      "Tw": 9235,
      "Ten": 9236,
      "TAL": 9237,
      "TRO": 9238,
      "TIT": 9239,
      "Tran": 9240,
      "Tally": 9241,
      "TPrime": 9242,
      "TTest": 9243,
      "UINT": 9244,
      "URITE": 9245,
      "VT": 9246,
      "Van": 9247,
      "Vic": 9248,
      "Vol": 9249,
      "VME": 9250,
      "Vect": 9251,
      "Via": 9252,
      "XP2": 9253,
      "XOpen": 9254,
      "Zero": 9255,
      "Zag": 9256,
      "ZA3": 9257,
      "ZRS": 9258,
      "[(": 9259,
      "\\\"": 9260,
      "^{": 9261,
      "^|": 9262,
      "_C": 9263,
      "_R": 9264,
      "_w": 9265,
      "_code": 9266,
      "_ast": 9267,
      "_input": 9268,
      "_result": 9269,
      "_begin": 9270,
      "_24": 9271,
      "_buffer": 9272,
      "_dp": 9273,
      "_token_no": 9274,
      "_stream": 9275,
      "_queen": 9276,
      "_demo": 9277,
      "_brace": 9278,
      "_ANGLE": 9279,
      "_median": 9280,
      "_exists": 9281,
      "_ik": 9282,
      "_close_quote": 9283,
      "_missing_": 9284,
      "a4": 9285,
      "a10": 9286,
      "awk": 9287,
      "bE": 9288,
      "bN": 9289,
      "bS": 9290,
      "bW": 9291,
      "bd": 9292,
      "bur": 9293,
      "bage": 9294,
      "bins": 9295,
      "bble": 9296,
      "boring": 9297,
      "basic": 9298,
      "c5": 9299,
      "cx": 9300,
      "cis": 9301,
      "came": 9302,
      "care": 9303,
      "cdx": 9304,
      "croot1": 9305,
      "cuts": 9306,
      "dit": 9307,
      "drand": 9308,
      "euler": 9309,
      "f0": 9310,
      "f5": 9311,
      "f10": 9312,
      "fish": 9313,
      "f17": 9314,
      "flection": 9315,
      "faster": 9316,
      "fbc": 9317,
[...]
